{"version": "1.0", "truncation": null, "padding": null, "added_tokens": [{"id": 0, "content": "<|endoftext|>", "single_word": false, "lstrip": false, "rstrip": false, "normalized": false, "special": true}, {"id": 1, "content": "<|pad|>", "single_word": false, "lstrip": false, "rstrip": false, "normalized": false, "special": true}, {"id": 2, "content": "<|im_start|>", "single_word": false, "lstrip": false, "rstrip": false, "normalized": false, "special": true}, {"id": 3, "content": "<|im_end|>", "single_word": false, "lstrip": false, "rstrip": false, "normalized": false, "special": true}, {"id": 4, "content": "<|reserved_0|>", "single_word": false, "lstrip": false, "rstrip": false, "normalized": false, "special": true}, {"id": 5, "content": "<|reserved_1|>", "single_word": false, "lstrip": false, "rstrip": false, "normalized": false, "special": true}, {"id": 6, "content": "<|reserved_2|>", "single_word": false, "lstrip": false, "rstrip": false, "normalized": false, "special": true}, {"id": 7, "content": "<|reserved_3|>", "single_word": false, "lstrip": false, "rstrip": false, "normalized": false, "special": true}, {"id": 8, "content": "<|reserved_4|>", "single_word": false, "lstrip": false, "rstrip": false, "normalized": false, "special": true}, {"id": 9, "content": "<|reserved_5|>", "single_word": false, "lstrip": false, "rstrip": false, "normalized": false, "special": true}, {"id": 10, "content": "<|reserved_6|>", "single_word": false, "lstrip": false, "rstrip": false, "normalized": false, "special": true}, {"id": 11, "content": "<|reserved_7|>", "single_word": false, "lstrip": false, "rstrip": false, "normalized": false, "special": true}, {"id": 12, "content": "<|reserved_8|>", "single_word": false, "lstrip": false, "rstrip": false, "normalized": false, "special": true}, {"id": 13, "content": "<|reserved_9|>", "single_word": false, "lstrip": false, "rstrip": false, "normalized": false, "special": true}, {"id": 14, "content": "<|reserved_10|>", "single_word": false, "lstrip": false, "rstrip": false, "normalized": false, "special": true}, {"id": 15, "content": "<|reserved_11|>", "single_word": false, "lstrip": false, "rstrip": false, "normalized": false, "special": true}], "normalizer": {"type": "NFC"}, "pre_tokenizer": {"type": "ByteLevel", "add_prefix_space": false, "trim_offsets": true, "use_regex": true}, "post_processor": {"type": "ByteLevel", "add_prefix_space": true, "trim_offsets": true, "use_regex": true}, "decoder": {"type": "ByteLevel", "add_prefix_space": true, "trim_offsets": true, "use_regex": true}, "model": {"type": "BPE", "dropout": null, "unk_token": null, "continuing_subword_prefix": null, "end_of_word_suffix": null, "fuse_unk": false, "byte_fallback": false, "ignore_merges": false, "vocab": {"<|endoftext|>": 0, "<|pad|>": 1, "<|im_start|>": 2, "<|im_end|>": 3, "<|reserved_0|>": 4, "<|reserved_1|>": 5, "<|reserved_2|>": 6, "<|reserved_3|>": 7, "<|reserved_4|>": 8, "<|reserved_5|>": 9, "<|reserved_6|>": 10, "<|reserved_7|>": 11, "<|reserved_8|>": 12, "<|reserved_9|>": 13, "<|reserved_10|>": 14, "<|reserved_11|>": 15, "!": 16, "\"": 17, "#": 18, "$": 19, "%": 20, "&": 21, "'": 22, "(": 23, ")": 24, "*": 25, "+": 26, ",": 27, "-": 28, ".": 29, "/": 30, "0": 31, "1": 32, "2": 33, "3": 34, "4": 35, "5": 36, "6": 37, "7": 38, "8": 39, "9": 40, ":": 41, ";": 42, "<": 43, "=": 44, ">": 45, "?": 46, "@": 47, "A": 48, "B": 49, "C": 50, "D": 51, "E": 52, "F": 53, "G": 54, "H": 55, "I": 56, "J": 57, "K": 58, "L": 59, "M": 60, "N": 61, "O": 62, "P": 63, "Q": 64, "R": 65, "S": 66, "T": 67, "U": 68, "V": 69, "W": 70, "X": 71, "Y": 72, "Z": 73, "[": 74, "\\": 75, "]": 76, "^": 77, "_": 78, "`": 79, "a": 80, "b": 81, "c": 82, "d": 83, "e": 84, "f": 85, "g": 86, "h": 87, "i": 88, "j": 89, "k": 90, "l": 91, "m": 92, "n": 93, "o": 94, "p": 95, "q": 96, "r": 97, "s": 98, "t": 99, "u": 100, "v": 101, "w": 102, "x": 103, "y": 104, "z": 105, "{": 106, "|": 107, "}": 108, "~": 109, "¡": 110, "¢": 111, "£": 112, "¤": 113, "¥": 114, "¦": 115, "§": 116, "¨": 117, "©": 118, "ª": 119, "«": 120, "¬": 121, "®": 122, "¯": 123, "°": 124, "±": 125, "²": 126, "³": 127, "´": 128, "µ": 129, "¶": 130, "·": 131, "¸": 132, "¹": 133, "º": 134, "»": 135, "¼": 136, "½": 137, "¾": 138, "¿": 139, "À": 140, "Á": 141, "Â": 142, "Ã": 143, "Ä": 144, "Å": 145, "Æ": 146, "Ç": 147, "È": 148, "É": 149, "Ê": 150, "Ë": 151, "Ì": 152, "Í": 153, "Î": 154, "Ï": 155, "Ð": 156, "Ñ": 157, "Ò": 158, "Ó": 159, "Ô": 160, "Õ": 161, "Ö": 162, "×": 163, "Ø": 164, "Ù": 165, "Ú": 166, "Û": 167, "Ü": 168, "Ý": 169, "Þ": 170, "ß": 171, "à": 172, "á": 173, "â": 174, "ã": 175, "ä": 176, "å": 177, "æ": 178, "ç": 179, "è": 180, "é": 181, "ê": 182, "ë": 183, "ì": 184, "í": 185, "î": 186, "ï": 187, "ð": 188, "ñ": 189, "ò": 190, "ó": 191, "ô": 192, "õ": 193, "ö": 194, "÷": 195, "ø": 196, "ù": 197, "ú": 198, "û": 199, "ü": 200, "ý": 201, "þ": 202, "ÿ": 203, "Ā": 204, "ā": 205, "Ă": 206, "ă": 207, "Ą": 208, "ą": 209, "Ć": 210, "ć": 211, "Ĉ": 212, "ĉ": 213, "Ċ": 214, "ċ": 215, "Č": 216, "č": 217, "Ď": 218, "ď": 219, "Đ": 220, "đ": 221, "Ē": 222, "ē": 223, "Ĕ": 224, "ĕ": 225, "Ė": 226, "ė": 227, "Ę": 228, "ę": 229, "Ě": 230, "ě": 231, "Ĝ": 232, "ĝ": 233, "Ğ": 234, "ğ": 235, "Ġ": 236, "ġ": 237, "Ģ": 238, "ģ": 239, "Ĥ": 240, "ĥ": 241, "Ħ": 242, "ħ": 243, "Ĩ": 244, "ĩ": 245, "Ī": 246, "ī": 247, "Ĭ": 248, "ĭ": 249, "Į": 250, "į": 251, "İ": 252, "ı": 253, "Ĳ": 254, "ĳ": 255, "Ĵ": 256, "ĵ": 257, "Ķ": 258, "ķ": 259, "ĸ": 260, "Ĺ": 261, "ĺ": 262, "Ļ": 263, "ļ": 264, "Ľ": 265, "ľ": 266, "Ŀ": 267, "ŀ": 268, "Ł": 269, "ł": 270, "Ń": 271, "aa": 272, "ay": 273, "oo": 274, "ka": 275, "da": 276, "ee": 277, "ha": 278, "ii": 279, "la": 280, "Ġi": 281, "Ġs": 282, "ar": 283, "Ġw": 284, "Ġd": 285, "aan": 286, "an": 287, "Ġka": 288, "Ġm": 289, "uu": 290, "Ġa": 291, "Ġk": 292, "ax": 293, "ga": 294, "Ġay": 295, "ad": 296, "ta": 297, "ada": 298, "li": 299, "Ġoo": 300, "Ġb": 301, "ey": 302, "Ġla": 303, "yo": 304, "Ġku": 305, "in": 306, "ĠS": 307, "Ġu": 308, "Ġin": 309, "Ġah": 310, "ĠM": 311, "ir": 312, "aad": 313, "Ġq": 314, "gu": 315, "Ġwax": 316, "id": 317, "ab": 318, "Ġx": 319, "iy": 320, "Ġee": 321, "aar": 322, "Ġc": 323, "Ġda": 324, "Ġh": 325, "Ġiyo": 326, "aas": 327, "na": 328, "as": 329, "Ġg": 330, "ĠA": 331, "al": 332, "or": 333, "ĠD": 334, "ma": 335, "Ġl": 336, "Ġt": 337, "is": 338, "Ġha": 339, "ya": 340, "ĠC": 341, "Ġdh": 342, "een": 343, "Ġj": 344, "lka": 345, "Ġayaa": 346, "Ġdha": 347, "hay": 348, "âĢ": 349, "ĠW": 350, "Ġuu": 351, "Ġf": 352, "kii": 353, "Ġsoo": 354, "ur": 355, "ĠK": 356, "il": 357, "ĠG": 358, "ĠB": 359, "Ġis": 360, "aab": 361, "le": 362, "maa": 363, "er": 364, "san": 365, "iga": 366, "am": 367, "Ġn": 368, "Ġy": 369, "ag": 370, "ĠI": 371, "oon": 372, "Ġsh": 373, "eeg": 374, "iis": 375, "iin": 376, "eed": 377, "ĠH": 378, "lan": 379, "ĠX": 380, "ow": 381, "tay": 382, "ed": 383, "ib": 384, "aal": 385, "eer": 386, "Ġsi": 387, "eyn": 388, "ig": 389, "ba": 390, "Ġmar": 391, "us": 392, "Ġloo": 393, "aala": 394, "Ġr": 395, "ac": 396, "aam": 397, "Ġta": 398, "to": 399, "im": 400, "adda": 401, "un": 402, "ti": 403, "ul": 404, "Ġ2": 405, "Ġwaa": 406, "..": 407, "on": 408, "aha": 409, "ĠSoo": 410, "maali": 411, "Ġlagu": 412, "ud": 413, "eey": 414, "adan": 415, "Ġsha": 416, "ĠT": 417, "ays": 418, "lin": 419, "Ġhor": 420, "Ġaan": 421, "iir": 422, "sha": 423, "ĠJ": 424, "ku": 425, "Ġjir": 426, "en": 427, "eys": 428, "Ġugu": 429, "sh": 430, "ub": 431, "ĠL": 432, "ĠSoomaali": 433, "Ġmid": 434, "ĠF": 435, "lay": 436, "Ġga": 437, "ood": 438, "Ġsheeg": 439, "adax": 440, "ĠO": 441, "ĠQ": 442, "ob": 443, "Ġar": 444, "Ġkale": 445, "ayn": 446, "ĠN": 447, "âĢĻ": 448, "og": 449, "land": 450, "dda": 451, "dh": 452, "ĠR": 453, "Ġ1": 454, "Ġma": 455, "uur": 456, "Ġwaxaa": 457, "maan": 458, "ol": 459, "Ġaad": 460, "mali": 461, "Ġ(": 462, "ooy": 463, "um": 464, "Ġ20": 465, "dan": 466, "ih": 467, "Ġkar": 468, "omali": 469, "Ġbadan": 470, "eg": 471, "aah": 472, "day": 473, "Ġdoon": 474, "dii": 475, "Ġdad": 476, "Ġgu": 477, "aya": 478, "Ġlaga": 479, "Ġwaxay": 480, "it": 481, "ĠP": 482, "Ġwaxa": 483, "ĠU": 484, "oob": 485, "Ġwar": 486, "aaf": 487, "aw": 488, "mada": 489, "oor": 490, "el": 491, "aag": 492, "ux": 493, "ex": 494, "han": 495, "ho": 496, "aana": 497, "kh": 498, "ix": 499, "Ġqab": 500, "aalada": 501, "adaxw": 502, "ĠSomali": 503, "ri": 504, "yahay": 505, "ĠSoomaaliya": 506, "uq": 507, "Ġsheegay": 508, "aasi": 509, "of": 510, "aq": 511, "Ġhad": 512, "oc": 513, "af": 514, "Ġinay": 515, "es": 516, "ayo": 517, "oq": 518, "ug": 519, "ĠE": 520, "od": 521, "ĠâĢ": 522, "arka": 523, "owla": 524, "Ġ201": 525, "Ġsid": 526, "ooyin": 527, "Ġkala": 528, "inta": 529, "taa": 530, "...": 531, "ali": 532, "kan": 533, "eli": 534, "aaw": 535, "om": 536, "Ġgaar": 537, "sa": 538, "uxuu": 539, "aanka": 540, "agaalada": 541, "se": 542, "aac": 543, "Ġdar": 544, "ĠSh": 545, "tii": 546, "eh": 547, "naha": 548, "ĠWax": 549, "Ġdalka": 550, "di": 551, "laa": 552, "iyaar": 553, "ĠMax": 554, "oog": 555, "yada": 556, "do": 557, "mb": 558, "maha": 559, "ooda": 560, "aanta": 561, "aalka": 562, "Ġdhac": 563, "Ġtahay": 564, "AA": 565, "Wax": 566, "Ġshaq": 567, "ida": 568, "Ġsida": 569, "eeda": 570, "ic": 571, "Ġsoc": 572, "Ġbar": 573, "lo": 574, "ala": 575, "Ġdib": 576, "Ġad": 577, "Ġna": 578, "dis": 579, "iida": 580, "uud": 581, "ĠOo": 582, "Ġahaa": 583, "laha": 584, "Ġkuw": 585, "Ġwuxuu": 586, "Ġsam": 587, "haa": 588, "âŁ": 589, "at": 590, "Ġyahay": 591, "ihiin": 592, "soo": 593, "iyo": 594, "âĢĿ": 595, "hii": 596, "ĠY": 597, "iisa": 598, "st": 599, "Ġama": 600, "asiir": 601, "aga": 602, "eel": 603, "lada": 604, "ĠMar": 605, "Ġnoq": 606, "oox": 607, "uuq": 608, "asha": 609, "obo": 610, "aaq": 611, "Ġsan": 612, "ĠSha": 613, "hi": 614, "iyay": 615, "Ġleh": 616, "Ġsii": 617, "ĠCab": 618, "adii": 619, "Ġinuu": 620, "uun": 621, "Ġdeg": 622, "ĠMaxam": 623, "eeyay": 624, "ĠWar": 625, "ayaa": 626, "ĠIs": 627, "ĠIn": 628, "Ġmarkii": 629, "sta": 630, "Ġqor": 631, "ĠSomaliland": 632, "Ġuga": 633, "tic": 634, "si": 635, "ĠAl": 636, "uqdis": 637, "unt": 638, "Ġwada": 639, "sad": 640, "Ġ-": 641, "asaar": 642, "Ġisku": 643, "alka": 644, "iya": 645, "uqdisho": 646, "Ġtir": 647, "tan": 648, "liy": 649, "kaas": 650, "Ġmagaalada": 651, "ooyinka": 652, "irka": 653, "Ġqaad": 654, "eynaha": 655, "ool": 656, "Ġbax": 657, "ulka": 658, "aasha": 659, "Ġdadka": 660, "iinta": 661, "Ġwaxaan": 662, "Ġgar": 663, "add": 664, "Ġhal": 665, "Ġsaar": 666, "Ġxir": 667, "miy": 668, "Ġlab": 669, "Ġdhex": 670, "uk": 671, "ĠMadaxw": 672, "Ġdhaq": 673, "uul": 674, "Ġahaan": 675, "ĠKu": 676, "Ġan": 677, "ash": 678, "mo": 679, "can": 680, "Ġmu": 681, "Ġqof": 682, "obolka": 683, "oos": 684, "Ġdowla": 685, "iib": 686, "re": 687, "Ġgud": 688, "ayaan": 689, "Ġdhig": 690, "Ġbil": 691, "yad": 692, "untland": 693, "ees": 694, "Ġhe": 695, "Ġhore": 696, "no": 697, "Ġqaa": 698, "Ġp": 699, "ĠKa": 700, "Ġdag": 701, "ĠMuqdisho": 702, "ro": 703, "ayd": 704, "ec": 705, "Ġdoor": 706, "Ġqar": 707, "ana": 708, "eyne": 709, "aakii": 710, "00": 711, "Ġdhaw": 712, "Ġam": 713, "he": 714, "Ġkoox": 715, "daha": 716, "Ġhada": 717, "Ġsar": 718, "Ġfar": 719, "Ġyihiin": 720, "aadka": 721, "eb": 722, "aj": 723, "ah": 724, "anka": 725, "baab": 726, "ew": 727, "may": 728, "aay": 729, "ĠDh": 730, "ĠDha": 731, "Ġ|": 732, "ter": 733, "Ġwaxaana": 734, "Ġmaanta": 735, "ĠMaxamed": 736, "eysa": 737, "ayb": 738, "kaa": 739, "Ġog": 740, "iil": 741, "uum": 742, "iid": 743, "Ġyar": 744, "med": 745, "usub": 746, "uw": 747, "Ġdhan": 748, "Ġwal": 749, "mi": 750, "Ġ3": 751, "iyey": 752, "iidamada": 753, "ashada": 754, "adaha": 755, "ĠPuntland": 756, "ĠAf": 757, "ĠâĢľ": 758, "Ġgo": 759, "oomiy": 760, "iyaas": 761, "Ġdamb": 762, "iiska": 763, "mar": 764, "Ġloogu": 765, "Ġmaam": 766, "Ġ,": 767, "taan": 768, "abab": 769, "Ġbaa": 770, "gac": 771, "maanka": 772, "ĠAr": 773, "naa": 774, "yeed": 775, "Ġilaa": 776, "ili": 777, "Ġbix": 778, "Ġkor": 779, "Ġmarka": 780, "te": 781, "ihii": 782, "Ġbal": 783, "Ġtaag": 784, "Ġdal": 785, "Ġmaa": 786, "siga": 787, "Ġisla": 788, "linta": 789, "Ġdham": 790, "Ġlahaa": 791, "Ġayuu": 792, "Ġhadlay": 793, "Ġweyn": 794, "Ġxil": 795, "aysa": 796, "ska": 797, "ĠBar": 798, "âĢ¦": 799, "abka": 800, "dha": 801, "Ġwad": 802, "abad": 803, "bar": 804, "shada": 805, "Ġciyaar": 806, "Ġfur": 807, "Ġlooga": 808, "Ġdhin": 809, "et": 810, "hu": 811, "Ġaf": 812, "eenka": 813, "kiisa": 814, "ak": 815, "kaasi": 816, "Ġmagac": 817, "ĠGud": 818, "Ġ\"": 819, "dib": 820, "Ġkasta": 821, "ĠQar": 822, "âŁ¨": 823, "âŁ©": 824, "ent": 825, "Ġ...": 826, "Ġshar": 827, "ni": 828, "umar": 829, "Ġcusub": 830, "ews": 831, "eeya": 832, "eeyo": 833, "Ġhab": 834, "ing": 835, "yadoo": 836, "eyb": 837, "Ġab": 838, "Ġmac": 839, "Ġaq": 840, "nim": 841, "du": 842, "Ġjira": 843, "Ġqaar": 844, "Ġqayb": 845, "Ġjoog": 846, "Ġsidoo": 847, "Ġhaw": 848, "uwan": 849, "aada": 850, "AD": 851, "ĠAb": 852, "Ġal": 853, "Ġmas": 854, "Ġnoo": 855, "dhib": 856, "isb": 857, "ĠXas": 858, "adka": 859, "ĠLa": 860, "Ġban": 861, "aakiin": 862, "iyada": 863, "Ġdhacay": 864, "url": 865, "Ġbad": 866, "iri": 867, "ĠAx": 868, "uf": 869, "Ġtirsan": 870, "eeyey": 871, "Ġdheer": 872, "ia": 873, "ĠCali": 874, "Ġmax": 875, "Ġinta": 876, "Ġnin": 877, "kaan": 878, "iidan": 879, "Ġdhis": 880, "ĠFar": 881, "Ġdhib": 882, "20": 883, "aaj": 884, "ch": 885, "Ġkuwa": 886, "har": 887, "Ġiya": 888, "Ġdhow": 889, "ayay": 890, "Ġil": 891, "aama": 892, "mad": 893, "ĠWasiir": 894, "Ġkulan": 895, "ĠGal": 896, "Ġdan": 897, "dhibaan": 898, "ĠDowla": 899, "anaag": 900, "Ġmadax": 901, "Ġxar": 902, "ĠSoomaaliyeed": 903, "Ġdeeg": 904, "Ġiyadoo": 905, "shay": 906, "ca": 907, "aax": 908, "ij": 909, "Ġduwan": 910, "aabo": 911, "ĠâĢĵ": 912, "ayso": 913, "man": 914, "AR": 915, "dhig": 916, "eedka": 917, "Ġyee": 918, "Ġiska": 919, "Ġgal": 920, "Ġaw": 921, "ĠV": 922, "enya": 923, "tar": 924, "eyso": 925, "Ġcad": 926, "Ġkeen": 927, "io": 928, "War": 929, "ĠIyo": 930, "ĠCabdi": 931, "tu": 932, "Ġcar": 933, "aale": 934, "Ġon": 935, "ĠMu": 936, "teen": 937, "ĠWasaar": 938, "Ġdaw": 939, "Ġxid": 940, "Ġsug": 941, "Ġwa": 942, "Ġsabab": 943, "Ġmark": 944, "eerar": 945, "oy": 946, "Ġgobolka": 947, "aarla": 948, "lad": 949, "anac": 950, "cabka": 951, "Ġqeyb": 952, "Ġdiyaar": 953, "yay": 954, "ĠAxmed": 955, "Ġdowladda": 956, "Ġtaas": 957, "Ġ4": 958, "unta": 959, "oow": 960, "ĠCabd": 961, "Madaxw": 962, "ra": 963, "eder": 964, "Ġmud": 965, "rimaha": 966, "ĠXasan": 967, "Ġhaddii": 968, "ĠMagaalada": 969, "Ġfi": 970, "eyd": 971, "Ġhesh": 972, "Ġsax": 973, "Ġto": 974, "arg": 975, "Ġhadda": 976, "Ġkha": 977, "Ġkadib": 978, "yar": 979, "eesha": 980, "Ġmadaxw": 981, "AN": 982, "Ġbul": 983, "aat": 984, "Ġlee": 985, "Ġdil": 986, "uux": 987, "ĠGo": 988, "rur": 989, "Ġmus": 990, "ĠAy": 991, "kanka": 992, "oomiyaha": 993, "ĠAh": 994, "eynta": 995, "Ġtag": 996, "aado": 997, "aalam": 998, "uus": 999, "Ġ5": 1000, "Ġcod": 1001, "Ġmeel": 1002, "Ġlac": 1003, "Ġdoono": 1004, "bad": 1005, "Ġistic": 1006, "ĠEe": 1007, "rin": 1008, "agoo": 1009, "Ġqaab": 1010, "Ġkaro": 1011, "Ġhog": 1012, "ĠKenya": 1013, "iix": 1014, "ĠGar": 1015, "Ġid": 1016, "gal": 1017, "eekh": 1018, "Ġo": 1019, "ĠÂ": 1020, "Ġreer": 1021, "Ġkh": 1022, "Ġof": 1023, "Ø§": 1024, "Ġxaq": 1025, "Ġtar": 1026, "Ġsiyaas": 1027, "Ġ.": 1028, "Ġinaad": 1029, "eeb": 1030, "Ġe": 1031, "obol": 1032, "Ġyiri": 1033, "Ġmuuq": 1034, "Ġdhinac": 1035, "Ġshirka": 1036, "sii": 1037, "gan": 1038, "Ġkula": 1039, "Ġwanaag": 1040, "Ġnoqon": 1041, "II": 1042, "Ùİ": 1043, "Ġlaakiin": 1044, "kooda": 1045, "ukuum": 1046, "ugu": 1047, "Ġfii": 1048, "laah": 1049, "Ġxiriir": 1050, "aba": 1051, "daan": 1052, "elin": 1053, "liya": 1054, "Ġhel": 1055, "Ġadeeg": 1056, "Ġsidii": 1057, "ome": 1058, "Waxaa": 1059, "aawo": 1060, "eysan": 1061, "yeen": 1062, "Ġ[": 1063, "ĠMid": 1064, "Ġkooxda": 1065, "Ġinaan": 1066, "Ġhalka": 1067, "aalaha": 1068, "Ġmaq": 1069, "ĠGobolka": 1070, "jin": 1071, "ĠMadaxweynaha": 1072, "so": 1073, "Ġthe": 1074, "toob": 1075, "Ġjeed": 1076, "if": 1077, "ticle": 1078, "Ġgaad": 1079, "iyaan": 1080, "Ġkasoo": 1081, "Ġlacag": 1082, "Ġdab": 1083, "awir": 1084, "ore": 1085, "Ġguul": 1086, "Ġshir": 1087, "Ġgacan": 1088, "Ġciidamada": 1089, "tir": 1090, "ĠâŁ¨": 1091, "saday": 1092, "oonka": 1093, "aabay": 1094, "Ġkul": 1095, "Ġyim": 1096, "Ġdagaal": 1097, "Ġmaal": 1098, "Ġsal": 1099, "asho": 1100, "ÙĦ": 1101, "Ġgur": 1102, "isay": 1103, "iyaha": 1104, "HA": 1105, "aarlamaanka": 1106, "Ġya": 1107, "th": 1108, "Ġsare": 1109, "Ġkan": 1110, "Ġjiray": 1111, "ĠAfri": 1112, "Ġahayd": 1113, "OO": 1114, "adh": 1115, "Ġ0": 1116, "Ġgalay": 1117, "Ġkoob": 1118, "iiq": 1119, "Ġdir": 1120, "Ġyid": 1121, "mid": 1122, "Ġisaga": 1123, "Sha": 1124, "jo": 1125, "Ġbaahan": 1126, "adeed": 1127, "Ġarticle": 1128, "Ġtaageer": 1129, "âĢľ": 1130, "ĠWaa": 1131, "bo": 1132, "aash": 1133, "aabsan": 1134, "Ġ&": 1135, "agaal": 1136, "kood": 1137, "Ġhub": 1138, "Ġv": 1139, "Ġde": 1140, "aafim": 1141, "Ġlabada": 1142, "ona": 1143, "iso": 1144, "Ġ19": 1145, "addii": 1146, "ĠSheekh": 1147, "bix": 1148, "iif": 1149, "ĠMaam": 1150, "Ġkaga": 1151, "Ġwanaagsan": 1152, "ederaalka": 1153, "op": 1154, "oona": 1155, "Ġweerar": 1156, "aasim": 1157, "Ġsocda": 1158, "ĠSomalia": 1159, "eysay": 1160, "ildhibaan": 1161, "ish": 1162, "diga": 1163, "IS": 1164, "Ġhay": 1165, "ĠNews": 1166, "ladda": 1167, "de": 1168, "Ġkal": 1169, "ilka": 1170, "oose": 1171, "Ġqaaday": 1172, "nu": 1173, "tion": 1174, "ina": 1175, "uunka": 1176, "Ġwaq": 1177, "ĠAm": 1178, "Ġrab": 1179, "ki": 1180, "sho": 1181, "Ġayaan": 1182, "Ġcab": 1183, "ilmaa": 1184, "aamin": 1185, "Ġsanad": 1186, "Ġleeyahay": 1187, "tee": 1188, "Ġxoog": 1189, "alab": 1190, "fur": 1191, "Ġlahay": 1192, "udug": 1193, "tada": 1194, "Ġaqoon": 1195, "hiim": 1196, "Ġguud": 1197, "ĠMus": 1198, "inka": 1199, "aarii": 1200, "dane": 1201, "ĠDeg": 1202, "ĠMadaxweyne": 1203, "In": 1204, "ment": 1205, "Ġdoonaa": 1206, "iidanka": 1207, "Ġbaxay": 1208, "Ġsaabsan": 1209, "ĠBan": 1210, "Ġwali": 1211, "os": 1212, "ver": 1213, "isbiga": 1214, "ve": 1215, "yey": 1216, "aaday": 1217, "ĠMas": 1218, "jir": 1219, "ĠWaxaa": 1220, ":-": 1221, "ep": 1222, "Ġisticmaa": 1223, "naan": 1224, "Ġway": 1225, "olo": 1226, "Ġwasaar": 1227, "KA": 1228, "Ġaysan": 1229, "mber": 1230, "toobiya": 1231, "Ġcid": 1232, "iye": 1233, "Ġsharc": 1234, "Home": 1235, "Ġmaamulka": 1236, "Ġtal": 1237, "dag": 1238, "Ġtan": 1239, "ĠCar": 1240, "Ġaa": 1241, "ooga": 1242, "nay": 1243, "Waxaan": 1244, "wax": 1245, "tti": 1246, "Ġisagoo": 1247, "tt": 1248, "ĠAd": 1249, "ista": 1250, "Ġjec": 1251, "eena": 1252, "ixii": 1253, "dar": 1254, "Ġ6": 1255, "Ġhadal": 1256, "Ġmuu": 1257, "madda": 1258, "ĠMadax": 1259, "Ġxub": 1260, "AL": 1261, "iyadda": 1262, "Ġwaan": 1263, "uc": 1264, "Ġfiican": 1265, "aka": 1266, "aarka": 1267, "Ġxig": 1268, "Ġmaalin": 1269, "Ġwasiir": 1270, "Ġayay": 1271, "kay": 1272, "aayo": 1273, "qaan": 1274, "baha": 1275, "uuliy": 1276, "taas": 1277, "Ġxus": 1278, "tiga": 1279, "uhu": 1280, "Ġkartaa": 1281, "Ġmuhiim": 1282, "Ġbulshada": 1283, "Ġgoob": 1284, "are": 1285, "ko": 1286, "Ġganac": 1287, "Ġas": 1288, "odob": 1289, "Ġxal": 1290, "uub": 1291, "linyar": 1292, "ĠÂ»": 1293, "Mar": 1294, "Ġ10": 1295, "Ġbalse": 1296, "Ġsaf": 1297, "aynta": 1298, "ila": 1299, "Ġawood": 1300, "Ġlaba": 1301, "Ġkamid": 1302, "Ġkaa": 1303, "Ġwaxaad": 1304, "waan": 1305, "Ġgudb": 1306, "Ġkaas": 1307, "niga": 1308, "Ġxilli": 1309, "ĠDalka": 1310, "AY": 1311, "Ġkaraa": 1312, "Ġshacabka": 1313, "imo": 1314, "Ġhan": 1315, "Ġbis": 1316, "EE": 1317, "Ġcaaw": 1318, "Ġnool": 1319, "ĠItoobiya": 1320, "igii": 1321, "aawac": 1322, "aadir": 1323, "Ġboo": 1324, "agu": 1325, "Ġyidhi": 1326, "naam": 1327, "Sid": 1328, "Ġ7": 1329, "Ġsano": 1330, "maajo": 1331, "ĠGolaha": 1332, "Ġeeg": 1333, "Ġdoonaan": 1334, "aaladda": 1335, "Ġwaxy": 1336, "argeysa": 1337, "201": 1338, "yaan": 1339, "aamka": 1340, "ham": 1341, "Ġbaah": 1342, "ĠDowladda": 1343, "ĠHor": 1344, "Ġarag": 1345, "aamac": 1346, "Ġweli": 1347, "naamij": 1348, "Ġjaw": 1349, "ukuumadda": 1350, "uurta": 1351, "aysaa": 1352, "Ġiib": 1353, "aysay": 1354, "Ġii": 1355, "gii": 1356, "Ġli": 1357, "Ġmarkaana": 1358, "Ġqaban": 1359, "aalad": 1360, "iyad": 1361, "Ġxu": 1362, "Ġdanb": 1363, "lim": 1364, "Ġdhax": 1365, "Sh": 1366, "Ġnoqo": 1367, "Ġdhaaf": 1368, "sam": 1369, "yahan": 1370, "Ġmaamul": 1371, "Gud": 1372, "ahad": 1373, "Ġdii": 1374, "Ġhow": 1375, "ooj": 1376, "Ġhoos": 1377, "ut": 1378, "iyeen": 1379, "Ġtilmaa": 1380, "ama": 1381, "Ġurur": 1382, "Ġsoco": 1383, "OM": 1384, "ber": 1385, "Ġheer": 1386, "rom": 1387, "Ġheli": 1388, "ĠFederaalka": 1389, ").": 1390, "Ġwalba": 1391, "ĠRa": 1392, "ĠAn": 1393, "ge": 1394, "Ġ8": 1395, "co": 1396, "Ġdegmada": 1397, "Ġ/": 1398, "Ġraac": 1399, "galay": 1400, "ĠShar": 1401, "ĠMad": 1402, "eesh": 1403, "aariikh": 1404, "ext": 1405, "Ġfil": 1406, "ost": 1407, "Ġand": 1408, "iyaa": 1409, "Ġwadan": 1410, "aaqay": 1411, "Ġjiraan": 1412, "Ġsheegtay": 1413, "Wasiir": 1414, "Ġwareeg": 1415, "Waa": 1416, "keeda": 1417, "eedahay": 1418, "baah": 1419, "Ġdhaawac": 1420, "Ġcaafim": 1421, "mudug": 1422, "Ġgobol": 1423, "Ġkuwaas": 1424, "min": 1425, "line": 1426, "Ġtab": 1427, "ĠSid": 1428, "Ġqur": 1429, "ĠMarey": 1430, "Ġgudaha": 1431, "Ġahayn": 1432, "nimo": 1433, "eeyaan": 1434, "adu": 1435, "doomiyaha": 1436, "ĠØ": 1437, "ID": 1438, "Ġsoomaali": 1439, "pp": 1440, "addex": 1441, "aysan": 1442, "ĠCiidamada": 1443, "ayaasha": 1444, "Ġbur": 1445, "goo": 1446, "uuf": 1447, "Ġmal": 1448, "Ġkaliya": 1449, "Ġqabtay": 1450, "ead": 1451, "Ġbandhig": 1452, "ele": 1453, "ĠAfrika": 1454, "Ġarrin": 1455, "ĠFarmaajo": 1456, "ran": 1457, "tooy": 1458, "lis": 1459, "ce": 1460, "Ġcaalam": 1461, "Ġadag": 1462, "ary": 1463, "ado": 1464, "Ġsaam": 1465, "ÉĹ": 1466, "ĠMan": 1467, "ĠXildhibaan": 1468, "Ġxaf": 1469, "ĠMaxamuud": 1470, "uug": 1471, "Ġgab": 1472, "Ġaanu": 1473, "Ġqii": 1474, "ĠWaxaan": 1475, "Ġleedahay": 1476, "aaga": 1477, "Ġdeegaanka": 1478, "Ġiyada": 1479, "Ġbed": 1480, "Ġxan": 1481, "Madaxweynaha": 1482, "Ġhelay": 1483, "Max": 1484, "Ġdala": 1485, "Ġkuu": 1486, "Ġwixii": 1487, "Ġras": 1488, "aadin": 1489, "uurka": 1490, "Ġheshiis": 1491, "Ġxas": 1492, "iisul": 1493, "weyn": 1494, "alan": 1495, "yaha": 1496, "Ġjiro": 1497, "Ġdhammaan": 1498, "ĠSal": 1499, "tey": 1500, "daa": 1501, "yan": 1502, "eex": 1503, "laahi": 1504, "ĠÙ": 1505, "ly": 1506, "ĠWasiirka": 1507, "Ġdoona": 1508, "ik": 1509, "ĠWaxa": 1510, "ani": 1511, "Ġwaxayna": 1512, "Ġmuddo": 1513, "aali": 1514, "Ġisb": 1515, "ĠGalmudug": 1516, "eef": 1517, "gar": 1518, "Waxa": 1519, "owga": 1520, "ĠTur": 1521, "Ġmur": 1522, "ĠXar": 1523, "tid": 1524, "tahay": 1525, "Ġcas": 1526, "Ġfud": 1527, "gag": 1528, "Ġat": 1529, "aalo": 1530, "Ġdeegaan": 1531, "Ġby": 1532, "Ġhar": 1533, "ĠJub": 1534, "Ġdhamaan": 1535, "ĠBaarlamaanka": 1536, "ban": 1537, "Ġ200": 1538, "dka": 1539, "Ġ2017": 1540, "ĠDaw": 1541, "saar": 1542, "eelaha": 1543, "baahinta": 1544, "Dha": 1545, "ĠMareykanka": 1546, "Ġhorumar": 1547, "Ġkusoo": 1548, "Ġarrimaha": 1549, "ĠMaanta": 1550, "ĠMaamulka": 1551, "omment": 1552, "Ġ9": 1553, "Ġday": 1554, "ĠMuu": 1555, "uuc": 1556, "ĠMa": 1557, "kka": 1558, "nada": 1559, "Ġbuux": 1560, "Ġnabad": 1561, "Ġdhigay": 1562, "),": 1563, "ahay": 1564, "Next": 1565, "nimada": 1566, "ĠMac": 1567, "Ġbaar": 1568, "Shabaab": 1569, "ious": 1570, "aadh": 1571, "Ġ2016": 1572, "Ġqalab": 1573, "rev": 1574, "Ġyaab": 1575, "oonfur": 1576, "Ġyaqaan": 1577, "shabaab": 1578, "tiisa": 1579, "ĠQor": 1580, "maayo": 1581, "Ġdhal": 1582, "Ġlaab": 1583, "nad": 1584, "Ġisugu": 1585, "Ġshee": 1586, "Ġciida": 1587, "ĠSan": 1588, "rada": 1589, "Ġqaadan": 1590, "Ġsaaray": 1591, "Ġfu": 1592, "ĠHaw": 1593, "ĠAM": 1594, "eystay": 1595, "ide": 1596, "too": 1597, "itaanka": 1598, "Ġabuur": 1599, "Ġdhanka": 1600, "ĠSoomaalida": 1601, "Ġ2018": 1602, "aynaa": 1603, "ĠJam": 1604, "revious": 1605, "Ġmash": 1606, "Ġer": 1607, "ayey": 1608, "Ġsu": 1609, "ĠMaray": 1610, "Ġfaa": 1611, "kaaga": 1612, "ĠMudane": 1613, "ĠCumar": 1614, "amb": 1615, "ne": 1616, "ts": 1617, "abar": 1618, "ris": 1619, "Ġeed": 1620, "alin": 1621, "Ġdilay": 1622, "Ġdul": 1623, "Ġsiin": 1624, "ata": 1625, "liska": 1626, "Ġyaal": 1627, "Ġqal": 1628, "Ġgaaray": 1629, "Dh": 1630, "ilaaf": 1631, "Ġdoorashada": 1632, "ĠSi": 1633, "Ġdhashay": 1634, "Ġsugan": 1635, "ismaayo": 1636, "Ġdhab": 1637, "ĠWararka": 1638, "Ġ12": 1639, "IR": 1640, "dada": 1641, "bixin": 1642, "ĠHargeysa": 1643, "soon": 1644, "cad": 1645, "udur": 1646, "dal": 1647, "ĠXus": 1648, "urub": 1649, "Ġxaqii": 1650, "Ġxarunta": 1651, "Ġfadh": 1652, "Ġgacanta": 1653, "Ġmeesha": 1654, "Ġlahayn": 1655, "Ġir": 1656, "ĠKh": 1657, "itaan": 1658, "Ġjirto": 1659, "ĠMuuse": 1660, "Ġgoo": 1661, "Ġboq": 1662, "EY": 1663, "aadi": 1664, "IY": 1665, "Ġsaddex": 1666, "Ġcal": 1667, "Ġbilaab": 1668, "Ġ2012": 1669, "ĠDoor": 1670, "Previous": 1671, "Ġyimid": 1672, "Ġdowlad": 1673, "kiga": 1674, "Ġdhaqan": 1675, "Ġleey": 1676, "Ġkac": 1677, "Ġhalkaas": 1678, "Ġrag": 1679, ".âĢĿ": 1680, "Ġshalay": 1681, "Ġula": 1682, "eeyeen": 1683, "Ġlabaad": 1684, "tin": 1685, "uuqa": 1686, "huur": 1687, "ĠUgu": 1688, "Ġqoy": 1689, "Ġwaxbar": 1690, "Ġmaad": 1691, "uary": 1692, "Ġwaayo": 1693, "bur": 1694, "Ġiyaga": 1695, "Ġmahad": 1696, "ĠZ": 1697, "Ġxog": 1698, "ity": 1699, "ĠCabdul": 1700, "Ġqarax": 1701, "idka": 1702, "ĠMo": 1703, "deen": 1704, "Ġmag": 1705, "Ġadd": 1706, "Ġwaana": 1707, "idda": 1708, "Ġkaraan": 1709, "!!": 1710, "Daawo": 1711, "Ġhin": 1712, "Ġ11": 1713, "Ġwuxuuna": 1714, "ĠDib": 1715, "ĠJan": 1716, "Ġhaa": 1717, "oobay": 1718, "Ġsomali": 1719, "ÙĨ": 1720, "ĠAq": 1721, "ĠHal": 1722, "ou": 1723, "tida": 1724, "Ġhorr": 1725, "Ġhays": 1726, "Ġ15": 1727, "Ġkooban": 1728, "sado": 1729, "Ġho": 1730, "Ġdhim": 1731, "cyo": 1732, "atay": 1733, "tooyada": 1734, "Ġkara": 1735, "Ġaanay": 1736, "Ġhadii": 1737, "Ġtaariikh": 1738, "ĠTal": 1739, "IN": 1740, "una": 1741, "Ġjirin": 1742, "oomiye": 1743, "Ġdhexe": 1744, "Ġmadaxweynaha": 1745, "ĠOn": 1746, "teed": 1747, "Ġnid": 1748, "Ġleeyihiin": 1749, "axmaan": 1750, "ĠAw": 1751, "laan": 1752, "Ġkuwo": 1753, "Ġim": 1754, "ĠOrom": 1755, "raa": 1756, "Ġfudud": 1757, "ĠJab": 1758, "isa": 1759, "Ġshaqo": 1760, "AAN": 1761, "ĠBoo": 1762, "ĠJaamac": 1763, "ĠKha": 1764, "Ġum": 1765, "eysaa": 1766, "Ku": 1767, "Ġqaatay": 1768, "ĠShir": 1769, "rid": 1770, "ĠKar": 1771, "Ġ'": 1772, "Ġhogg": 1773, "Ġnaf": 1774, "Is": 1775, "Ġxili": 1776, "tig": 1777, "Ġhoose": 1778, "Ġkarin": 1779, "Ġxag": 1780, "Ġayey": 1781, "umarka": 1782, "Ġhowl": 1783, "iska": 1784, "mark": 1785, "ast": 1786, "lah": 1787, "Ġcul": 1788, "tooda": 1789, "Ġcun": 1790, "bi": 1791, "iinka": 1792, "Ġdhowr": 1793, "Ġxilka": 1794, "ĠNa": 1795, "Ġaas": 1796, "ĠWasaaradda": 1797, "ĠLagu": 1798, "omments": 1799, "Ġdhinaca": 1800, "Ġqofka": 1801, "beed": 1802, "ĠQaranka": 1803, "Ġtala": 1804, "yaa": 1805, "Ġkana": 1806, "Éĵ": 1807, "ĠWaxay": 1808, "Ġaadan": 1809, "000": 1810, "Ġ:": 1811, "Ġtaagan": 1812, "Ġdhag": 1813, "Ġnolo": 1814, "Ġbooq": 1815, "Ġuusan": 1816, "ĠBur": 1817, "iiraan": 1818, "eeq": 1819, "ĠLe": 1820, "Ġsheegeen": 1821, "Ġsameeyay": 1822, "ess": 1823, "Ġiyagoo": 1824, "aato": 1825, "Ġor": 1826, "ĠUu": 1827, "gir": 1828, "ĠKoox": 1829, "lar": 1830, "SA": 1831, "ĠIsl": 1832, "Ġwadda": 1833, "ĠGu": 1834, "amada": 1835, "em": 1836, "eeye": 1837, "ĠShaq": 1838, "Ġtoos": 1839, "der": 1840, "baland": 1841, "ĠKismaayo": 1842, "aabaha": 1843, "Ġakh": 1844, "iisu": 1845, "Ġdhic": 1846, "Ġakka": 1847, "ĠDr": 1848, "ĠUn": 1849, "Ġxuk": 1850, "aabta": 1851, "amar": 1852, "ĠCh": 1853, "ĠQab": 1854, "ng": 1855, "pr": 1856, "ĠBul": 1857, "Ø§ÙĦ": 1858, "Ġqorsh": 1859, "bax": 1860, "Ġguur": 1861, "Wasiirka": 1862, "Ġsheegaya": 1863, "Ġisu": 1864, "Ġdhacday": 1865, "gaa": 1866, "shaha": 1867, "iixi": 1868, "Ġbixin": 1869, "ĠJamhuur": 1870, "ĠYurub": 1871, "bal": 1872, "ĠCad": 1873, "Ġfor": 1874, "Ġwaj": 1875, "UU": 1876, "ĠAadan": 1877, "Ùħ": 1878, "Ġgeer": 1879, "liyay": 1880, "Ġ18": 1881, "Ġkordh": 1882, "kada": 1883, "Ġmil": 1884, "Ġbarnaamij": 1885, "Ġtim": 1886, "Ġiney": 1887, "boon": 1888, "Ġshaac": 1889, "Ġth": 1890, "ĠArrimaha": 1891, "Ġmad": 1892, "ek": 1893, "ADA": 1894, "Ġaynu": 1895, "Ġciidanka": 1896, "Ġnoqday": 1897, "onal": 1898, "ooday": 1899, "Ġgeli": 1900, "Ġdhulka": 1901, "Ġsidaas": 1902, "ĠCabdir": 1903, "Ġdaaw": 1904, "iirka": 1905, "ÙĲ": 1906, "ĠHay": 1907, "Ġraj": 1908, "tag": 1909, "Ġdhawaan": 1910, "Ġkama": 1911, "Ġsocday": 1912, "Ġdoonto": 1913, "Ġxildhibaan": 1914, "eec": 1915, "Ġbog": 1916, "agta": 1917, "Ġqaada": 1918, "bada": 1919, "ĠShabaab": 1920, "ÙĬ": 1921, "Ġjab": 1922, "iig": 1923, "gaar": 1924, "AAW": 1925, "ĠMaa": 1926, "ĠMay": 1927, "ĠSar": 1928, "Ġnooc": 1929, "Ġxad": 1930, "qab": 1931, "Ġjar": 1932, "ĠMaraykanka": 1933, "kar": 1934, "Ġidin": 1935, "Ġdadkii": 1936, "aaran": 1937, "Sidoo": 1938, "Ġtilmaamay": 1939, "weyne": 1940, "ĠDal": 1941, "Ġ2014": 1942, "Ġdambe": 1943, "jiyay": 1944, "cab": 1945, "Ġmagaal": 1946, "taasi": 1947, "Ġwaree": 1948, "ĠShirka": 1949, "hanka": 1950, "ĠMore": 1951, "ISOM": 1952, "ĠNo": 1953, "Ġbada": 1954, "Ġguu": 1955, "Ġwey": 1956, "Ġkii": 1957, "ifaac": 1958, "ĠHad": 1959, "mail": 1960, "Ġ30": 1961, "Ġjirta": 1962, "Ma": 1963, "umo": 1964, "Al": 1965, "Ġyeesh": 1966, "Ġdowlada": 1967, "Ġag": 1968, "ited": 1969, "Ġdhalinyar": 1970, "Ġ2013": 1971, "ĠTurkiga": 1972, "oof": 1973, "Ġgolaha": 1974, "ĠOnline": 1975, "ef": 1976, "Ġbeen": 1977, "Ġsaac": 1978, "Ġ2019": 1979, "ĠXisbiga": 1980, "Madaxweyne": 1981, "ĠIm": 1982, "ley": 1983, "jeed": 1984, "Ġsameeyo": 1985, "br": 1986, "TA": 1987, "ĠDhex": 1988, "ĠMarka": 1989, "unaas": 1990, "luum": 1991, "uusuf": 1992, "Ġkun": 1993, "Ġxor": 1994, "ĠDar": 1995, "aaji": 1996, "keen": 1997, "Ġxiis": 1998, "Ġshaqada": 1999, "haan": 2000, "est": 2001, "Ġdig": 2002, "AAL": 2003, "Ġnax": 2004, "ĠKoonfur": 2005, "ahan": 2006, "19": 2007, "ton": 2008, "Ġba": 2009, "Ġxalay": 2010, "âĢĿ.": 2011, "Ġarin": 2012, "ĠBiixi": 2013, "Ġtus": 2014, "Ġkees": 2015, "Ġdagaalka": 2016, "unida": 2017, "10": 2018, "Ġfik": 2019, "Ġxisbiga": 2020, "Ġcudur": 2021, "Ġ2015": 2022, "ĠEr": 2023, "Ġxab": 2024, "joog": 2025, "Ġceli": 2026, "Ġintii": 2027, "ĠShacabka": 2028, "Somali": 2029, "Ġwuu": 2030, "ĠBanaadir": 2031, "AAWO": 2032, "ĠDad": 2033, "diisa": 2034, "Ġko": 2035, "ĠShii": 2036, "ap": 2037, "ayeen": 2038, "Ġjawaab": 2039, "Ġsawir": 2040, "ĠXuseen": 2041, "aasimada": 2042, "akii": 2043, "ĠDegmada": 2044, "uuti": 2045, "AB": 2046, "ĠKU": 2047, "aca": 2048, "Ġlasoo": 2049, "Ġkarto": 2050, "ĠMaga": 2051, "âĢ¦]": 2052, "abada": 2053, "igu": 2054, "nahay": 2055, "Ġso": 2056, "ĠCaalam": 2057, "doon": 2058, "Ġdoontaa": 2059, "Ġkeli": 2060, "Ġun": 2061, "Ġarday": 2062, "ĠCiidanka": 2063, "Ġbeer": 2064, "Ġwakh": 2065, "Ġlala": 2066, "aystay": 2067, "alad": 2068, "ĠRe": 2069, "Ġmadaxda": 2070, "Ġhawl": 2071, "Ġdur": 2072, "adio": 2073, "Ġfog": 2074, "taag": 2075, "Ġmida": 2076, "ĠSam": 2077, "ĠTali": 2078, "Ġ14": 2079, "Ġafar": 2080, "ĠBal": 2081, "Ġdhaafay": 2082, "aahin": 2083, "Ġamniga": 2084, "Ar": 2085, "ĠAMISOM": 2086, "Ġcadd": 2087, "Ġwarbaahinta": 2088, "Ġ[âĢ¦]": 2089, "Ġhir": 2090, "Ġcaan": 2091, ".\"": 2092, "ashooyinka": 2093, "don": 2094, "su": 2095, "Ġsababta": 2096, "Ġtaasi": 2097, "Sida": 2098, "Ġwadanka": 2099, "ot": 2100, "ariis": 2101, "Ġqaarkood": 2102, "Ġkad": 2103, "one": 2104, "Ġsannad": 2105, "Ġayna": 2106, "Ġaha": 2107, "Ġdaray": 2108, "Ġlahaayeen": 2109, "ĠXukuumadda": 2110, "Ġhelo": 2111, "ree": 2112, "iyiinta": 2113, "Ġmadaxweyne": 2114, "ĠSiyaas": 2115, "Ġjeer": 2116, "Ġmaalm": 2117, "Ġqaranka": 2118, "Ġdaba": 2119, "ine": 2120, "adood": 2121, "ĠUrur": 2122, "aadaan": 2123, "SO": 2124, "aadiga": 2125, "Si": 2126, "Dowla": 2127, "eynaa": 2128, "ĠLoo": 2129, "Ġwaxba": 2130, "ĠSaf": 2131, "Ġmaadaama": 2132, "ĠXir": 2133, "geli": 2134, "iidka": 2135, "Ġ13": 2136, "aaxiib": 2137, "ato": 2138, "baa": 2139, "Ġxun": 2140, "Wararka": 2141, "ĠCusub": 2142, "ĠBer": 2143, "saa": 2144, "caar": 2145, "Ġqaado": 2146, "Ġcaalamka": 2147, "liga": 2148, "Ġxidhii": 2149, "idh": 2150, "ĠIngir": 2151, "Ġimaan": 2152, "Ġdarteed": 2153, "Ġkhilaaf": 2154, "stoo": 2155, "liyo": 2156, "ff": 2157, "Ġbadb": 2158, "ion": 2159, "Ġdhul": 2160, "eedu": 2161, "Ġyo": 2162, "igeenka": 2163, "mka": 2164, "ke": 2165, "Ġwac": 2166, "markaana": 2167, "Ġfas": 2168, "weynaha": 2169, "Ġaamin": 2170, "ĠSac": 2171, "ĠSp": 2172, "ĠShab": 2173, "galka": 2174, "ĠGuud": 2175, "Ġmarkaas": 2176, "deg": 2177, "Ġwayn": 2178, "Ġhoo": 2179, "odka": 2180, "ester": 2181, "thi": 2182, "ĠSu": 2183, "ye": 2184, "cay": 2185, "Ġsanadkii": 2186, "Ġlama": 2187, "dheer": 2188, "Ġarr": 2189, "GA": 2190, "Ġmaxaa": 2191, "??": 2192, "Ġ16": 2193, "iyaad": 2194, "Ġnaga": 2195, "ĠYuusuf": 2196, "Haddii": 2197, "ĠGobol": 2198, "Ġlabo": 2199, "Hal": 2200, "ĠKul": 2201, "Ġtur": 2202, "aari": 2203, "aalkacyo": 2204, "ĠXaf": 2205, "ĠCarab": 2206, ")-": 2207, "bka": 2208, "Ġdhibaat": 2209, "Ġbaarlamaanka": 2210, "ĠJamhuuriyadda": 2211, "Ġdawladda": 2212, "laab": 2213, "Ġbay": 2214, "ĠHoose": 2215, "ĠDeeg": 2216, "Ġhalkaasi": 2217, "ĠGur": 2218, "ĠSoc": 2219, "ĠUnited": 2220, "Ġcaafimaad": 2221, "Ġcarr": 2222, "Ġdac": 2223, "Ġman": 2224, "une": 2225, "net": 2226, "ino": 2227, "ĠTr": 2228, "meen": 2229, "ĠâĢĺ": 2230, "Ġif": 2231, "Ġxoo": 2232, "ji": 2233, "uly": 2234, "esh": 2235, "aadeen": 2236, "Ġwaxaanu": 2237, "ct": 2238, "rat": 2239, "Ġsaxiix": 2240, "Ġadk": 2241, "Ġbaaq": 2242, "Ġgaroonka": 2243, "wad": 2244, "Ùı": 2245, "Ġshan": 2246, "Ġsiyaasadeed": 2247, "Ġusoo": 2248, "Ġillaa": 2249, "edia": 2250, "anaan": 2251, "aaraha": 2252, "Ġahi": 2253, "obolada": 2254, "lanka": 2255, "Ġcay": 2256, "Ġhag": 2257, "iisii": 2258, "ĠWada": 2259, "Ġsharci": 2260, "noo": 2261, "jib": 2262, "Ġqaran": 2263, "cel": 2264, "iq": 2265, "ĠAg": 2266, "harax": 2267, "Ġ25": 2268, "Ġsameyn": 2269, "ĠLaga": 2270, "aadda": 2271, "Ġcil": 2272, "Ġwaliba": 2273, "ry": 2274, "ÙĴ": 2275, "ĠKal": 2276, "Ġahaayeen": 2277, "Ġhaatan": 2278, "Ġfal": 2279, "Ġjooj": 2280, "nal": 2281, "ideo": 2282, "say": 2283, "Ġdug": 2284, "Ġmaar": 2285, "ĠHaddii": 2286, "Muqdisho": 2287, "Ġ17": 2288, "aanyo": 2289, "Ġkalena": 2290, "Ġbiir": 2291, "ÙĪ": 2292, "Ġdawlad": 2293, "Ġburbur": 2294, "yihiin": 2295, "war": 2296, "AM": 2297, "Ġkaddib": 2298, "ans": 2299, "Ġdifaac": 2300, "Ġxigeenka": 2301, "Ġhory": 2302, "ĠSida": 2303, "Ġogol": 2304, "thiop": 2305, "tal": 2306, "EG": 2307, "eerka": 2308, "aayeen": 2309, "acay": 2310, "xda": 2311, "uumada": 2312, "Ġhoray": 2313, "ĠDhaq": 2314, "ĠIlaa": 2315, "rka": 2316, "eerarka": 2317, "ĠDaawo": 2318, "Sawir": 2319, "Ġdhamm": 2320, "miga": 2321, "Ġlahayd": 2322, "ci": 2323, "Ġdalalka": 2324, "ĠShariif": 2325, "Ġsamayn": 2326, "Ġyeelan": 2327, "Ø±": 2328, "ind": 2329, "ĠHada": 2330, "aydha": 2331, "addu": 2332, "dhaq": 2333, "AS": 2334, "irta": 2335, "ague": 2336, "Ġcaafimaadka": 2337, "ĠQaramada": 2338, "iise": 2339, "itaa": 2340, "Ġdambeeyay": 2341, "Ġbeeg": 2342, "ĠJabuuti": 2343, "Ġ+": 2344, "21": 2345, "Ġtaasoo": 2346, "Ġqo": 2347, "MG": 2348, "shad": 2349, "imada": 2350, "Soo": 2351, "Ġhalkan": 2352, "Ġmaxka": 2353, "Bar": 2354, "riga": 2355, "tanka": 2356, "Ġcaq": 2357, "ilay": 2358, "Ġqodob": 2359, "Ġdheeraad": 2360, "ĠGab": 2361, "aabka": 2362, "YO": 2363, "Ġaska": 2364, "Ra": 2365, "Ġsidaa": 2366, "Ġmuujin": 2367, "Ġqabto": 2368, "ĠGaalkacyo": 2369, "Ġsocon": 2370, "Ġqoys": 2371, "ĠWasaaraha": 2372, "adiisa": 2373, "ĠJubbaland": 2374, "Ġgaran": 2375, "ĠSomaliya": 2376, "waa": 2377, "ĠIbr": 2378, "Ġhabeen": 2379, "liyadda": 2380, "AX": 2381, "ĠMadrid": 2382, "tiij": 2383, "ataa": 2384, "ĠHiiraan": 2385, "obi": 2386, "ĠBulshada": 2387, "Ġmaray": 2388, "ort": 2389, "aaban": 2390, "uli": 2391, "ĠCiida": 2392, "Ġkuma": 2393, "uquuq": 2394, "Ġtababar": 2395, "Ġbaab": 2396, "ĠJaw": 2397, "ĠPr": 2398, "Ġcan": 2399, "Ġbishii": 2400, "Ġgoor": 2401, "Ġqan": 2402, "obalka": 2403, "uh": 2404, "Ġbeesha": 2405, "Ġraad": 2406, "ĠGuddoomiyaha": 2407, "ĠDadka": 2408, "Ġsuur": 2409, "Ġqoraal": 2410, "Ġdhismaha": 2411, "ĠØ§ÙĦ": 2412, "ĠQur": 2413, "Ġ$": 2414, "ers": 2415, "uuliyiin": 2416, "ĠDowlada": 2417, "ĠNuur": 2418, "Ùĩ": 2419, "ĠXaaji": 2420, "Ġ24": 2421, "ĠRab": 2422, "Ġlah": 2423, "Ġgaarka": 2424, "ĠMaxka": 2425, "Ġsaa": 2426, "Ġkulanka": 2427, "Ġdhintay": 2428, "ĠSare": 2429, "cc": 2430, "Ġjireen": 2431, "eeshay": 2432, "Ġshaqeyn": 2433, "Ġgool": 2434, "me": 2435, "hooda": 2436, "ĠNin": 2437, "aska": 2438, "ebr": 2439, "ill": 2440, "ĠGudd": 2441, "oowe": 2442, "eedyada": 2443, "Ġdood": 2444, "Ġshaqaalaha": 2445, "edd": 2446, "Ġwaqti": 2447, "Ġgoobta": 2448, "ĠSw": 2449, "Ġ21": 2450, "Ġduu": 2451, "ĠEthiop": 2452, "Ġgabad": 2453, "Ġtalagalay": 2454, "ternet": 2455, "ember": 2456, "Ġrasmi": 2457, "tor": 2458, "kk": 2459, "Waxay": 2460, "Ġtagay": 2461, "Ġguda": 2462, "Ġdhala": 2463, "Ġbuu": 2464, "ĠRadio": 2465, "aakiisha": 2466, "Ġciidan": 2467, "taq": 2468, "satay": 2469, "imaha": 2470, "Ġrun": 2471, "Ġwaaweyn": 2472, "lu": 2473, "Marka": 2474, "Ġdunida": 2475, "iilka": 2476, "Ġdiray": 2477, "Af": 2478, "aarax": 2479, "Ġruux": 2480, "Ġiga": 2481, "Ġdaree": 2482, "iro": 2483, "ĠSheeg": 2484, "edda": 2485, "eelo": 2486, "Ġxisb": 2487, "Ġbilow": 2488, "Ġjed": 2489, "aaska": 2490, "aafada": 2491, "Ġxukun": 2492, "hood": 2493, "ima": 2494, "soor": 2495, "Ġsharciga": 2496, "had": 2497, "Ġwadaag": 2498, "11": 2499, "Ġwiil": 2500, "Ġmagacaabay": 2501, "Ġgeeriy": 2502, "ĠGanac": 2503, "aahir": 2504, "ise": 2505, "Ġsaaxiib": 2506, "Ġkugu": 2507, "uqa": 2508, "Ġmuuj": 2509, "eri": 2510, "Ġahna": 2511, "Ġgala": 2512, "gad": 2513, "up": 2514, "uush": 2515, "ayaal": 2516, "ĠMidowga": 2517, "Cab": 2518, "Ġbaan": 2519, "uuliyiinta": 2520, "amaa": 2521, "tember": 2522, "aaso": 2523, "Ġgaadhay": 2524, "ong": 2525, "chester": 2526, "oobe": 2527, "ĠMur": 2528, "Ġwasiirka": 2529, "Ġkuna": 2530, "osted": 2531, ",âĢĿ": 2532, "ĠWarar": 2533, "geys": 2534, "iilaanyo": 2535, "áĪ": 2536, "ĠDan": 2537, "aasimadda": 2538, "Ġdhiib": 2539, "amed": 2540, "ĠGaas": 2541, "BC": 2542, "Ġqalabka": 2543, "ork": 2544, "Ġxukuumadda": 2545, "Ġbaaqay": 2546, "hada": 2547, "Ġislamarkaana": 2548, "teeda": 2549, "Ġdiiday": 2550, "tood": 2551, "Ġdhaqaalaha": 2552, "Ġboqol": 2553, "Ġmin": 2554, "ĠWaq": 2555, "ĠNabad": 2556, "Ġgudd": 2557, "Ġjooga": 2558, "Ġqas": 2559, "oosh": 2560, "Ġkalsoon": 2561, "tam": 2562, "12": 2563, "ump": 2564, "aahi": 2565, "aadan": 2566, "oom": 2567, "ĠWal": 2568, "ĠAs": 2569, "oowaad": 2570, "irobi": 2571, "Ġintaa": 2572, "ook": 2573, "ĠAyaa": 2574, "pril": 2575, "ĠImaar": 2576, "igh": 2577, "ĠHir": 2578, "Ġxis": 2579, "Ġtaal": 2580, "ĠMedia": 2581, "ĠSawir": 2582, "Ġigu": 2583, "Ġjeeda": 2584, "Ġnoqdo": 2585, "Ġkeliya": 2586, "ĠLeague": 2587, "Ġadduunka": 2588, "ĠHog": 2589, "ĠCiyaar": 2590, "ugust": 2591, "geyso": 2592, "ĠWuxuu": 2593, "ĠJuly": 2594, "aydhabo": 2595, "dey": 2596, "Ġdhici": 2597, "aafadda": 2598, "Ġ2020": 2599, "Ġqay": 2600, "Ġxubnaha": 2601, "aayay": 2602, "Xildhibaan": 2603, "ĠBooliska": 2604, "Ġtac": 2605, "Ġball": 2606, "Ġjirtay": 2607, "ĠQof": 2608, "ĠSax": 2609, "Ġâ": 2610, "ĠSep": 2611, "Ġgelin": 2612, "hat": 2613, "Ġnoqotay": 2614, "Koox": 2615, "Ġteg": 2616, "din": 2617, "ĠXarunta": 2618, "Ġarkay": 2619, "ile": 2620, "eelka": 2621, "Ugu": 2622, "Ð°": 2623, "ĠJir": 2624, "own": 2625, "Ġxiran": 2626, "Ġkeessa": 2627, "Ġwaxyaabaha": 2628, "HO": 2629, "adar": 2630, "Ġnahay": 2631, "jeeda": 2632, "Hada": 2633, "uulka": 2634, "celona": 2635, "Ġod": 2636, "keena": 2637, "siyada": 2638, "Ġuma": 2639, "ĠMal": 2640, "uudiga": 2641, "tr": 2642, "ondon": 2643, "biga": 2644, "Ġ22": 2645, "Ġnolosha": 2646, "Ġammaanka": 2647, "ĠEng": 2648, "bera": 2649, "ĠBoq": 2650, "sadaan": 2651, "Ġdhaqaale": 2652, "ĠDec": 2653, "ĠMidoobay": 2654, "Ġfarx": 2655, "Ġjecel": 2656, "lam": 2657, "olol": 2658, "Ġsiiyo": 2659, "Ġwararka": 2660, "Ġkastaba": 2661, "Ġwarar": 2662, "ĠQarax": 2663, "Ġdhaqanka": 2664, "miye": 2665, "Ġlaf": 2666, "ĠThe": 2667, "DA": 2668, "az": 2669, "ĠIl": 2670, "Ġgaadh": 2671, "av": 2672, "dir": 2673, "Ġahaatee": 2674, "way": 2675, "Ġkooxaha": 2676, "ere": 2677, "sadeen": 2678, "sea": 2679, "ue": 2680, "rad": 2681, "tober": 2682, "Ġganacsiga": 2683, "Ġdeeq": 2684, "odd": 2685, "Ġfaah": 2686, "dhaha": 2687, "Ġbiyo": 2688, "Ġxaalada": 2689, "ĠOO": 2690, "aysal": 2691, "Ġkeenay": 2692, "aak": 2693, "gaas": 2694, "Ġiyagu": 2695, "ĠTar": 2696, "IL": 2697, "WIR": 2698, "dhex": 2699, "Ġnidaamka": 2700, "ĠDe": 2701, "Ġwaf": 2702, "ayada": 2703, "oot": 2704, "Ġkaloo": 2705, "ase": 2706, "Ġxitaa": 2707, "Ġwarbixin": 2708, "gab": 2709, "Ġvi": 2710, "ite": 2711, "Ġshacab": 2712, "Ġweb": 2713, "Ġculus": 2714, "eyga": 2715, "ĠEthiopia": 2716, "Ġkulmay": 2717, "eeska": 2718, "Ġkhasaar": 2719, "inn": 2720, "geed": 2721, "ĠFaarax": 2722, "Ġqoray": 2723, "ĠReal": 2724, "Ġqax": 2725, "Ġinka": 2726, "aadkii": 2727, "taada": 2728, "dho": 2729, "Ġhortag": 2730, "sato": 2731, "Ġxanuun": 2732, "Ġtiro": 2733, "Ġwaxbarashada": 2734, "Ġintaas": 2735, "ĠDhexe": 2736, "Ġhorey": 2737, "ctober": 2738, "Ġguriga": 2739, "Ġsuuqa": 2740, "Ġcus": 2741, "ĠKooxda": 2742, "Ġmacluum": 2743, "Ġdareen": 2744, "Ab": 2745, "Ġtalo": 2746, "Ġdaab": 2747, "lid": 2748, "Ġdhiir": 2749, "ĠOromoo": 2750, "Ġkur": 2751, "ĠMaamul": 2752, "Ġmana": 2753, "Ġmudan": 2754, "eeyn": 2755, "Ġaj": 2756, "ĠAlle": 2757, "Ġfiir": 2758, "ĠKala": 2759, "rax": 2760, "six": 2761, "ĠIngiriiska": 2762, "Ġsharaf": 2763, "Ġgaari": 2764, "ĠXog": 2765, "siy": 2766, "ain": 2767, "Ġpm": 2768, "inayo": 2769, "Ġdoortay": 2770, "nka": 2771, "gelin": 2772, "Ġbisha": 2773, "Ġyaraan": 2774, "Ġidiin": 2775, "ĠÐ": 2776, "ĠCity": 2777, "ĠWAR": 2778, "Ġ23": 2779, "ck": 2780, "ĠQaran": 2781, "Ġwakii": 2782, "ĠCaafim": 2783, "ĠBeesha": 2784, "Ġ26": 2785, "Ġisagu": 2786, "ph": 2787, "Ġsameeyey": 2788, "Ġdhawaaq": 2789, "ummaa": 2790, "Ġrak": 2791, "Ġaniga": 2792, "Ġxaalad": 2793, "siin": 2794, "Ġiman": 2795, "Ġmagacaabo": 2796, "ĠCabdullaahi": 2797, "ĠKor": 2798, "duu": 2799, "ĠRead": 2800, "Ġsocota": 2801, "Ġmacaam": 2802, "ĠDast": 2803, "Ġmaxay": 2804, "Ġxer": 2805, "Ġaheyd": 2806, "ĠJar": 2807, "ĠGaar": 2808, "Ġdhaca": 2809, "elsea": 2810, "adaan": 2811, "ĠCabdiraxmaan": 2812, "kani": 2813, "oli": 2814, "uba": 2815, "ĠXid": 2816, "Ġbadda": 2817, "Ciidamada": 2818, "Ġdhakh": 2819, "Ġxusay": 2820, "wasaar": 2821, "ĠAmniga": 2822, "Ġhayo": 2823, "Ġlacagta": 2824, "ĠSiilaanyo": 2825, "Ġyeer": 2826, "yadii": 2827, "ĠGudoomiyaha": 2828, "ĠDawladda": 2829, "ĠDiyaar": 2830, "ĠJune": 2831, "ĠBil": 2832, "Ġwas": 2833, "ladii": 2834, "elef": 2835, "Ġdadaal": 2836, "sada": 2837, "baar": 2838, "Ġmaalinta": 2839, "ĠKA": 2840, "jab": 2841, "mooyinka": 2842, "aahdo": 2843, "Ġrid": 2844, "Ġbiyaha": 2845, "toy": 2846, "Wuxuu": 2847, "iver": 2848, "Ġkub": 2849, "vember": 2850, "hor": 2851, "ĠWakii": 2852, "ĠGalbeed": 2853, "Ġdaq": 2854, "Ġra": 2855, "xigeenka": 2856, "Ġhaddana": 2857, "Ġxaqiij": 2858, "Ġcagta": 2859, "Ġshur": 2860, "Ġweyd": 2861, "ĠMadaxda": 2862, "Ġuun": 2863, "Ġcol": 2864, "Ġlug": 2865, "ayne": 2866, "ĠCo": 2867, "dig": 2868, "Ġinoo": 2869, "ĠNairobi": 2870, "abadda": 2871, "Ġadiga": 2872, "Ġnaxariis": 2873, "ss": 2874, "liyaha": 2875, "Ġhur": 2876, "gol": 2877, "ciil": 2878, "Ġbaad": 2879, "ĠBaydhabo": 2880, "Ġsafar": 2881, "Ġqurux": 2882, "Ġxum": 2883, "Ġdast": 2884, "Ġhogaam": 2885, "Ġhadalka": 2886, "wa": 2887, "Ġdadku": 2888, "ĠJo": 2889, "Ġmaalmood": 2890, "sanaa": 2891, "Dowladda": 2892, "Ġdawlada": 2893, "be": 2894, "Ġxiriirka": 2895, "eyr": 2896, "Ġ27": 2897, "ĠCas": 2898, "aynu": 2899, "Ġkaasoo": 2900, "ĠCis": 2901, "kum": 2902, "Ġururka": 2903, "ĠSo": 2904, "Ġse": 2905, "Ġina": 2906, "Ġwaxey": 2907, "eeyaa": 2908, "Ġbaxday": 2909, "aaba": 2910, "Ġoday": 2911, "Ġreeb": 2912, "ĠSoomali": 2913, "Ġqiyaas": 2914, "ĠHan": 2915, "Ġmarkaa": 2916, "Ġdaro": 2917, "ĠMuslim": 2918, "Ġbilaabo": 2919, "RO": 2920, "Ġargag": 2921, "SI": 2922, "Ġmaan": 2923, "Ġbilood": 2924, "gud": 2925, "Ġwan": 2926, "Ġfederaalka": 2927, "Ġyeeshay": 2928, "eelle": 2929, "AAD": 2930, "Ġmaska": 2931, "hayaha": 2932, "Ġbilaabay": 2933, "ebruary": 2934, "iyiin": 2935, "email": 2936, "wal": 2937, "ĠDagaal": 2938, "meer": 2939, "ĠReer": 2940, "ĠBerbera": 2941, "Ġkoowaad": 2942, "ooyinkii": 2943, "ld": 2944, "AHA": 2945, "ĠMagac": 2946, "Ġtirada": 2947, "dad": 2948, "Ġmiis": 2949, "gg": 2950, "ĠDoon": 2951, "Ġfir": 2952, "Ġwasaaradda": 2953, "Ġkab": 2954, "Ġdhiig": 2955, "22": 2956, "ĠBadan": 2957, "Ġsiyaasadda": 2958, "inaca": 2959, "Ġwaad": 2960, "ĠCiise": 2961, "ĠMadaxtooyada": 2962, "ini": 2963, "Ġyaabaa": 2964, "ĠGuul": 2965, "ith": 2966, "Ġxaaladda": 2967, "Ġwado": 2968, "Ġdhibaato": 2969, "ĠSabab": 2970, "Ġyeelay": 2971, "sig": 2972, "qabad": 2973, "ĠDF": 2974, "niin": 2975, "ĠHab": 2976, "Ġ2011": 2977, "ĠDowlad": 2978, "imc": 2979, "aasimaha": 2980, "Ġdibadda": 2981, "Ġhaween": 2982, "Ġyir": 2983, "Ġen": 2984, "wada": 2985, "ĠAan": 2986, "oddob": 2987, "ĠBarcelona": 2988, "leen": 2989, "Ġdiyaaradaha": 2990, "aatada": 2991, "go": 2992, "iic": 2993, "Ġciyaarta": 2994, "Ġhogaamin": 2995, "aatay": 2996, "elinta": 2997, "ĠBad": 2998, "ĠBoos": 2999, "dhka": 3000, "gelinta": 3001, "ĠTrump": 3002, "ootiga": 3003, "ĠManchester": 3004, "Ġdoonta": 3005, "itaalka": 3006, "Ġmilyan": 3007, "Éĵe": 3008, "dhiga": 3009, "ĠNor": 3010, "Ġdaqiiq": 3011, "tuu": 3012, "Ġjeediyay": 3013, "Ġistaag": 3014, "Puntland": 3015, "Ġaanan": 3016, "Ġwaajib": 3017, "Ġuuna": 3018, "Ġxirf": 3019, "senal": 3020, "illa": 3021, "lee": 3022, "Ġmucaar": 3023, "Ġdhigo": 3024, "Ġ?": 3025, "...]": 3026, "Ġqaabka": 3027, "Ġhaya": 3028, "oban": 3029, "Ġqabo": 3030, "ram": 3031, "ĠKulan": 3032, "Ġmagaca": 3033, "isaa": 3034, "Ġnas": 3035, "ooni": 3036, "AC": 3037, "Ġgaleen": 3038, "ĠGaroowe": 3039, "ĠGaad": 3040, "Ġfarax": 3041, "Ġ28": 3042, "ĠJu": 3043, "Ġbiy": 3044, "Ġark": 3045, "Ġthis": 3046, "ratti": 3047, "Ġmustaq": 3048, "ray": 3049, "Ġarimaha": 3050, "Hargeysa": 3051, "Ġlay": 3052, "pool": 3053, "sal": 3054, "Read": 3055, "acan": 3056, "ĠMadaxweyn": 3057, "ĠIYO": 3058, "Ġwaxan": 3059, "Ġhooy": 3060, "ruu": 3061, "ej": 3062, "Ġweydii": 3063, "Ġcaalamiga": 3064, "Ġtax": 3065, "ĠShiinaha": 3066, "Ġ199": 3067, "ĠRas": 3068, "Ġwasaaraha": 3069, "Ġdiir": 3070, "ĠUrurka": 3071, "Ġxiriira": 3072, "ooyi": 3073, "ĠHo": 3074, "Ġamar": 3075, "und": 3076, "ei": 3077, "imaa": 3078, "Ġdoorashooyinka": 3079, "ĠAugust": 3080, "ĠCan": 3081, "Ġcelin": 3082, "ĠGuddiga": 3083, "ĠMaq": 3084, "ĠXil": 3085, "Ġdoonayo": 3086, "Ġqiimaha": 3087, "ĠCaalamka": 3088, "Ġxuquuq": 3089, "Ġisk": 3090, "Ġhabboon": 3091, "Ġqiim": 3092, "Ġmaalintii": 3093, "Ġdiinta": 3094, "ord": 3095, "aafinta": 3096, "raad": 3097, "ĠLondon": 3098, "Ġgashay": 3099, "Ġxiray": 3100, "ĠMuuq": 3101, "Ġninka": 3102, "ihiisa": 3103, "Ġdhuf": 3104, "DAAWO": 3105, "Ġxoogan": 3106, "Maam": 3107, "shadaha": 3108, "ĠOg": 3109, "15": 3110, "Ġdhexeeya": 3111, "ED": 3112, "Ġcaawin": 3113, "edo": 3114, "Ġciidamo": 3115, "ĠApril": 3116, "Ġxay": 3117, "Ġheerka": 3118, "ĠSidoo": 3119, "ĠâĢ¦": 3120, "addaba": 3121, "Comments": 3122, "Ġqaadi": 3123, "Ġfad": 3124, "aakiil": 3125, "OR": 3126, "Ġsheegayaan": 3127, "iz": 3128, "dooda": 3129, "Ġdoonin": 3130, "xuum": 3131, "akh": 3132, "ĠKMG": 3133, "Ġjaamac": 3134, "eden": 3135, "ĠDir": 3136, "aceb": 3137, "eyre": 3138, "Ġgarab": 3139, "aahim": 3140, "Ġdhawaaqay": 3141, "Ġfid": 3142, "Ġqaba": 3143, "ener": 3144, "Ùĳ": 3145, "ĠSeptember": 3146, "maaciil": 3147, "kha": 3148, "Ġdiiwaan": 3149, "adooda": 3150, "oole": 3151, "ĠCol": 3152, "riso": 3153, "dhay": 3154, "Ġsiiyay": 3155, "AG": 3156, "Ġqaabil": 3157, "iverpool": 3158, "hayeenka": 3159, "Ġ100": 3160, "Ġsaartay": 3161, "ĠSul": 3162, "daal": 3163, "ĠDecember": 3164, "ĠXuk": 3165, "Ġhorumarinta": 3166, "aaya": 3167, "Ġsaaro": 3168, "Ġhaysa": 3169, "tix": 3170, "Ġaaminsan": 3171, "liyey": 3172, "Ġsir": 3173, "ĠTir": 3174, "Ġhoryaalka": 3175, "Ġmudo": 3176, "Ġkatir": 3177, "Ġhelaan": 3178, "Ġlag": 3179, "Ġlix": 3180, "ĠRoob": 3181, "Ġfara": 3182, "Ġkeentay": 3183, "Ka": 3184, "ĠWasaare": 3185, "Ġsab": 3186, "Ġdalkaasi": 3187, "ĠHadlay": 3188, "ĠXub": 3189, "iisha": 3190, "iman": 3191, "Ġbir": 3192, "ĠGudaha": 3193, "nah": 3194, "Ġbandhigay": 3195, "mm": 3196, "ĠXisb": 3197, "ĠKulmiye": 3198, "Ġtaariikhda": 3199, "ĠJanuary": 3200, "usha": 3201, "Ġshaqayn": 3202, "igoo": 3203, "Ġshirkadda": 3204, "Ġahan": 3205, "ĠComments": 3206, "Ġinternet": 3207, "shan": 3208, "ĠCarabta": 3209, "Ġfay": 3210, "Ø§Ø": 3211, "ĠIslaamka": 3212, "Ġxubno": 3213, "Ġmunaas": 3214, "Qor": 3215, "keed": 3216, "Ġafka": 3217, "Ġdiin": 3218, "jar": 3219, "Qar": 3220, "hamed": 3221, "ach": 3222, "Soomaali": 3223, "Ġgeed": 3224, "Ġdhigan": 3225, "Ġisl": 3226, "Ġfarsam": 3227, "shab": 3228, "Ġxaqiiq": 3229, "IYE": 3230, "nta": 3231, "Ġkuwii": 3232, "elle": 3233, "ĠIsku": 3234, "ĠCismaan": 3235, "24": 3236, "Ġhadana": 3237, "ist": 3238, "Ġdhacdo": 3239, "kiisii": 3240, "Ġsoomaaliyeed": 3241, "eega": 3242, "tana": 3243, "baan": 3244, "Ġjoogto": 3245, "oota": 3246, "ĠDab": 3247, "Ġila": 3248, "Ġansix": 3249, "Ġfili": 3250, "Ġdagaala": 3251, "ĠOctober": 3252, "ĠQaar": 3253, "Ġtimid": 3254, "Ġrum": 3255, "Ġqoran": 3256, "Ġtodob": 3257, "lasha": 3258, "LM": 3259, "oft": 3260, "Ġgoobaha": 3261, "ĠFur": 3262, "ĠDeegaanka": 3263, "Ġqarx": 3264, "nayn": 3265, "low": 3266, "Somaliland": 3267, "ĠAfrica": 3268, "Ġkas": 3269, "ĠDag": 3270, "ĠMasar": 3271, "30": 3272, ",\"": 3273, "Ġnoqoto": 3274, "Ġxukuum": 3275, "Ġfah": 3276, "Go": 3277, "siinta": 3278, "ĠId": 3279, "ĠAqalka": 3280, "Ġbuuxda": 3281, "ĠLab": 3282, "aarta": 3283, "cas": 3284, "Dadka": 3285, "Ġabaal": 3286, "ĠChelsea": 3287, "ĠQayb": 3288, "ĠMag": 3289, "Ġz": 3290, "Ġuna": 3291, "Ġxafiiska": 3292, "acebook": 3293, "ĠSt": 3294, "ich": 3295, "Ġdiid": 3296, "weli": 3297, "kiisu": 3298, "Ġkarta": 3299, "Ġle": 3300, "ĠâĢĿ": 3301, "atar": 3302, "Ġmada": 3303, "ĠBoqor": 3304, "ĠAH": 3305, "Ġdaran": 3306, "Ġyaalla": 3307, "Ġraax": 3308, "Guddoomiyaha": 3309, "ĠMudug": 3310, "Ġxogta": 3311, "linyarada": 3312, "wo": 3313, "UR": 3314, "ĠMr": 3315, "Ġgalin": 3316, "Ġboqor": 3317, "Ġshaba": 3318, "ard": 3319, "oolka": 3320, "ĠGoob": 3321, "Ġ29": 3322, "Ġnidaam": 3323, "ano": 3324, "ĠLaakiin": 3325, "ĠMarkii": 3326, "HAG": 3327, "Ġcaawa": 3328, "tiin": 3329, "Ġtaageero": 3330, "Ġhesho": 3331, "Ġ[...]": 3332, "ĠCir": 3333, "Ġisna": 3334, "Ġfursad": 3335, "14": 3336, "ĠIlaah": 3337, "Dad": 3338, "maas": 3339, "lahi": 3340, "waxaana": 3341, "Ġtix": 3342, "faafinta": 3343, "alal": 3344, "ĠIslaam": 3345, "ST": 3346, "ĠImaaraadka": 3347, "Ġbixi": 3348, "Ġqaadeen": 3349, "omp": 3350, "Gar": 3351, "csan": 3352, "haas": 3353, "Ġus": 3354, "ĠAnd": 3355, "ĠKan": 3356, "Ġsaldhig": 3357, "Ġcaadiga": 3358, "ĠDastuurka": 3359, "Mu": 3360, "Ġbe": 3361, "Ġisticmaali": 3362, "Ġyaala": 3363, "Ġmagacaab": 3364, "Ġahay": 3365, "50": 3366, "Ġdambeyn": 3367, "ĠCon": 3368, "Ġbuug": 3369, "ARKA": 3370, "ĠSic": 3371, "waanka": 3372, "Ġxuku": 3373, "Ġwaxana": 3374, "isan": 3375, "Ġgalo": 3376, "ĠDaahir": 3377, "hiid": 3378, "Ġhaweenka": 3379, "aani": 3380, "aase": 3381, "ĠWadda": 3382, "Ġeego": 3383, "ĠCil": 3384, "Ġmeelaha": 3385, "Ġfilan": 3386, "ĠBarnaamij": 3387, "Ġduq": 3388, "ĠUN": 3389, "Ġgac": 3390, "ĠRuush": 3391, "aabada": 3392, "Ġduub": 3393, "ula": 3394, "Ġrog": 3395, "ĠNovember": 3396, "Ġ)": 3397, "Tali": 3398, "Ġhorumarka": 3399, "Ġmadaxa": 3400, "Ġ50": 3401, "ĠHa": 3402, "Ġkhud": 3403, "alay": 3404, "ĠIbraahim": 3405, "qaad": 3406, "Ġco": 3407, "aashaan": 3408, "Ġdegan": 3409, "laya": 3410, "Ġdibna": 3411, "Ġdary": 3412, "aday": 3413, "Ġkatirsan": 3414, "ĠAkh": 3415, "ĠXaas": 3416, "kaal": 3417, "ĠXildhibaanada": 3418, "Ġsarr": 3419, "celi": 3420, "Ġcaadi": 3421, "Shir": 3422, "isada": 3423, "Ġfaaf": 3424, "ayno": 3425, "bixinta": 3426, "ĠEeb": 3427, "âĢ¦âĢ¦": 3428, "Ġhayaan": 3429, "ĠTo": 3430, "Ġgan": 3431, "Ġgudbin": 3432, "IM": 3433, "doonka": 3434, "Ġdam": 3435, "Ġwarq": 3436, "NA": 3437, "eysto": 3438, "ĠPar": 3439, "hn": 3440, "ĠIsmaaciil": 3441, "ĠBoosaaso": 3442, "lish": 3443, "Ġnatiij": 3444, "xan": 3445, "eyda": 3446, "ambaar": 3447, "Ġadeegsan": 3448, "Ġweerarka": 3449, "ĠWaxbar": 3450, "ĠMaar": 3451, "Shirka": 3452, "ĠTalyaan": 3453, "Ġkuwaasoo": 3454, "Ġgeystay": 3455, "Ġpr": 3456, "Ġsays": 3457, "Ġshaqeeya": 3458, "waaq": 3459, "ĠTaag": 3460, "ĠHarg": 3461, "Ġsidan": 3462, "Ġmuw": 3463, "ĠKheyre": 3464, "Ġhoreysay": 3465, "ĠNet": 3466, "eshay": 3467, "axay": 3468, "ĠMarch": 3469, "Ġnala": 3470, "Ġhabka": 3471, "Ġxeer": 3472, "Ġguddiga": 3473, "13": 3474, "Ġeh": 3475, "Ġtuur": 3476, "ĠHar": 3477, "ĠArsenal": 3478, "ack": 3479, "Ġkuwaasi": 3480, "Ġgeeriyooday": 3481, "caan": 3482, "Ġbaaritaan": 3483, "Ġwaram": 3484, "heeda": 3485, "Ġdegdeg": 3486, "Far": 3487, "ĠHesh": 3488, "adaas": 3489, "Ġdoorasha": 3490, "Ġisaan": 3491, "yahanka": 3492, "Ġganacsi": 3493, "hamp": 3494, "Ġsocdo": 3495, "bay": 3496, "ihi": 3497, "18": 3498, "Ġbalan": 3499, "yi": 3500, "meed": 3501, "Ġraadin": 3502, "Ġdhalinyarada": 3503, "Ġsoomaaliya": 3504, "owl": 3505, "Ġdadweynaha": 3506, "kiin": 3507, "balka": 3508, "ĠDoorashada": 3509, "Ġhoggaam": 3510, "oodu": 3511, "IC": 3512, "Ġammaan": 3513, "LMIYE": 3514, "wan": 3515, "Ġcalaam": 3516, "jinta": 3517, "17": 3518, "Ġardayda": 3519, "25": 3520, "16": 3521, "Ġdhisan": 3522, "Ġmaaha": 3523, "Ġxafiis": 3524, "ĠMadoobe": 3525, "ER": 3526, "Ġni": 3527, "aashii": 3528, "Ġdoorasho": 3529, "Ġgobolada": 3530, "ĠSweden": 3531, "adib": 3532, "iisal": 3533, "EYSO": 3534, "ĠÉĹ": 3535, "Ġsiy": 3536, "Nin": 3537, "ĠAdd": 3538, "ĠIsb": 3539, "Ġxaas": 3540, "Ġnaq": 3541, "same": 3542, "Ġcaruur": 3543, "Ġfuray": 3544, "tional": 3545, "Ġisticmaalo": 3546, "ĠAlshabaab": 3547, "SL": 3548, "gi": 3549, "Ġcaj": 3550, "Ġwaqtiga": 3551, "adiif": 3552, "Ġdhexmar": 3553, "Ġfaraxsan": 3554, "dul": 3555, "ĠWaxaad": 3556, "seed": 3557, "Ġaasaas": 3558, "ĠÙĪ": 3559, "Ġarki": 3560, "Ġxud": 3561, "Ġsheek": 3562, "Ġsaaran": 3563, "eysi": 3564, "Ġoggol": 3565, "Ġciyaareed": 3566, "Ġmidka": 3567, "ĠWeerar": 3568, "iiso": 3569, "ev": 3570, "alabka": 3571, "Ġiy": 3572, "dhaqaaq": 3573, "hone": 3574, "Ġahaanba": 3575, "ĠIlaahay": 3576, "Ġbanaan": 3577, "owe": 3578, "ĠFebruary": 3579, "Ġmuslim": 3580, "ĠCabdil": 3581, "anaya": 3582, "inaya": 3583, "Ø¨": 3584, "Ġgum": 3585, "Ġdaa": 3586, "ĠLiverpool": 3587, "Ġviews": 3588, "liyaan": 3589, "ĠDH": 3590, "igiisa": 3591, "Ġbaxa": 3592, "BO": 3593, "ĠSii": 3594, "Ġweliba": 3595, "ĠiP": 3596, "ĠWasiirada": 3597, "ĠXoog": 3598, "Ġsif": 3599, "Ġdhawr": 3600, "Ġkhar": 3601, "UN": 3602, "Ġballan": 3603, "Ġisbed": 3604, "ĠKULMIYE": 3605, "Ġnooca": 3606, "Ġtabab": 3607, "ĠXab": 3608, "Ġdhoof": 3609, "âĢĵ": 3610, "Ġbixiyay": 3611, "Ġodhan": 3612, "iim": 3613, "Ġwalaal": 3614, "Ġnoqdaan": 3615, "satada": 3616, "Ġkhatar": 3617, "Ġcon": 3618, "Ġsaarka": 3619, "Akh": 3620, "Ġmadaxweyn": 3621, "ĠAad": 3622, "áī": 3623, "Ġlagama": 3624, "Ġshirkad": 3625, "Ġgalaan": 3626, "aayey": 3627, "ĠBay": 3628, "ĠNew": 3629, "quul": 3630, "aanada": 3631, "rit": 3632, "ware": 3633, "gel": 3634, "wga": 3635, "aynaha": 3636, "Ġtoddob": 3637, "son": 3638, "Wasaar": 3639, "ooyiga": 3640, "ĠCaafimaadka": 3641, "Ġgaba": 3642, "gaan": 3643, "uudaha": 3644, "Ġweh": 3645, "ĠFin": 3646, "Ġsub": 3647, "ĠCus": 3648, "AAR": 3649, "Ġdhibaatada": 3650, "Ġlagaga": 3651, "Ġayaad": 3652, "Ġbee": 3653, "Ġtago": 3654, "shi": 3655, "ĠDEG": 3656, "sax": 3657, "Ġsah": 3658, "áĭ": 3659, "ĠWarbaahinta": 3660, "Ġmudane": 3661, "ĠLac": 3662, "Warar": 3663, "Ġsuuq": 3664, "Ġtartanka": 3665, "ted": 3666, "abi": 3667, "Kooxda": 3668, "aano": 3669, "ĠSiciid": 3670, "Ġfikir": 3671, "ĠAqoon": 3672, "ĠGedo": 3673, "Ġhees": 3674, "geyska": 3675, "ĠSool": 3676, "Ġdheg": 3677, "Ġjoogo": 3678, "bta": 3679, "Ġyaa": 3680, "Ġwadaan": 3681, "Ġsameeyeen": 3682, "ĠÃ": 3683, "Ġfilayaa": 3684, "Ġgaadiidka": 3685, "áĬ": 3686, "per": 3687, "Ġber": 3688, "Ġqabsoo": 3689, "Ġcudurka": 3690, "nayd": 3691, "lal": 3692, "wm": 3693, "ĠInter": 3694, "Ġbeel": 3695, "ĠGaroonka": 3696, "Ġwaxuu": 3697, "ĠSay": 3698, "Ġfaahf": 3699, "Ġamaanka": 3700, "ĠCadd": 3701, "Ġme": 3702, "Ġjirka": 3703, "shiga": 3704, "ĠBBC": 3705, "Ġtiri": 3706, "age": 3707, "Dhageyso": 3708, "EO": 3709, "Ax": 3710, "ty": 3711, "Ġfuran": 3712, "aadhan": 3713, "ĠMux": 3714, "Ġtusaale": 3715, "ĠDAAWO": 3716, "ĠSheegay": 3717, "Ġcaasimadda": 3718, "Ġnolosh": 3719, "Xaf": 3720, "ĠXamar": 3721, "Ġsaaka": 3722, "tain": 3723, "eysiga": 3724, "ĠMaxaa": 3725, "ilan": 3726, "Ġshid": 3727, "Sawirro": 3728, "Ġkol": 3729, "aaliyada": 3730, "haaga": 3731, "lahay": 3732, "Ġkulul": 3733, "eess": 3734, "tigii": 3735, "ear": 3736, "ĠSun": 3737, "Ġyeeshee": 3738, "ĠDen": 3739, "Ġray": 3740, "ĠBuu": 3741, "Ġdhaqaaq": 3742, "Ġdilka": 3743, "ks": 3744, "Ġwaayay": 3745, "ĠSab": 3746, "Ġno": 3747, "ĠBari": 3748, "Sar": 3749, "Ġeedeeyay": 3750, "Mas": 3751, "ate": 3752, "ĠPre": 3753, "Ġtij": 3754, "Ġ_": 3755, "ayga": 3756, "digu": 3757, "ĠRam": 3758, "ĠCeel": 3759, "Ġqaataan": 3760, "Maamulka": 3761, "ĠWaxaana": 3762, "Mid": 3763, "Ġsanadka": 3764, "Ġnolol": 3765, "aamo": 3766, "Ġbedd": 3767, "Ġ#": 3768, "ĠMohamed": 3769, "Ġcabsi": 3770, "Ġnagu": 3771, "Ġmarti": 3772, "adi": 3773, "ĠCod": 3774, "ĠIN": 3775, "beedka": 3776, "ows": 3777, "dee": 3778, "aare": 3779, "ĠHore": 3780, "iisay": 3781, "igan": 3782, "Ġbaq": 3783, "Halkan": 3784, "aahid": 3785, "Ġayaana": 3786, "ĠHub": 3787, "UB": 3788, "ĠMaal": 3789, "Ġdeegaanada": 3790, "Ġhoj": 3791, "ĠKhay": 3792, "orld": 3793, "Ġast": 3794, "ĠMud": 3795, "Ġaduunka": 3796, "Ġbeelaha": 3797, "Ġqoraalka": 3798, "Ġwadamada": 3799, "Ġmarin": 3800, "qaadir": 3801, "Ġheshiiska": 3802, "gaha": 3803, "aankii": 3804, "elay": 3805, "Ġdhowaan": 3806, "Ġxooj": 3807, "Ġkeeni": 3808, "kht": 3809, "Ġlaabtay": 3810, "Ġamaan": 3811, "ĠAska": 3812, "Ġjirey": 3813, "ĠOff": 3814, "Ġirratti": 3815, "lista": 3816, "ĠMash": 3817, "iish": 3818, "Ġshakh": 3819, "ĠXaq": 3820, "Ġkali": 3821, "ON": 3822, "layaasha": 3823, "Ġbas": 3824, "ĠKhal": 3825, "essi": 3826, "Ġhagaaj": 3827, "Ġqaabilsan": 3828, "ĠFarans": 3829, "Ġxagga": 3830, "haat": 3831, "Ġarko": 3832, "owlaha": 3833, "diyo": 3834, "ush": 3835, "Ġgees": 3836, "akam": 3837, "Ġqabiil": 3838, "Ġtarta": 3839, "Ġxulka": 3840, "ĠGuur": 3841, "eyaasha": 3842, "Dhinaca": 3843, "ayna": 3844, "Ġmaqan": 3845, "HAGEYSO": 3846, "Ġyidh": 3847, "AH": 3848, "Øª": 3849, "Ġciyaartoy": 3850, "tta": 3851, "Ġmeesh": 3852, "aalami": 3853, "Ġbarnaamijka": 3854, "Ġsuurta": 3855, "Ġshaqeeyaan": 3856, "Kulan": 3857, "eynayo": 3858, "Ġaheyn": 3859, "lihii": 3860, "ĠBurco": 3861, "ĠCaasimada": 3862, "ten": 3863, "maya": 3864, "Ġkadibna": 3865, "Ġxisaab": 3866, "igeen": 3867, "Ġtallaab": 3868, "koodu": 3869, "Ġiyad": 3870, "ĠOday": 3871, "imaada": 3872, "mbal": 3873, "Ġmuuqaal": 3874, "Ġgobalka": 3875, "Ġdarro": 3876, "Ġwaaf": 3877, "Tal": 3878, "ĠXafiiska": 3879, "oobka": 3880, "Ġjoogaan": 3881, "OG": 3882, "Ġtalin": 3883, "Ġaab": 3884, "Ġaada": 3885, "ĠArimaha": 3886, "'d": 3887, "kadda": 3888, "ici": 3889, "ĠUm": 3890, "Ġbedel": 3891, "Ġsocdaan": 3892, "uxu": 3893, "Ġ2010": 3894, "untada": 3895, "SAWIR": 3896, "Ġsiiyey": 3897, "aafi": 3898, "Ġinkastoo": 3899, "Laakiin": 3900, "Ġdumarka": 3901, "Ġqud": 3902, "oojin": 3903, "Ġciidam": 3904, "Ġhawada": 3905, "ation": 3906, "Ġdhaliyay": 3907, "ĠBis": 3908, "ollar": 3909, "Ġsababtoo": 3910, "âĢĶ": 3911, "Ġtaa": 3912, "ĠBaar": 3913, "Ġciyaaraha": 3914, "US": 3915, "eikh": 3916, "aysi": 3917, "Ġdhaxeeya": 3918, "maal": 3919, "hampion": 3920, "ĠFacebook": 3921, "ĠAhmed": 3922, "Ġbin": 3923, "ĠTaliyaha": 3924, "hur": 3925, "Ġbarta": 3926, "Ġwaqtig": 3927, "Ġsaameyn": 3928, "Ġeg": 3929, "Ġboos": 3930, "Ġitti": 3931, "deeda": 3932, "Ġbah": 3933, "adex": 3934, "Ġdanbe": 3935, "Ġmuwaadin": 3936, "ĠRuushka": 3937, "aystir": 3938, "Ġqaato": 3939, "lisay": 3940, "ĠEE": 3941, "Ġhase": 3942, "Ġkaasi": 3943, "Ġoga": 3944, "Ġhoggaamin": 3945, "Ġiwm": 3946, "and": 3947, "Ġtelef": 3948, "Maxaa": 3949, "Ġgaartay": 3950, "iido": 3951, "raxmaan": 3952, "Ġtah": 3953, "Ġninkii": 3954, "AT": 3955, "aacad": 3956, "ĠMin": 3957, "Ġxul": 3958, "aadaa": 3959, "Ġkoonfur": 3960, "Ġmam": 3961, "Ġdastuurka": 3962, "eynayaa": 3963, "Ø¯": 3964, "Ø¹": 3965, "Ġsanadkan": 3966, "Ġhorjeed": 3967, "tiy": 3968, "istan": 3969, "owhar": 3970, "Ġsannadkii": 3971, "Ġmarkay": 3972, "Ġhaboon": 3973, "Ġsugnaa": 3974, "ĠUK": 3975, "An": 3976, "Ġjiru": 3977, "mu": 3978, "Ġinternetka": 3979, "vi": 3980, "Ġbadbaad": 3981, "OL": 3982, "Ġtii": 3983, "Ġwaxqabad": 3984, "naga": 3985, "ĠWadan": 3986, "ĠTalyaaniga": 3987, "ane": 3988, "kko": 3989, "Ġhalkii": 3990, "ĠCaw": 3991, "oftware": 3992, "ashiid": 3993, "eera": 3994, "ĠâĢĶ": 3995, "aariic": 3996, "Ġwadada": 3997, "Ġmood": 3998, "eyno": 3999, "Ġmay": 4000, "naayeen": 4001, "ooliiska": 4002, "ĠTV": 4003, "Ġwareegay": 4004, "mier": 4005, "ĠNoq": 4006, "Ġargagix": 4007, "Ġgaaro": 4008, "Ġabaab": 4009, "ĠCay": 4010, "omb": 4011, "Ġgeys": 4012, "eply": 4013, "cy": 4014, "Ġbooliska": 4015, "iirta": 4016, "Ġirraa": 4017, "Ġdambeeyey": 4018, "jaahid": 4019, "Ġdegaanka": 4020, "Ġbo": 4021, "kasta": 4022, "Ġbu": 4023, "Ġyeela": 4024, "Ġiskaas": 4025, "Ġhun": 4026, "aysiga": 4027, "Oo": 4028, "ĠKas": 4029, "its": 4030, "ĠFran": 4031, "Ġare": 4032, "gana": 4033, "shii": 4034, "Ġogolaan": 4035, "ĠInay": 4036, "Ġrasaas": 4037, "daalka": 4038, "Ġguddoomiyaha": 4039, "Ġder": 4040, "ĠSaar": 4041, "kuna": 4042, "Dhanka": 4043, "gala": 4044, "Ġaam": 4045, "Ġaskari": 4046, "ĠCal": 4047, "alalka": 4048, "Ġhalis": 4049, "Ġujeed": 4050, "ĠâĨ": 4051, "Ġaay": 4052, "ern": 4053, "aafadeed": 4054, "ĠAli": 4055, "qu": 4056, "Ġxaw": 4057, "Ġmustaqbalka": 4058, "load": 4059, "Ġtoban": 4060, "akada": 4061, "Ġjoogay": 4062, "ĠSacuudiga": 4063, "Ġkhal": 4064, "ĠAfg": 4065, "ota": 4066, "Ġsaari": 4067, "Ġkam": 4068, "Xog": 4069, "Ġinaysan": 4070, "Ġqaybta": 4071, "Ġlum": 4072, "ĠDhac": 4073, "Ġidinka": 4074, "The": 4075, "abiga": 4076, "Ġyou": 4077, "ĠSH": 4078, "Ad": 4079, "Ġqorshaha": 4080, "Ġmaleesh": 4081, "iyeyaasha": 4082, "ĠUgan": 4083, "sida": 4084, "!!!": 4085, "Ġwaalid": 4086, "Ġkeessatti": 4087, "Ġolo": 4088, "Ġ31": 4089, "ĠBarre": 4090, "Ġtu": 4091, "Ġdub": 4092, "ĠXukuumada": 4093, "eyl": 4094, "Ġawgeed": 4095, "axa": 4096, "Ġgaab": 4097, "Ġjeedin": 4098, "xa": 4099, "Ġjiraa": 4100, "Ġhadlayay": 4101, "lus": 4102, "work": 4103, "ebi": 4104, ",,": 4105, "aadada": 4106, "Ġgaaraya": 4107, "jiga": 4108, "Ġmagaalooyinka": 4109, "Ġloola": 4110, "emen": 4111, "Ġjeediyey": 4112, "Ġdoonaya": 4113, "Ġxaqiijiyay": 4114, "Ð¾": 4115, "haatumo": 4116, "ĠHirshab": 4117, "Ġbaas": 4118, "Ġxoogga": 4119, "Ġcarruurta": 4120, "ĠCam": 4121, "Ġballaaran": 4122, "EL": 4123, "Ġmuuqda": 4124, "haar": 4125, "Ġlana": 4126, "Ġaskar": 4127, "ĠCilmi": 4128, "Ġsheegayaa": 4129, "Ġmuuqata": 4130, "eyna": 4131, "Ġsameeyaan": 4132, "Ġbarbar": 4133, "Ġhambal": 4134, "Ġdooran": 4135, "ÙİÙĳ": 4136, "ĠSuur": 4137, "Ġax": 4138, "ice": 4139, "Ġlo": 4140, "ĠDhaw": 4141, "Ġnadiif": 4142, "SH": 4143, "Ġrabto": 4144, "ĠWad": 4145, "ĠFeder": 4146, "Ġarrimo": 4147, "ruuca": 4148, "ĠGobalka": 4149, "tarka": 4150, "ADD": 4151, "Ġcilmi": 4152, "60": 4153, "Ġit": 4154, "ĠJimc": 4155, "Ð½": 4156, "ĠBak": 4157, "23": 4158, "Ġonline": 4159, "Ġisticmaalka": 4160, "dadii": 4161, "our": 4162, "ĠCul": 4163, "Ġlays": 4164, "ĠJaamacadda": 4165, "koodii": 4166, "ĠDhacay": 4167, "Ġisaa": 4168, "Ġhoreeyay": 4169, "Ġcarruur": 4170, "site": 4171, "Ġsaraakiisha": 4172, "ĠMusharax": 4173, "Maxamed": 4174, "Ġkubadda": 4175, "Ġogaan": 4176, "ĠDheer": 4177, "Ġxidhiidh": 4178, "hadal": 4179, "aashu": 4180, "alanq": 4181, "mbar": 4182, "Gudoomiyaha": 4183, "Madax": 4184, "Ã¶": 4185, "ĠâĢ¢": 4186, "Ġwaxbarasho": 4187, "UL": 4188, "tirka": 4189, "end": 4190, "Ġgaarsii": 4191, "Ġtartan": 4192, "ĠTu": 4193, "ĠSir": 4194, "Ġarrintan": 4195, "ĠChampion": 4196, "aacib": 4197, "Ġlaa": 4198, "Ġqorshe": 4199, "adaasi": 4200, "Ġguri": 4201, "Ġbadnaa": 4202, "Ġdhabta": 4203, "Ġwith": 4204, "Ġilaalinta": 4205, "Ġhowlgal": 4206, "Ġhalkaa": 4207, "ĠSOO": 4208, "ĠMil": 4209, "VID": 4210, "idii": 4211, "aabe": 4212, "Ġkulankii": 4213, "isul": 4214, "KH": 4215, "Ġlagula": 4216, "Ġyoo": 4217, "Waxaad": 4218, "Ġch": 4219, "Markii": 4220, "duub": 4221, "Ġdhigtay": 4222, "Ġnasiib": 4223, "Hadaba": 4224, "ĠMd": 4225, "gaarka": 4226, "Ø³": 4227, "idhi": 4228, "ĠGuddoomiye": 4229, "hiin": 4230, "Ġbaxaya": 4231, "qa": 4232, "Ùĥ": 4233, "ĠApp": 4234, "ĠGeeska": 4235, "Ġxidh": 4236, "Ġmarkuu": 4237, "awirka": 4238, "LF": 4239, "Ġshirkadaha": 4240, "Ġthat": 4241, "ĠShiikh": 4242, "ĠGobolada": 4243, "Ġkaal": 4244, "ĠBix": 4245, "ĠSta": 4246, "Ġ40": 4247, "ĠQeyb": 4248, "ĠSanaag": 4249, "Ġtall": 4250, "hab": 4251, "Ġre": 4252, "Ġgaraac": 4253, "ĠDawlada": 4254, "eem": 4255, "Ġdoo": 4256, "Ġbaxaan": 4257, "Ġwadaa": 4258, "roup": 4259, "ilo": 4260, "ĠWasaarada": 4261, "Ġkahor": 4262, "oogle": 4263, "ĠProf": 4264, "Ġdhaweeyay": 4265, "ĠTan": 4266, "Ġfulin": 4267, "ANI": 4268, "Ġanigu": 4269, "naanta": 4270, "Ġhelin": 4271, "kuu": 4272, "Ġsheega": 4273, "badan": 4274, "Haddaba": 4275, "ame": 4276, "Daw": 4277, "eeraha": 4278, "EN": 4279, "malka": 4280, "Ġaqbal": 4281, "Ġmiisaan": 4282, "Ġkoobka": 4283, "Ġjii": 4284, "Ġkuf": 4285, "ĠÙħ": 4286, "ĠSug": 4287, "key": 4288, "Ġmeelo": 4289, "Ġcaasimada": 4290, "Ġmir": 4291, "mahan": 4292, "liyada": 4293, "Ġur": 4294, "ĠIst": 4295, "coon": 4296, "sano": 4297, "daas": 4298, "omm": 4299, "Ġcur": 4300, "Ġwareej": 4301, "ĠPremier": 4302, "Ġwaxyaabo": 4303, "Ġjawaabay": 4304, "Ġmo": 4305, "Ġwata": 4306, "Ġdi": 4307, "Ġgobollada": 4308, "Ġsomaliland": 4309, "dida": 4310, "ĠHorumar": 4311, "ĠTaariikh": 4312, "uter": 4313, "ĠWaxbarashada": 4314, "Ġdaawo": 4315, "ĠSpain": 4316, "Ġdumar": 4317, "Ġheshay": 4318, "Ġtayada": 4319, "Ġshub": 4320, "roid": 4321, "Ġshish": 4322, "Ġhaysta": 4323, "Ġwasaare": 4324, "Bal": 4325, "ĠPosted": 4326, "Ġmusharax": 4327, "Ġqabaa": 4328, "Ġsa": 4329, "imi": 4330, "Ġdhar": 4331, "Ġxiiso": 4332, "Ġkhay": 4333, "fir": 4334, "Ġxaaf": 4335, "ownload": 4336, "wit": 4337, "kiiba": 4338, "Ġxubn": 4339, "ababar": 4340, "sug": 4341, "ĠMaxkamadda": 4342, "ĠWarfaafinta": 4343, "San": 4344, "Haw": 4345, "gaduud": 4346, "naba": 4347, "Ġxukuumada": 4348, "Ġdu": 4349, "Ġboor": 4350, "ĠAbuu": 4351, "Ġjacay": 4352, "ian": 4353, "ĠTani": 4354, "Ġguuleystay": 4355, "qaa": 4356, "Ġdhinteen": 4357, "Ġhubka": 4358, "Ġmise": 4359, "ĠÂ·": 4360, "higa": 4361, "aham": 4362, "ĠDhis": 4363, "aallo": 4364, "oodi": 4365, "uuraha": 4366, "ĠJowhar": 4367, "ĠVideo": 4368, "Ġwakhti": 4369, "Ġwer": 4370, "Ġdalbad": 4371, "Ġhadli": 4372, "ooye": 4373, "ĠGarowe": 4374, "ĠFaransiiska": 4375, "ight": 4376, "ĠKale": 4377, "ĠPost": 4378, "Ġdegmooyinka": 4379, "madu": 4380, "Ġqalin": 4381, "waxaa": 4382, "Ã©": 4383, "ure": 4384, "waxaan": 4385, "nuuc": 4386, "las": 4387, "Ġbaran": 4388, "ĠCaalamiga": 4389, "aynayaa": 4390, "Ġac": 4391, "Ġmuhiimsan": 4392, "eroo": 4393, "Ġbilowday": 4394, "ĠWaf": 4395, "for": 4396, "Ġhadalkiisa": 4397, "Ġadeegyada": 4398, "oodii": 4399, "Ġdhalinyaro": 4400, "ĠXaashi": 4401, "ES": 4402, "ĠNorway": 4403, "Ġwaday": 4404, "ĠRag": 4405, "Ġdhee": 4406, "Ġxildhibaanada": 4407, "ÑĢ": 4408, "ĠXassan": 4409, "Ġsocoto": 4410, "Ġmadaxtooyada": 4411, "eysta": 4412, "ĠSA": 4413, "ĠMir": 4414, "obal": 4415, "ilal": 4416, "Ġxabsiga": 4417, "Ġmacaamiisha": 4418, "Hor": 4419, "Ġxiddiga": 4420, "Ġcarar": 4421, "Ġruntii": 4422, "ĠAir": 4423, "Ġkhadka": 4424, "ĠXukuum": 4425, "Ġxakam": 4426, "layn": 4427, "ĠAwdal": 4428, "Ġmili": 4429, "Ġtuu": 4430, "uma": 4431, "dhow": 4432, "Ġqir": 4433, "Ġawoodda": 4434, "fe": 4435, "âĢĿ,": 4436, "onaldo": 4437, "Ġxigeen": 4438, "ĠCiidamo": 4439, "Ġmore": 4440, "Ġcaalami": 4441, "ĠAdduunka": 4442, "ĠDug": 4443, "Deg": 4444, "Ġ2021": 4445, "iidda": 4446, "lig": 4447, "Ġqabteen": 4448, "Ġxuquuqda": 4449, "Ġmaalga": 4450, "Ġqofku": 4451, "ĠSe": 4452, "uuda": 4453, "Ġqiimo": 4454, "Ġqey": 4455, "ĠMucaar": 4456, "aara": 4457, "deed": 4458, "Ġbi": 4459, "elka": 4460, "ĠRo": 4461, "Ġxooga": 4462, "Ġsum": 4463, "usaale": 4464, "soc": 4465, "diid": 4466, "CID": 4467, "Ġdis": 4468, "Ġdhalatay": 4469, "ĠBadda": 4470, "ĠUganda": 4471, "Ġjoogta": 4472, "Ġrakib": 4473, "Ġqabaan": 4474, "26": 4475, "Ġjan": 4476, "sc": 4477, "ĠYemen": 4478, "va": 4479, "Mac": 4480, "Ġdej": 4481, "kayga": 4482, "Ġwat": 4483, "Ġkordhay": 4484, "ĠDhuus": 4485, "ĠDham": 4486, "ĠSheikh": 4487, "Ġmarayo": 4488, "ĠMaalin": 4489, "Ġdhisay": 4490, "Ġgaareen": 4491, "ĠGacan": 4492, "Ġimaanaya": 4493, "Ġyeed": 4494, "ĠDibadda": 4495, "IG": 4496, "oys": 4497, "Ġtirsanaa": 4498, "ĠQalabka": 4499, "asan": 4500, "Ġsocodka": 4501, "Ġmacluumaad": 4502, "ĠBaarla": 4503, "raan": 4504, "taanka": 4505, "loo": 4506, "eeyaha": 4507, "ĠSuc": 4508, "ĠChampions": 4509, "Mus": 4510, "Ġak": 4511, "raac": 4512, "Ġwaddanka": 4513, "ĠDamb": 4514, "fi": 4515, "ĠAddis": 4516, "Ġqoyska": 4517, "Ġkaalinta": 4518, "27": 4519, "Ui": 4520, "kiis": 4521, "Ġtalada": 4522, "Ġdugsiga": 4523, "Ġhadlaya": 4524, "Ġisa": 4525, "vent": 4526, "Ġqul": 4527, "Ġbari": 4528, "Ġqorshay": 4529, "Ġhee": 4530, "ayuu": 4531, "ĠDhib": 4532, "ĠDig": 4533, "sion": 4534, "Ġsocotay": 4535, "ĠAL": 4536, "eled": 4537, "Ġ2009": 4538, "kor": 4539, "agaha": 4540, "ĠUga": 4541, "Ġdhaceen": 4542, "Ġtaab": 4543, "ĠIsraa": 4544, "aaye": 4545, "enn": 4546, "Ã¤": 4547, "Ġmic": 4548, "dhigga": 4549, "Ġisag": 4550, "Ġjili": 4551, "Ġshirkii": 4552, "ruuc": 4553, "Ġcodsaday": 4554, "Ġqaybaha": 4555, "ĠGanacsiga": 4556, "Ġawooda": 4557, "ĠEur": 4558, "Ġdaad": 4559, "umaha": 4560, "Ġbixinta": 4561, "May": 4562, "Ġwaayey": 4563, "Ġcaab": 4564, "sana": 4565, "Ġakhris": 4566, "Ġbaraka": 4567, "aysto": 4568, "ĠBoor": 4569, "ĠCadaado": 4570, "Ġcada": 4571, "ĠBr": 4572, "yuu": 4573, "Ġriix": 4574, "ĠQatar": 4575, "ĠIdaac": 4576, "Ġtodobaad": 4577, "Ġsiyaasada": 4578, "Ġragga": 4579, "Ġyour": 4580, "ĠDhag": 4581, "Ġxee": 4582, "Ġheshii": 4583, "maam": 4584, "bac": 4585, "Ġwayd": 4586, "Ġduleedka": 4587, "Ġcusboon": 4588, "Posted": 4589, "Ġgol": 4590, "ĠMaaliyadda": 4591, "Pr": 4592, "Ġdhigi": 4593, "Ġkormeer": 4594, "sid": 4595, "Ð¸": 4596, "Ġdileen": 4597, "iyuu": 4598, "ĠHind": 4599, "ĠDuc": 4600, "ĠIS": 4601, "Ġyeesheen": 4602, "Ġhas": 4603, "Ġcajiib": 4604, "Ġqod": 4605, "Ġsanno": 4606, "manka": 4607, "Ġweerarkii": 4608, "Ġqaateen": 4609, "Ġwaay": 4610, "Ġxaqiijin": 4611, "Ġwalaac": 4612, "Ġcaanka": 4613, "Ġtil": 4614, "Ġxubin": 4615, "Ġleenahay": 4616, "Qof": 4617, "Ġtaageerada": 4618, "tg": 4619, "xir": 4620, "ĠXirsi": 4621, "Axmed": 4622, "ĠJawaari": 4623, "Ġcodsan": 4624, "Ġhadlayo": 4625, "Ġdalkaas": 4626, "tariga": 4627, "Ġtayo": 4628, "Ġxoolaha": 4629, "29": 4630, "ĠBariga": 4631, "ace": 4632, "Ġliiska": 4633, "Ġjidh": 4634, "Ġhowlaha": 4635, "Ġimtix": 4636, "Ġbixiyo": 4637, "Ġmacluumaadka": 4638, "ĠMahad": 4639, "ĠAbdi": 4640, "Ġdaraad": 4641, "Ġkacay": 4642, "ĠKhayre": 4643, "ĠCO": 4644, "wasaaraha": 4645, "ĠDek": 4646, "OMAL": 4647, "Ġkhilaafka": 4648, "Ġey": 4649, "Ġbadani": 4650, "haasi": 4651, "Ġkulamo": 4652, "Ġwuxu": 4653, "Ġmata": 4654, "Ġdoonayaan": 4655, "ĠWAX": 4656, "Ġcir": 4657, "ĠArday": 4658, "2012": 4659, "Ġdhinacyada": 4660, "200": 4661, "udh": 4662, "Ġgargaar": 4663, "oonni": 4664, "Ġcaw": 4665, "Ġkharash": 4666, "jum": 4667, "Ġyiraahdo": 4668, "28": 4669, "nigu": 4670, "ĠKham": 4671, "Ġummadda": 4672, "Ġbaxeen": 4673, "hal": 4674, "sheeg": 4675, "Ġxilliga": 4676, "ashil": 4677, "Ġdegaan": 4678, "marka": 4679, "eysatay": 4680, "Ġib": 4681, "Ġjoojin": 4682, "afka": 4683, "ĠHaweenka": 4684, "iimaha": 4685, "Ġcuntada": 4686, "40": 4687, "Ġhormar": 4688, "ĠSanad": 4689, "Ġmagaalo": 4690, "Ġhadlo": 4691, "ĠLabada": 4692, "Ġbishan": 4693, "ung": 4694, "Ġwasiirada": 4695, "\".": 4696, "witter": 4697, "Ġsiday": 4698, "naanka": 4699, "fan": 4700, "dhac": 4701, "aaro": 4702, "Ġmaw": 4703, "Ġgoboleedyada": 4704, "ĠTaageer": 4705, "ĠXan": 4706, "ĠLA": 4707, "ĠShabeel": 4708, "news": 4709, "Ġgali": 4710, "Waxaana": 4711, "oofur": 4712, "à¤": 4713, "adaa": 4714, "Ġkordhin": 4715, "Ġisw": 4716, "ĠLaas": 4717, "Ġmuhiimka": 4718, "Ġhorseed": 4719, "shaq": 4720, "ĠMacalin": 4721, "eng": 4722, "ĠNetwork": 4723, "2018": 4724, "Ġdeggan": 4725, "Ġmarx": 4726, "Ġdaaf": 4727, "ĠAbaba": 4728, "ĠMarxuum": 4729, "Ġkic": 4730, "Ġdhameys": 4731, "Ġkham": 4732, "Ġdhicin": 4733, "Ġindhaha": 4734, "Ġilaalin": 4735, "Ġcag": 4736, "Ġsay": 4737, "koo": 4738, "Ġnam": 4739, "Ġcaruurta": 4740, "ilalka": 4741, "Ġtaleef": 4742, "dooyinka": 4743, "fa": 4744, "Ġdaah": 4745, "Ġgudoomiyaha": 4746, "ÙĤ": 4747, "ĠiPhone": 4748, "ĠDHA": 4749, "Ġbili": 4750, "Magaalada": 4751, "bir": 4752, "Ġalbaab": 4753, "Cabdi": 4754, "Ag": 4755, "saga": 4756, "liyeen": 4757, "Ġhubeysan": 4758, "ĠGaadiidka": 4759, "ĠInuu": 4760, "Ġdhaqdhaqaaq": 4761, "Ġbaxsan": 4762, "Ġyaabo": 4763, "Ġsok": 4764, "Ġtani": 4765, "Ġmusuq": 4766, "Ġilaahay": 4767, "Ġduul": 4768, "ĠUCID": 4769, "ĠUS": 4770, "Hay": 4771, "ĠKarin": 4772, "Ġbaxo": 4773, "mal": 4774, "Ġdanbeeyay": 4775, "ĠAY": 4776, "tc": 4777, "aasiin": 4778, "amareeb": 4779, "Ġmahadsan": 4780, "ĠWARARKA": 4781, "Ġdhibaatooyinka": 4782, "FA": 4783, "wali": 4784, "ĠShaqaalaha": 4785, "Ġol": 4786, "Ġvideo": 4787, "aman": 4788, "Ġgabar": 4789, "Ġiyana": 4790, "ĠUni": 4791, "Ġbulsha": 4792, "Ġmaskaxda": 4793, "Ġidinku": 4794, "Ġaya": 4795, "Ġbogga": 4796, "Warbixin": 4797, "ĠDoorashooyinka": 4798, "Ø©": 4799, "SAWIRRO": 4800, "Ġyimaadeen": 4801, "ĠAgaasimaha": 4802, "oyska": 4803, "imuq": 4804, "Ġdifaaca": 4805, "Ġgarsoor": 4806, "ĠTag": 4807, "'s": 4808, "ĠAyuu": 4809, "kn": 4810, "âĢ¢": 4811, "ĠFaysal": 4812, "Ġhayn": 4813, "ĠHeshiis": 4814, "alada": 4815, "Inta": 4816, "Ġshaqeeyo": 4817, "ĠSuldaan": 4818, "ism": 4819, "atan": 4820, "ĠBo": 4821, "Ġke": 4822, "ilaa": 4823, "tions": 4824, "Ġmaqlay": 4825, "mac": 4826, "Ġkiis": 4827, "Ġloona": 4828, "Ġduk": 4829, "Ġqaadatay": 4830, "ĠHindiya": 4831, "ĠMuuqaal": 4832, "Ġbilaash": 4833, "ĠYar": 4834, "hiisa": 4835, "ĠSalaad": 4836, "bul": 4837, "Ġdayac": 4838, "Ġgun": 4839, "ĠBor": 4840, "AAM": 4841, "BI": 4842, "Man": 4843, "Ġhaysan": 4844, "Ġcadaad": 4845, "Ġci": 4846, "riib": 4847, "Ġmaskax": 4848, "ĠWaddani": 4849, "inho": 4850, "Ġkarnaa": 4851, "Ġrabaa": 4852, "irus": 4853, "kad": 4854, "gaarsiinta": 4855, "Ġbixiyaan": 4856, "mata": 4857, "tiinka": 4858, "Ġalaab": 4859, "oorka": 4860, "Ġ>": 4861, "Ġhoy": 4862, "esday": 4863, "Ġsaareen": 4864, "mas": 4865, "Ġqofkii": 4866, "Ġfrom": 4867, "gada": 4868, "Golaha": 4869, "liye": 4870, "Ġintaasi": 4871, "Ġiminka": 4872, "Ġxooggan": 4873, "Ġhooyo": 4874, "Ġfadhiya": 4875, "Maa": 4876, "Ġbid": 4877, "by": 4878, "Ġqeex": 4879, "ĠVi": 4880, "Ġxataa": 4881, "ĠVis": 4882, "ĠLib": 4883, "08": 4884, "lab": 4885, "ĠBri": 4886, "ĠVilla": 4887, "Ġsadex": 4888, "ĠRonaldo": 4889, "Ġfiic": 4890, "zil": 4891, "Ġhawlaha": 4892, "igaa": 4893, "elo": 4894, "ĠEx": 4895, "Ġmashaariic": 4896, "uxuf": 4897, "ĠMagaal": 4898, "Ġwaydii": 4899, "ĠÑ": 4900, "Ġyaqaano": 4901, "Ġwaafaq": 4902, "hee": 4903, "fka": 4904, "iley": 4905, "ĠJarmalka": 4906, "Ġhoosta": 4907, "Ġdhagax": 4908, "):": 4909, "Ġsp": 4910, "Ġdo": 4911, "Ġkir": 4912, "EW": 4913, "Ġbadh": 4914, "ĠAllah": 4915, "Ġhadleen": 4916, "Ġqeybta": 4917, "ĠKadib": 4918, "Ġrabo": 4919, "KII": 4920, "wayn": 4921, "ĠWaan": 4922, "Ġwaddan": 4923, "ido": 4924, "aatan": 4925, "aatti": 4926, "AQ": 4927, "ĠWorld": 4928, "Ġweeraray": 4929, "Ġjaraa": 4930, "nd": 4931, "shahay": 4932, "Ġmuran": 4933, "Ġshay": 4934, "ang": 4935, "Ġqabsaday": 4936, "Ġrasmiga": 4937, "Ġaragti": 4938, "ĠSharc": 4939, "abadan": 4940, "Ġduc": 4941, "ĠMon": 4942, "Ġfarxad": 4943, "ĠBeled": 4944, "ladu": 4945, "Ġdibada": 4946, "Ġsaxda": 4947, "Ġogaaday": 4948, "09": 4949, "Ġyimaado": 4950, "Ġkalana": 4951, "Sawiro": 4952, "Ġmucaaradka": 4953, "aarada": 4954, "Ġhadashay": 4955, "iista": 4956, "Ġsuurto": 4957, "ĠTac": 4958, "Ġtoddobaad": 4959, "Ġdhigeen": 4960, "ĠAndroid": 4961, "Ġsheego": 4962, "Ġjaan": 4963, "ĠKhaatumo": 4964, "ĠXu": 4965, "Ġbixiyey": 4966, "Ġsiyaasad": 4967, "Ġdalal": 4968, "ror": 4969, "Gudd": 4970, "Ġdaabac": 4971, "ĠHalkan": 4972, "ĠDi": 4973, "ishanka": 4974, "iyayaasha": 4975, "Ġxidhan": 4976, "illi": 4977, "ĠRooble": 4978, "Ġdhiman": 4979, "Ġpar": 4980, "ĠDhig": 4981, "Ġkayd": 4982, "Ġwadd": 4983, "Ġdacw": 4984, "Qaar": 4985, "Ġmarkaan": 4986, "Ġ60": 4987, "caanood": 4988, "Ġwacan": 4989, "ĠWarsame": 4990, "ene": 4991, "Ġmadow": 4992, "Maq": 4993, "ĠDul": 4994, "ĠDay": 4995, "Ġxidhay": 4996, "Ġlaguna": 4997, "eebta": 4998, "axan": 4999, "Ġqaxootiga": 5000, "Ġdher": 5001, "Ġinaga": 5002, "dadka": 5003, "Ġdambeysay": 5004, "ĠXeer": 5005, "ĠKhaliif": 5006, "Ġmuqdisho": 5007, "ĠâĨĴ": 5008, "ĠGuuleed": 5009, "ĠQal": 5010, "Ġroob": 5011, "ayska": 5012, "gay": 5013, "maah": 5014, "ĠShan": 5015, "Ġmis": 5016, "ĠCaaw": 5017, "Maxka": 5018, "galin": 5019, "Ġdemb": 5020, "ĠSiyaad": 5021, "ĠFad": 5022, "Ġxiga": 5023, "Ġdhaar": 5024, "kanku": 5025, "Ġhogaanka": 5026, "ĠSoomaliya": 5027, "Ġluq": 5028, "Ġtababarka": 5029, "leh": 5030, "Ġkeeno": 5031, "Ġyimaada": 5032, "Ġdhii": 5033, "eneral": 5034, "lom": 5035, "Ġbooqday": 5036, "Ġsaraakiil": 5037, "Taliyaha": 5038, "eystaan": 5039, "ashiir": 5040, "ĠWADD": 5041, "ĠGaashaan": 5042, "DF": 5043, "Ġwareega": 5044, "Ġmaamu": 5045, "Ġsocod": 5046, "ĠKhilaaf": 5047, "La": 5048, "Ġweydiin": 5049, "Ġdagaalkii": 5050, "Ġshac": 5051, "Ġmasuul": 5052, "ĠAdeeg": 5053, "ĠBax": 5054, "AAB": 5055, "Ġtoog": 5056, "Ġaadka": 5057, "ĠLaba": 5058, "Ġgoboleedka": 5059, "Ġmarkale": 5060, "Ġbaarla": 5061, "ĠLeh": 5062, "Ġshaaca": 5063, "Ġoon": 5064, "ĠIG": 5065, "ulimada": 5066, "Ciida": 5067, "Ġwarshadaha": 5068, "ĠQodob": 5069, "garadka": 5070, "Ġnoocyada": 5071, "ĠBos": 5072, "Ġxidhiidha": 5073, "ĠCabdiweli": 5074, "UM": 5075, "ĠCor": 5076, "Ġmamnuuc": 5077, "eenna": 5078, "Ġarkaan": 5079, "jec": 5080, "ĠAma": 5081, "Ġwasaarada": 5082, "Ġread": 5083, "Ġunder": 5084, "Ġhalkaan": 5085, "aalkan": 5086, "Ġcidda": 5087, "Ġcaf": 5088, "aakin": 5089, "aane": 5090, "05": 5091, "Ġcomp": 5092, "eecada": 5093, "Ġsaddexaad": 5094, "galada": 5095, "Ġgalbeed": 5096, "kin": 5097, "Ġhabeenkii": 5098, "les": 5099, "eynaya": 5100, "WAR": 5101, "01": 5102, "lamaanka": 5103, "ĠSer": 5104, "ĠKub": 5105, "Ġmug": 5106, "ooyo": 5107, "ĠWaqooyi": 5108, "madii": 5109, "ĠMessi": 5110, "Ġhadh": 5111, "Ġgaw": 5112, "ĠAam": 5113, "Ġkhudbad": 5114, "agal": 5115, "ĠDa": 5116, "AND": 5117, "eisa": 5118, "iiro": 5119, "eela": 5120, "Ġraali": 5121, "ĠNoo": 5122, "Ġxam": 5123, "moo": 5124, "ĠMunaas": 5125, "ĠWeb": 5126, "Barnaamij": 5127, "Ġdhalay": 5128, "ĠBeelaha": 5129, "ĠGoogle": 5130, "Ġshaki": 5131, "she": 5132, "Ġogaado": 5133, "ĠMah": 5134, "badeed": 5135, "ĠMilan": 5136, "adoo": 5137, "kee": 5138, "Ġtokko": 5139, "Ġxukunka": 5140, "Ġxanuunka": 5141, "Kh": 5142, "Ġkubada": 5143, "Ġiskugu": 5144, "Ġbak": 5145, "ell": 5146, "ĠHas": 5147, "ĠWADDANI": 5148, "Ġfee": 5149, "Ġadeegga": 5150, "ling": 5151, "Wasaaradda": 5152, "\",": 5153, "Dagaal": 5154, "Ġheleen": 5155, "Ġceliyo": 5156, "Ġgaaban": 5157, "lac": 5158, "aysta": 5159, "Ġbiiray": 5160, "ĠShee": 5161, "Ġaqoonta": 5162, "Ġeey": 5163, "DHAGEYSO": 5164, "ĠSaddex": 5165, "neyd": 5166, "Ġtiir": 5167, "03": 5168, "Ġkoron": 5169, "ĠCodka": 5170, "ĠGudoomiye": 5171, "Ġkhib": 5172, "Ġkooxdiisa": 5173, "sadaha": 5174, "Ġguryaha": 5175, "ventus": 5176, "Ġbila": 5177, "Ġlabadii": 5178, "ĠMada": 5179, "ĠBalad": 5180, "ĠXaaf": 5181, "AAH": 5182, "use": 5183, "ĠGoboleedka": 5184, "Ġxirfad": 5185, "Urur": 5186, "keedu": 5187, "âĢ¦.": 5188, "inayaa": 5189, "ĠBarnaamijka": 5190, "ĠAfar": 5191, "tab": 5192, "aamada": 5193, "Ġ2008": 5194, "Ġujeeda": 5195, "ĠShirkadda": 5196, "ves": 5197, "ĠKoonfurta": 5198, "ky": 5199, "07": 5200, "ĠDD": 5201, "dheere": 5202, "Ġrajo": 5203, "Ġdalx": 5204, "Ġjac": 5205, "oodka": 5206, "Su": 5207, "Ġhanjab": 5208, "Ġlaheyn": 5209, "obile": 5210, "linyaro": 5211, "ĠDii": 5212, "ĠDawlad": 5213, "ja": 5214, "06": 5215, "rea": 5216, "muud": 5217, "her": 5218, "kaad": 5219, "Ġniyad": 5220, "Ġarrintaas": 5221, "Ġqurx": 5222, "ĠQaab": 5223, "ĠCiidan": 5224, "Ġwadajir": 5225, "Ġdhaco": 5226, "ĠMat": 5227, "ĠInta": 5228, "Ġxasuus": 5229, "Ġkon": 5230, "aarida": 5231, "Cali": 5232, "aati": 5233, "ĠWareeg": 5234, "Ġqabtaan": 5235, "Ġxula": 5236, "ĠIngiriis": 5237, "ĠSAWIR": 5238, "led": 5239, "Ġfaraha": 5240, "Ġqanc": 5241, "ĠCusmaan": 5242, "nimadii": 5243, "ĠCaasimadda": 5244, "ĠDhuusamareeb": 5245, "Waf": 5246, "Ġmaxkamad": 5247, "Ġarrinta": 5248, "ign": 5249, "Ġbooqasho": 5250, "eylka": 5251, "ari": 5252, "Ġhorjeeda": 5253, "Ġdareem": 5254, "Ġdalab": 5255, "Ġdusha": 5256, "ĠSidaas": 5257, "ooti": 5258, "ĠGalgaduud": 5259, "Ġpost": 5260, "usuf": 5261, "tinue": 5262, "Ġmasuuliyiin": 5263, "ĠBritain": 5264, "idaamka": 5265, "Ġqol": 5266, "waxa": 5267, "ooshin": 5268, "ĠJoog": 5269, "Ġdhibaatooyin": 5270, "outh": 5271, "Ġdaqiiqo": 5272, "alim": 5273, "EEN": 5274, "ĠMuslimiinta": 5275, "ĠBen": 5276, "celin": 5277, "UD": 5278, "Ġbaadh": 5279, "Ġdaacad": 5280, "Ġmaxkamadda": 5281, "ØŃ": 5282, "ĠHorumarinta": 5283, "gadis": 5284, "eda": 5285, "tilmaa": 5286, "Ġbac": 5287, "Ġdhalin": 5288, "45": 5289, "Ġxusan": 5290, "dhexaad": 5291, "Sheekh": 5292, "ĠSOMAL": 5293, "Ġkaaga": 5294, "Ġreebo": 5295, "Ġgooni": 5296, "Ġool": 5297, "Ġgurig": 5298, "allin": 5299, "Ġsoomali": 5300, "Ġsocdaal": 5301, "Ġyeroo": 5302, "ĠOr": 5303, "sp": 5304, "Ġdhawaad": 5305, "mp": 5306, "Ġganacsatada": 5307, "nee": 5308, "huu": 5309, "Waan": 5310, "Ġdhexmaray": 5311, "ica": 5312, "Ġfilayo": 5313, "Ġaqalka": 5314, "Ġtegay": 5315, "ogan": 5316, "eddex": 5317, "Ġsheegey": 5318, "IA": 5319, "Ġciyaaryahan": 5320, "Ġgalmada": 5321, "aynayo": 5322, "Ġ=": 5323, "Maanta": 5324, "Ġmarkiiba": 5325, "ĠErit": 5326, "adhiga": 5327, "oobey": 5328, "Ġkuugu": 5329, "ĠØ£": 5330, "Ġsahlan": 5331, "Ġasx": 5332, "ĠON": 5333, "Ġmacaan": 5334, "ĠSama": 5335, "Ġguusha": 5336, "Ġjiri": 5337, "Ġhaysto": 5338, "aso": 5339, "ull": 5340, "ĠMujaahid": 5341, "ĠAus": 5342, "Ġkee": 5343, "ĠSN": 5344, "iraan": 5345, "Ġiigu": 5346, "Ġdhiso": 5347, "UQ": 5348, "ric": 5349, "Ġ//": 5350, "Ġcansh": 5351, "Ġdhiga": 5352, "ĠHadal": 5353, "Ġ198": 5354, "Ġdollar": 5355, "Ġdhacaya": 5356, "outi": 5357, "amaal": 5358, "ĠHowl": 5359, "mika": 5360, "ĠHot": 5361, "Ġtijaab": 5362, "ĠWay": 5363, "keedii": 5364, "gen": 5365, "aystaan": 5366, "ĠXoo": 5367, "Ġbaahida": 5368, "Ð»": 5369, "Ġwaxaanay": 5370, "Ġabaabul": 5371, "Saf": 5372, "ĠDhageyso": 5373, "ĠFil": 5374, "ubar": 5375, "ĠIGAD": 5376, "Ġweeye": 5377, "Ġfashil": 5378, "ĠSidaa": 5379, "Ġoggolaan": 5380, "ĠLoogu": 5381, "Ġkob": 5382, "Ġgad": 5383, "ĠWiil": 5384, "ÉĹo": 5385, "Ġcodka": 5386, "Ġcin": 5387, "ĠArag": 5388, "ĠLacag": 5389, "Ġlam": 5390, "Ġyeeray": 5391, "ĠTog": 5392, "riil": 5393, "Ġkay": 5394, "Ġbannaan": 5395, "national": 5396, "ĠBin": 5397, "Ġsababay": 5398, "ĠCiyaaraha": 5399, "Ġkooxo": 5400, "Ġjid": 5401, "Ġgaaf": 5402, "IIN": 5403, "Aq": 5404, "ĠSuuriya": 5405, "nagu": 5406, "llaahi": 5407, "Ġwakhtig": 5408, "ĠAt": 5409, "ĠXoogga": 5410, "Ġhayay": 5411, "Ġdhacda": 5412, "Ùģ": 5413, "ĠDaac": 5414, "Ġakhr": 5415, "Il": 5416, "Reply": 5417, "ĠWAA": 5418, "ĠBaas": 5419, "keenna": 5420, "Ġhorreysay": 5421, "mer": 5422, "Ġkaalin": 5423, "aaradda": 5424, "iyaasi": 5425, "Ġmacquul": 5426, "Ġbuuxa": 5427, "ĠWaj": 5428, "eat": 5429, "Ġisaanii": 5430, "itir": 5431, "ublish": 5432, "Ġbedde": 5433, "Ġgod": 5434, "imid": 5435, "urka": 5436, "Ġsafarka": 5437, "Ġriday": 5438, "Ġhai": 5439, "hoodle": 5440, "Ġsaxaafadda": 5441, "ola": 5442, "Ġcambaar": 5443, "ĠLiib": 5444, "Sal": 5445, "Soomaaliya": 5446, "EED": 5447, "ĠGen": 5448, "ĠTirsan": 5449, "EER": 5450, "Ġisticmaalay": 5451, "ĠCabdilaahi": 5452, "ĠCadde": 5453, "Ġdhimasho": 5454, "Ġaqoonsan": 5455, "untii": 5456, "naheedu": 5457, "ĠKam": 5458, "uudaan": 5459, "Ġcasriga": 5460, "Ġshisheeye": 5461, "isho": 5462, "siiyay": 5463, "Ġnabadda": 5464, "bahay": 5465, "ence": 5466, "02": 5467, "ĠEebe": 5468, "ayntii": 5469, "ze": 5470, "ube": 5471, "Ġxigtay": 5472, "Ġmarkaad": 5473, "Ġded": 5474, "Ġkow": 5475, "Ġmidab": 5476, "ĠTwitter": 5477, "Mo": 5478, "itaal": 5479, "ika": 5480, "kastoo": 5481, "Shar": 5482, "Ġciyaaro": 5483, "Ġindha": 5484, "35": 5485, "ĠFor": 5486, "Ġwafdi": 5487, "Ġmararka": 5488, "ĠAab": 5489, "Ġgabadha": 5490, "ĠSababta": 5491, "ĠAbwaan": 5492, "galo": 5493, "ĠKuwa": 5494, "ĠOk": 5495, "Car": 5496, "ĠSa": 5497, "chi": 5498, "Ġdagaa": 5499, "ĠHaween": 5500, "adeeda": 5501, "Ġfan": 5502, "ĠGer": 5503, "sade": 5504, "his": 5505, "ĠHol": 5506, "ĠDiinta": 5507, "ĠAll": 5508, "Ġcunto": 5509, "Ġmagaaladda": 5510, "ĠAj": 5511, "ĠDeeq": 5512, "ĠMic": 5513, "Ġtamar": 5514, "ĠSoomaalidu": 5515, "Ġpro": 5516, "Ġmarnaba": 5517, "04": 5518, "Ġsama": 5519, "iino": 5520, "ero": 5521, "Tani": 5522, "oosha": 5523, "ĠSuuqa": 5524, "Ġqalad": 5525, "ĠØ¹": 5526, "rii": 5527, "Ġoran": 5528, "Ġislaamka": 5529, "ashadii": 5530, "Dar": 5531, "Ġiyaguna": 5532, "ington": 5533, "Ġxaaladaha": 5534, "ĠMaxay": 5535, "Xafiiska": 5536, "far": 5537, "Ġmow": 5538, "Ġnab": 5539, "Ġafduub": 5540, "Ġmarna": 5541, "Ġdhibc": 5542, "onald": 5543, "Ġnatiijada": 5544, "Jan": 5545, "Ġyaan": 5546, "Ġfilim": 5547, "Ġxubnood": 5548, "aall": 5549, "ĠWarbixin": 5550, "Ġmasuuliyiinta": 5551, "Ġpuntland": 5552, "ĠIyadoo": 5553, "ĠMaalinta": 5554, "Iyadoo": 5555, "Ġgabagab": 5556, "Ġiftiinka": 5557, "ĠBy": 5558, "ĠDhal": 5559, "Ġnoolaa": 5560, "laalka": 5561, "ĠXoghayaha": 5562, "Ġsheegin": 5563, "eebaan": 5564, "Ñį": 5565, "Ġmuuqaalka": 5566, "Ġdhaawacmay": 5567, "EWS": 5568, "Ġtaaban": 5569, "ĠAas": 5570, "ĠGeer": 5571, "Ġxisaabta": 5572, "ea": 5573, "ĠSaac": 5574, "Ġlaaban": 5575, "AAS": 5576, "Ġnaag": 5577, "Ä±": 5578, "ĠAfgooye": 5579, "Ġdharka": 5580, "aysaan": 5581, "yn": 5582, "Ġbuk": 5583, "Ġtuh": 5584, "Ġnama": 5585, "giga": 5586, "Ġgurmad": 5587, "ĠFM": 5588, "Ġdabaal": 5589, "33": 5590, "ĠPM": 5591, "ĠIska": 5592, "Ġxayir": 5593, "Ġ..": 5594, "daar": 5595, "ĠQaaday": 5596, "Dr": 5597, "ope": 5598, "aaa": 5599, "ru": 5600, "Ġsann": 5601, "ial": 5602, "Sidee": 5603, "ĠApple": 5604, "Ġmuujiyay": 5605, "isom": 5606, "Ciyaar": 5607, "igga": 5608, "2013": 5609, "ms": 5610, "adani": 5611, "Ġaag": 5612, "ĠWaraabe": 5613, "Ġqaraxa": 5614, "pe": 5615, "Ġnaqshad": 5616, "gaadh": 5617, "Ġmidna": 5618, "ĠBra": 5619, "eysato": 5620, "Ġlaacib": 5621, "alis": 5622, "Ġsiman": 5623, "gudub": 5624, "ĠJubaland": 5625, "ily": 5626, "ĠEd": 5627, "Ġjirtaa": 5628, "Ġsin": 5629, "Ġtaliyaha": 5630, "ĠGroup": 5631, "Ġdhamaaday": 5632, "Ġfikr": 5633, "ĠMadaxa": 5634, "Ġfurmay": 5635, "Ġguuldar": 5636, "yaal": 5637, "Ġdee": 5638, "ĠGol": 5639, "Ġtoday": 5640, "DEG": 5641, "ĠUniver": 5642, "ps": 5643, "ĠGeed": 5644, "Ġmaalmaha": 5645, "Ġabaar": 5646, "ĠQM": 5647, "orts": 5648, "lag": 5649, "oomiyihii": 5650, "Ilaa": 5651, "Ġxumaan": 5652, "adihii": 5653, "Ġqaali": 5654, "ĠHargaysa": 5655, "eynin": 5656, "Ġxaflad": 5657, "Ġlaheyd": 5658, "akar": 5659, "Ġfic": 5660, "ĠMarkaas": 5661, "ĠKur": 5662, "Ġwaayeen": 5663, "aawe": 5664, "limaad": 5665, "Ġtageen": 5666, "ĠMun": 5667, "Ġdalku": 5668, "oore": 5669, "NN": 5670, "Ġdambeyntii": 5671, "Ġex": 5672, "Ġalaabta": 5673, "Ġ197": 5674, "ĠGabad": 5675, "ĠFaroole": 5676, "Ġcam": 5677, "Ġiskaga": 5678, "ĠGalay": 5679, "Ġjal": 5680, "ĠSomaali": 5681, "huun": 5682, "yaabaha": 5683, "Ġdheeri": 5684, "ĠAmmaanka": 5685, "Ġinuusan": 5686, "Ġkarno": 5687, "Ġadmin": 5688, "ĠBandhig": 5689, "LE": 5690, "neyn": 5691, "ĠDucaale": 5692, "Ġqandar": 5693, "Ġqoto": 5694, "wasaare": 5695, "Ġkhalad": 5696, "Ġumada": 5697, "Ġwala": 5698, "Ġsidee": 5699, "risti": 5700, "Ġcolaad": 5701, "ĠMP": 5702, "Ġjeedo": 5703, "Ġlaha": 5704, "unna": 5705, "dhi": 5706, "ĠHadda": 5707, "lic": 5708, "ĠSoomaaliga": 5709, "Ġilmaha": 5710, "Ġtoo": 5711, "Ġsoomaalida": 5712, "iti": 5713, "aaladaha": 5714, "ĠXilka": 5715, "ĠTahay": 5716, "Ġfalanq": 5717, "Ġwaafaqsan": 5718, "gadishu": 5719, "ĠSaraakiisha": 5720, "Ġwarbix": 5721, "ĠEngland": 5722, "Ġilaaliyo": 5723, "Ġhantida": 5724, "Ġarri": 5725, "Ġhid": 5726, "Ġfeder": 5727, "sanaya": 5728, "KAN": 5729, "Ġres": 5730, "Ġwii": 5731, "eria": 5732, "jirka": 5733, "Ġmaalmihii": 5734, "ĠState": 5735, "Ġtallaabo": 5736, "Ġweeraro": 5737, "Ġ{": 5738, "Ġhayaa": 5739, "Ġsheegi": 5740, "Ġgara": 5741, "Ġqaadaan": 5742, "ĠDiin": 5743, "ĠMaxkamada": 5744, "Ġshaqaale": 5745, "Ġtaasina": 5746, "iyaasha": 5747, "riin": 5748, "Ġwadooyinka": 5749, "ĠDagaalka": 5750, "baad": 5751, "ublished": 5752, "Ġnu": 5753, "Ġabuuray": 5754, "qaaday": 5755, "Ġwadahadal": 5756, "OW": 5757, "Ġnaxariistee": 5758, "hin": 5759, "sanayo": 5760, "gc": 5761, "Ġdaryeelka": 5762, "ĠHogg": 5763, "Ġjece": 5764, "ĠFili": 5765, "Ġdhima": 5766, "Ġyimaadaan": 5767, "Ġkhasaare": 5768, "Ġdoonayaa": 5769, "Ġwakiil": 5770, "ĠAhlu": 5771, "xigeen": 5772, "qif": 5773, "ĠXarakada": 5774, "ĠSub": 5775, "ĠÉĵ": 5776, "iyaadka": 5777, "Ġalla": 5778, "Ġshaaciyay": 5779, "Ġfool": 5780, "itti": 5781, "ĠØ¨": 5782, "Ġwh": 5783, "igjiga": 5784, "Ġfin": 5785, "Ġbartay": 5786, "Ġhayso": 5787, "Ġgalbeedka": 5788, "out": 5789, "Ġdhaqam": 5790, "No": 5791, "ĠYahay": 5792, "Xar": 5793, "Ġxaya": 5794, "giisa": 5795, "dam": 5796, "Ġdhacaan": 5797, "Gab": 5798, "ĠTig": 5799, "Ġyaryar": 5800, "iira": 5801, "Ġdakh": 5802, "Ġdhalan": 5803, "Ġwebsite": 5804, "Ġdun": 5805, "Ġmagaalad": 5806, "ĠGoobjoog": 5807, "Ġdibedda": 5808, "Ġceliyay": 5809, "ĠLam": 5810, "uman": 5811, "Ġcel": 5812, "imaad": 5813, "Ġnoqdeen": 5814, "KMG": 5815, "liso": 5816, "Wal": 5817, "gaden": 5818, "37": 5819, "olog": 5820, "Ġqad": 5821, "tari": 5822, "Hog": 5823, "Ġdalbaday": 5824, "ĠTaas": 5825, "Ġbiyya": 5826, "ĠFu": 5827, "Ġhana": 5828, "Ġtilmaam": 5829, "Ġdibad": 5830, "Ġdhamaystir": 5831, "marinta": 5832, "ĠJuventus": 5833, "Ġmacalin": 5834, "Ġsaacadood": 5835, "Ġmuuqan": 5836, "Ġsubax": 5837, "Ġwon": 5838, "Ġxaal": 5839, "Ġsarreeya": 5840, "ai": 5841, "Ġbadanaa": 5842, "ĠBiyaha": 5843, "47": 5844, "ĠBuur": 5845, "Guddiga": 5846, "ĠÙģ": 5847, "Ġciyaari": 5848, "xb": 5849, "aantii": 5850, "ĠDiir": 5851, "ĠWeyn": 5852, "aayada": 5853, "ĠGarsoor": 5854, "ĠVisits": 5855, "jka": 5856, "Ġqabatay": 5857, "Ġdigay": 5858, "eddel": 5859, "Ġdambeeya": 5860, "bab": 5861, "alast": 5862, "iiciga": 5863, "Am": 5864, "ĠCig": 5865, "Ġgasho": 5866, "ĠHees": 5867, "idu": 5868, "ĠYou": 5869, "Ġmila": 5870, "Akhriso": 5871, "Ġdhirta": 5872, "Ġhey": 5873, "ĠPro": 5874, "dhaw": 5875, "Ġluuq": 5876, "TO": 5877, "Ġadigoo": 5878, "Ġilaah": 5879, "iisaan": 5880, "ven": 5881, "dahay": 5882, "Ġsaamayn": 5883, "lion": 5884, "Ġbaabuur": 5885, "Ġayadoo": 5886, "Ġfasax": 5887, "Ġhuf": 5888, "ĠDuu": 5889, "Ġsharax": 5890, "Ġcalee": 5891, "Ġxarumaha": 5892, "Ġmashruuc": 5893, "ĠDil": 5894, "ĠSucuudiga": 5895, "ira": 5896, "Shaq": 5897, "Ġ*": 5898, "ĠYaasiin": 5899, "Ġxumo": 5900, "Ġnaan": 5901, "Ġxusuus": 5902, "aysatay": 5903, "Ġhadlaa": 5904, "FS": 5905, "daad": 5906, "Â«": 5907, "log": 5908, "Ġhave": 5909, "Ġshuruudaha": 5910, "Ġbulsho": 5911, "DH": 5912, "laj": 5913, "Ġbarak": 5914, "aynin": 5915, "Ġfulinta": 5916, "garad": 5917, "Caasimada": 5918, "Ġmaarmaan": 5919, "ĠKab": 5920, "good": 5921, "Ġfek": 5922, "Xid": 5923, "saxaafadeed": 5924, "virus": 5925, "Ġapp": 5926, "Ġhorreeyay": 5927, "Ġlamaan": 5928, "Ġkaashan": 5929, "SC": 5930, "Ġhadl": 5931, "Ġcirka": 5932, "saarka": 5933, "iba": 5934, "ĠSafiirka": 5935, "ler": 5936, "Ġkhas": 5937, "daasi": 5938, "Ġlooma": 5939, "ĠIsla": 5940, "dani": 5941, "Ġture": 5942, "iilay": 5943, "Con": 5944, "ĠHogaam": 5945, "eerr": 5946, "ll": 5947, "Ġbeeraha": 5948, "Ġheshiiskii": 5949, "ĠEn": 5950, "ĠIsw": 5951, "Ġcayaar": 5952, "els": 5953, "dhaaf": 5954, "Ġdagaalam": 5955, "Ġshak": 5956, "Ġtooska": 5957, "Ġaragto": 5958, "org": 5959, "Ġdhallinyarada": 5960, "ĠMusta": 5961, "Ġadeegsaday": 5962, "ĠWakiilada": 5963, "ĠCiraaq": 5964, "Ġarkaa": 5965, "Ġjoogtada": 5966, "siiyo": 5967, "Ġmiy": 5968, "ĠDiyaaradaha": 5969, "ĠSudan": 5970, "kara": 5971, "ÉĹe": 5972, "Ġkhus": 5973, "Ġjin": 5974, "xad": 5975, "Ġislaam": 5976, "ĠSuudaan": 5977, "eyntii": 5978, "ĠKoofur": 5979, "âĢĺ": 5980, "Ġmala": 5981, "Ġkhayr": 5982, "unka": 5983, "Ġtareenka": 5984, "ime": 5985, "kiina": 5986, "Ġnoocan": 5987, "Ġhala": 5988, "Ġnews": 5989, "rta": 5990, "ĠSawirada": 5991, "Ġamni": 5992, "ashington": 5993, "34": 5994, "ĠXalay": 5995, "Ġmagaciisa": 5996, "ĠKo": 5997, "Ġgalab": 5998, "rig": 5999, "Ġwajahan": 6000, "Ġerey": 6001, "Ġtaalla": 6002, "Ġgub": 6003, "ale": 6004, "ĠEl": 6005, "Ġbol": 6006, "eele": 6007, "Ġdhameystir": 6008, "Ġdum": 6009, "guur": 6010, "ĠMadaxwayne": 6011, "IB": 6012, "Ġceeb": 6013, "tiis": 6014, "Ġqos": 6015, "Ġjacayl": 6016, "era": 6017, "reen": 6018, "Ġgaadiid": 6019, "Ġki": 6020, "Ġkaf": 6021, "qi": 6022, "Ġwaxyeel": 6023, "teriga": 6024, "Ġjil": 6025, "ticmaa": 6026, "ĠSoomaaliland": 6027, "ĠHin": 6028, "ĠDhul": 6029, "Ġguddi": 6030, "Ġfadlan": 6031, "ĠÙĦ": 6032, "Ġsawirka": 6033, "Ġhorumarin": 6034, "Ġsidaan": 6035, "Ġbariga": 6036, "Ġqaybgalay": 6037, "ĠGuu": 6038, "39": 6039, "Xub": 6040, "Ðµ": 6041, "Ġaannu": 6042, "Ġasal": 6043, "Ġarga": 6044, "Ġisticmaala": 6045, "EYN": 6046, "owr": 6047, "ĠMadaxweynuhu": 6048, "aaliyadda": 6049, "lash": 6050, "Ġayaanu": 6051, "Ġgeysan": 6052, "Ġbalaadhan": 6053, "UZ": 6054, "ĠEed": 6055, "qad": 6056, "ayaga": 6057, "dhan": 6058, "Ġdaboo": 6059, "Dowlada": 6060, "Ġisha": 6061, "aadha": 6062, "Ġyeesho": 6063, "aasta": 6064, "eet": 6065, "aysteen": 6066, "eedii": 6067, "Ġcalan": 6068, "ĠKuur": 6069, "ĠShabeellaha": 6070, "Ġtaageeray": 6071, "buu": 6072, "Ġpe": 6073, "Ġsidaasi": 6074, "ĠSNM": 6075, "ĠHome": 6076, "Ġidaac": 6077, "Ġqala": 6078, "Ġxasuuq": 6079, "Ġfaahfaahin": 6080, "Ġqeybgalay": 6081, "Xasan": 6082, "ĠDaacish": 6083, "ther": 6084, "maar": 6085, "Sabab": 6086, "Ġdoolar": 6087, "Ġshirkada": 6088, "Ġafjar": 6089, "Ġfaahfaah": 6090, "Ġadigu": 6091, "ĠShaba": 6092, "Ġxisbi": 6093, "gga": 6094, "Tan": 6095, "ooska": 6096, "trali": 6097, "Ġmari": 6098, "doo": 6099, "bama": 6100, "ĠDhaqanka": 6101, "Ġdeeb": 6102, "ĠIstan": 6103, "Ġintaan": 6104, "ĠAbiy": 6105, "Ġalle": 6106, "Ġseex": 6107, "Ġne": 6108, "Munaas": 6109, "aaka": 6110, "Ġwe": 6111, "Ġdoorashadii": 6112, "ĠUgaas": 6113, "GU": 6114, "Ġdhamaadka": 6115, "Somalia": 6116, "Ġjiida": 6117, "Ġcaqabad": 6118, "Ġamray": 6119, "Ġbaraha": 6120, "muu": 6121, "SG": 6122, "Ġkastoo": 6123, "Ġbeegan": 6124, "Ġsalaysan": 6125, "EEY": 6126, "Ġwef": 6127, "iyadii": 6128, "ĠEST": 6129, "ĠHadii": 6130, "Door": 6131, "Ġtalaab": 6132, "Ġfariis": 6133, "ĠHAL": 6134, "ISA": 6135, "ĠQud": 6136, "SAN": 6137, "Ġwalx": 6138, "Ġkeessaa": 6139, "ĠQan": 6140, "Ġtartam": 6141, "tani": 6142, "ĠNas": 6143, "tive": 6144, "ĠGaraad": 6145, "Ġneef": 6146, "Ġreading": 6147, "Re": 6148, "Ġqaybo": 6149, "Ġdiidan": 6150, "Ġboqolkiiba": 6151, "ĠMaan": 6152, "iican": 6153, "maatay": 6154, "Ġmuujinaya": 6155, "Ġqaby": 6156, "Ġjilicsan": 6157, "dil": 6158, "ĠAllaah": 6159, "ĠXor": 6160, "Ġdaaq": 6161, "OS": 6162, "36": 6163, "ĠLooga": 6164, "Ġjiif": 6165, "Ġqabashada": 6166, "Ġbixiso": 6167, "meedka": 6168, "Ġtaala": 6169, "Ġirra": 6170, "Ġdacwad": 6171, "Ġodayaasha": 6172, "Ġfirfir": 6173, "Ġshah": 6174, "ĠJeed": 6175, "Ġwakhtiga": 6176, "eysteen": 6177, "ĠQax": 6178, "ĠCanada": 6179, "ĠSomalida": 6180, "Ġfa": 6181, "Dab": 6182, "Ġmushar": 6183, "Ġwaraaq": 6184, "Ġdhiibay": 6185, "Ġjeclaan": 6186, "Ġciidamad": 6187, "anaa": 6188, "ĠCagta": 6189, "Ġ09": 6190, "Ġrar": 6191, "Ġciyaartoyda": 6192, "Ġaqoonyahan": 6193, "jibouti": 6194, "Ġbary": 6195, "indows": 6196, "ĠSaam": 6197, "nii": 6198, "kala": 6199, "aayad": 6200, "Ġtak": 6201, "ĠXam": 6202, "Ġlaguu": 6203, "Ġcarab": 6204, "addiisa": 6205, "ĠCulus": 6206, "ilin": 6207, "ĠKuw": 6208, "Ġmuuqday": 6209, "ĠLu": 6210, "ĠLaascaanood": 6211, "eedyo": 6212, "Dhag": 6213, "Ġgabdhaha": 6214, "Ġyidhaah": 6215, "Ġyeeshaan": 6216, "Ġintooda": 6217, "Ġtol": 6218, "Ġinaanu": 6219, "AW": 6220, "Ġ08": 6221, "Ġkeenya": 6222, "badii": 6223, "madka": 6224, "ĠAmb": 6225, "ĠFrance": 6226, "Ġwarram": 6227, "ĠKulanka": 6228, "Ġxabsi": 6229, "Gal": 6230, "Ġmaxkamada": 6231, "Ġnabadgel": 6232, "Kulanka": 6233, "ĠCirro": 6234, "Ġlacagaha": 6235, "ade": 6236, "Ġraaciyay": 6237, "Ġniman": 6238, "saan": 6239, "ĠBashiir": 6240, "unn": 6241, "ĠJawaab": 6242, "bana": 6243, "Harg": 6244, "Ġagaasim": 6245, "Ġxoojin": 6246, "alastiin": 6247, "sashada": 6248, "ĠMaleesh": 6249, "Ġdaabacay": 6250, "Ġdhaweyn": 6251, "Ġsiiyaan": 6252, "aynaya": 6253, "38": 6254, "aahf": 6255, "jire": 6256, "Ġxiddig": 6257, "Ġisbada": 6258, "aysid": 6259, "ugh": 6260, "Ġdanta": 6261, "Ġwaxaanan": 6262, "ĠJSL": 6263, "Ġaadanaha": 6264, "Ġogeyn": 6265, "sigii": 6266, "Ġsaxaafada": 6267, "Ġjiran": 6268, "Ġmoot": 6269, "Ġdastuur": 6270, "ashar": 6271, "keyga": 6272, "ĠHirshabeelle": 6273, "ĠInternet": 6274, "Ġargagixisada": 6275, "-(": 6276, "ĠBuuhoodle": 6277, "Ġdareenka": 6278, "Ġsarkaal": 6279, "ashax": 6280, "hy": 6281, "ĠXer": 6282, "Ġnoogu": 6283, "wi": 6284, "ĠAbdul": 6285, "udio": 6286, "ago": 6287, "Xukuumadda": 6288, "aalaa": 6289, "Ġshaqsi": 6290, "HOL": 6291, "ĠTababar": 6292, "Ġst": 6293, "uro": 6294, "Ġ2007": 6295, "Ġcaad": 6296, "Ġgid": 6297, "ritten": 6298, "Ġshaasha": 6299, "toota": 6300, "Ġdagaalamay": 6301, "Ġsocdaalka": 6302, "2017": 6303, "ĠMaarso": 6304, "Ġilma": 6305, "ĠKeen": 6306, "Ġnac": 6307, "Ġix": 6308, "ĠDac": 6309, "Ġmaayo": 6310, "Ġbartamaha": 6311, "aagii": 6312, "diin": 6313, "rib": 6314, "umaa": 6315, "Ġdek": 6316, "erka": 6317, "neen": 6318, "Ġgudahood": 6319, "aalax": 6320, "Ġsababo": 6321, "âĨ": 6322, "tinimo": 6323, "ies": 6324, "ĠRabbiga": 6325, "Ġtidhi": 6326, "Ġmuuqato": 6327, "Ġumadda": 6328, "Ġlii": 6329, "casiis": 6330, "Ġmul": 6331, "ĠBrazil": 6332, "Ġcida": 6333, "Ġiyadoona": 6334, "ĠAA": 6335, "ĠCOVID": 6336, "tel": 6337, "CC": 6338, "ĠIL": 6339, "we": 6340, "Ġkari": 6341, "Ġquruxda": 6342, "yadda": 6343, "aanshaha": 6344, "shir": 6345, "ĠAmisom": 6346, "DIS": 6347, "Ġlaam": 6348, "Ġxaga": 6349, "Ġqeybaha": 6350, "vel": 6351, "Ġmuhii": 6352, "uld": 6353, "Ġrayidka": 6354, "sia": 6355, "Ġshabaab": 6356, "ĠHooy": 6357, "ĠVID": 6358, "Ġdaraas": 6359, "Ġwadata": 6360, "Ġwareegtay": 6361, "ĠAskari": 6362, "Ġxeebaha": 6363, "Ġburcad": 6364, "shaa": 6365, "Ġjoojiyo": 6366, "qan": 6367, "Ġururada": 6368, "Ġxasil": 6369, "Ġaqba": 6370, "Ġji": 6371, "ooshinka": 6372, "News": 6373, "mood": 6374, "ĠSaleebaan": 6375, "Ġkax": 6376, "Ġcadaalad": 6377, "Ġseddex": 6378, "bah": 6379, "Ġraacay": 6380, "Ġkaar": 6381, "Ġkit": 6382, "ĠWariye": 6383, "Ġbartilmaa": 6384, "Ġdoorto": 6385, "ĠXuquuq": 6386, "ĠYusuf": 6387, "Ġguulaystay": 6388, "Ġsiyaasiyiinta": 6389, "Ġsoftware": 6390, "Ġraash": 6391, "Ġtagaan": 6392, "Ġwaxqabadka": 6393, "toobar": 6394, "Ġtihiin": 6395, "Ġdhaadh": 6396, "ppe": 6397, "Tar": 6398, "ford": 6399, "Ġlaakin": 6400, "Na": 6401, "ĠGeelle": 6402, "Ġmaalmo": 6403, "ĠXili": 6404, "IT": 6405, "Qarax": 6406, "ĠAmer": 6407, "Ð°Ð": 6408, "ĠVIDEO": 6409, "aadii": 6410, "iintu": 6411, "ËĪ": 6412, "Ġmashruuca": 6413, "ass": 6414, "ĠXag": 6415, "ihin": 6416, "ðŁ": 6417, "ĠKula": 6418, "ĠIran": 6419, "Ġkalsooni": 6420, "Hadii": 6421, "ĠShalay": 6422, "ĠXal": 6423, "55": 6424, "AF": 6425, "iyan": 6426, "Ġahaantii": 6427, "Ġsomalia": 6428, "Ġmartay": 6429, "ĠDeni": 6430, "Ġham": 6431, "Ġdalkooda": 6432, "ĠDaa": 6433, "innes": 6434, "Ġhogaaminayo": 6435, "Ġwarqad": 6436, "ĠIsra": 6437, "ĠDFS": 6438, "ĠDDSI": 6439, "siyaad": 6440, "Ġkartid": 6441, "Ġwaanu": 6442, "Boo": 6443, "Ġdhimashada": 6444, "Ġdhihi": 6445, "Ġfarsamo": 6446, "eydka": 6447, "Ġisticmaal": 6448, "Ġdhakhso": 6449, "Ġdeegaano": 6450, "ron": 6451, "iyadeed": 6452, "door": 6453, "Ġmalee": 6454, "ĠCarr": 6455, "aajo": 6456, "Ġmuddada": 6457, "Ġisticmaalaa": 6458, "ĠFinland": 6459, "Ġsheeko": 6460, "OON": 6461, "ĠNEWS": 6462, "Dib": 6463, "gaal": 6464, "Ġ70": 6465, "Ġmuslimiinta": 6466, "Ġfiid": 6467, "Ñģ": 6468, "48": 6469, "vid": 6470, "Ġij": 6471, "Ġgudub": 6472, "Ġdaraadeed": 6473, "OA": 6474, "Ġogyahay": 6475, "ĠKhud": 6476, "ĠHotel": 6477, "ĠBe": 6478, "ĠKom": 6479, "yadu": 6480, "Ġmooy": 6481, "iday": 6482, "Ġagag": 6483, "Ġhubaal": 6484, "ladaha": 6485, "ÑĤ": 6486, "Ġmasaaj": 6487, "Ġgoos": 6488, "walba": 6489, "Ġtaqaan": 6490, "ĠHaddaba": 6491, "Ġour": 6492, "ideos": 6493, "ĠAfhayeenka": 6494, "umada": 6495, "ĠRes": 6496, "Ġmarar": 6497, "ĠMuhiim": 6498, "ĠCabdirashiid": 6499, "Ġley": 6500, "itor": 6501, "Eng": 6502, "ĠKen": 6503, "za": 6504, "Ġdhaab": 6505, "diisu": 6506, "ĠRamadaan": 6507, "ĠWaayo": 6508, "qor": 6509, "Ġ!": 6510, "31": 6511, "ĠHassan": 6512, "ĠUk": 6513, "ĠKhamiis": 6514, "Ġakhri": 6515, "ahab": 6516, "ĠJuun": 6517, "Ġinter": 6518, "ĠXubnaha": 6519, "ĠEritrea": 6520, "ĠDhamaan": 6521, "ico": 6522, "bannaan": 6523, "Ġsaakay": 6524, "Ġwaliin": 6525, "mat": 6526, "ĠDaaw": 6527, "ĠRabb": 6528, "Ġmagaala": 6529, "ĠMadaxweynihii": 6530, "Jaw": 6531, "ĠShaqada": 6532, "eest": 6533, "ĠSiyaasadda": 6534, "Er": 6535, "Ġkursiga": 6536, "Ġshidaalka": 6537, "Ġcaqli": 6538, "khtiyaar": 6539, "IGA": 6540, "Ġdanda": 6541, "Ġjedhan": 6542, "Ġyiraah": 6543, "ĠDifaac": 6544, "ust": 6545, "Ġbaxdo": 6546, "Ġfariin": 6547, "ĠAustrali": 6548, "Ġgebi": 6549, "Ġadkaa": 6550, "arag": 6551, "Goob": 6552, "Ġbood": 6553, "yaalka": 6554, "Ġbat": 6555, "ashooyin": 6556, "ĠMagaaladda": 6557, "kuur": 6558, "Ġwak": 6559, "Ġqeybo": 6560, "Waxaanu": 6561, "sar": 6562, "Ġkoonfurta": 6563, "Ġsaaraan": 6564, "Ġ07": 6565, "innesota": 6566, "Ġwaxtar": 6567, "ant": 6568, "Ġmaxaad": 6569, "ren": 6570, "ĠDonald": 6571, "ĠFir": 6572, "Ġsun": 6573, "Ġtik": 6574, "Ġhum": 6575, "Ġaaddan": 6576, "Ġlagala": 6577, "yadooda": 6578, "Ġdiyaarin": 6579, "Ġciq": 6580, "ĠXiis": 6581, "eysey": 6582, "Ġkhasaaraha": 6583, "By": 6584, "Ġxisbiyada": 6585, "ootay": 6586, "ĠMadaxwaynaha": 6587, "ĠGool": 6588, "Ġcash": 6589, "Boq": 6590, "ĠBaladweyne": 6591, "ĠJac": 6592, "daba": 6593, "ĠSy": 6594, "Ġmaro": 6595, "Ġ01": 6596, "ĠWargeyska": 6597, "Ġbuur": 6598, "ĠOdayaasha": 6599, "ambal": 6600, "Ġdhimatay": 6601, "ĠXildhibaano": 6602, "Ġqaan": 6603, "Ġmaxamed": 6604, "Ġwaar": 6605, "qaab": 6606, "ĠBalse": 6607, "ĠSaciid": 6608, "AANTA": 6609, "ĠBas": 6610, "ĠHam": 6611, "Ġayeey": 6612, "Ġdabiiciga": 6613, "Ġqulq": 6614, "Ġsalka": 6615, "Ġgaadhi": 6616, "Ġbish": 6617, "Ġhanti": 6618, "Ġxidhiidhka": 6619, "Ġbalaaran": 6620, "ĠWali": 6621, "ĠBoorama": 6622, "ĠShaac": 6623, "Ġkuman": 6624, "ahal": 6625, "Ġsareeya": 6626, "len": 6627, "Ġmasuuliy": 6628, "ĠSaax": 6629, "Ġtay": 6630, "Ġgabi": 6631, "shado": 6632, "ĠMida": 6633, "Ġbilaaban": 6634, "ummaan": 6635, "Ġxarun": 6636, "ĠAbu": 6637, "Ġdhe": 6638, "uusan": 6639, "uqul": 6640, "Ġqaadato": 6641, "Ġwo": 6642, "uubta": 6643, "Ġed": 6644, "ĠDhin": 6645, "ĠGoboleedyada": 6646, "Labada": 6647, "aasa": 6648, "ĠQadar": 6649, "Ġdoonnaa": 6650, "ĠAllaha": 6651, "imilada": 6652, "Ġgaadho": 6653, "ĠWaqooyiga": 6654, "eyay": 6655, "onavirus": 6656, "Ġxilligii": 6657, "ĠRuux": 6658, "ĠSidee": 6659, "ĠTelef": 6660, "Ġhojj": 6661, "qar": 6662, "ĠKhan": 6663, "ĠSaraakiil": 6664, "Dham": 6665, "duuc": 6666, "ubai": 6667, "Ġxaj": 6668, "Ġsaxeex": 6669, "Ġbirta": 6670, "Ùī": 6671, "Ġgalabta": 6672, "hayeen": 6673, "isla": 6674, "Ġhambaly": 6675, "Afhayeenka": 6676, "Ġtacsi": 6677, "tidii": 6678, "Maga": 6679, "Ban": 6680, "ĠDhismaha": 6681, "Ġcelinta": 6682, "Ġadduun": 6683, "eeysa": 6684, "ĠShire": 6685, "ĠDunida": 6686, "baax": 6687, "ADDA": 6688, "ĠNax": 6689, "ĠSawirro": 6690, "Ġmurug": 6691, "ĠPor": 6692, "rip": 6693, "ĠMour": 6694, "ĠBeledweyne": 6695, "ĠBooq": 6696, "hahar": 6697, "ital": 6698, "ĠIstanbul": 6699, "Ġtotal": 6700, "Ġiibsiga": 6701, "Ġwatay": 6702, "Ã¥": 6703, "Ġoff": 6704, "Ġdaayo": 6705, "Ġdugsiyada": 6706, "mir": 6707, "Ġhoggaanka": 6708, "addan": 6709, "ock": 6710, "eeshee": 6711, "iidh": 6712, "naq": 6713, "Ġdhawaaqday": 6714, "abadaha": 6715, "Ġqalb": 6716, "Ġuum": 6717, "Ġhorta": 6718, "Ġ06": 6719, "Ġwaddo": 6720, "aqiiq": 6721, "Ġfirfircoon": 6722, "Ġmahadceli": 6723, "ĠWarka": 6724, "Ġsaleysan": 6725, "ĠNab": 6726, "Ġgaariga": 6727, "ĠGac": 6728, "siyo": 6729, "Ġjaray": 6730, "esid": 6731, "Ġud": 6732, "Ġhowlgalka": 6733, "yee": 6734, "ĠMila": 6735, "Ġhelayo": 6736, "Ġhubiyo": 6737, "hayn": 6738, "Ġhirga": 6739, "Ġcali": 6740, "Ġimika": 6741, "dia": 6742, "lor": 6743, "Ġmagan": 6744, "Ġsiyaasiyiin": 6745, "iidada": 6746, "isal": 6747, "Ġwaqooyiga": 6748, "Video": 6749, "Ġgargaarka": 6750, "Ġsand": 6751, "ĠDaljir": 6752, "ĠKaga": 6753, "ĠBog": 6754, "ĠAF": 6755, "ĠIb": 6756, "Ġwiilka": 6757, "uto": 6758, "Ġdiyaarad": 6759, "ĠSouth": 6760, "Ĥ¬": 6761, "Ġaragtida": 6762, "apan": 6763, "iyaal": 6764, "eeysay": 6765, "waax": 6766, "Ġdhaawacmeen": 6767, "zer": 6768, "ĠHawl": 6769, "44": 6770, "ĠNolo": 6771, "lado": 6772, "Ġadeega": 6773, "tes": 6774, "Ġxadka": 6775, "Ġbani": 6776, "Ġfuro": 6777, "Diyaar": 6778, "Ġdalban": 6779, "ĠDam": 6780, "ixiinta": 6781, "Aw": 6782, "aafiic": 6783, "Ġjam": 6784, "aalli": 6785, "Ġgabadh": 6786, "iv": 6787, "Ġhaystaan": 6788, "Ġup": 6789, "Kenya": 6790, "Ġcim": 6791, "Ġtakha": 6792, "banaan": 6793, "MAAL": 6794, "ĠInternational": 6795, "Ġ80": 6796, "iimo": 6797, "Ġkusii": 6798, "More": 6799, "Ġ90": 6800, "Isku": 6801, "ĠQoys": 6802, "Ġ2022": 6803, "Ġdhexdhexaad": 6804, "Ġjib": 6805, "Mudane": 6806, "Ġadoo": 6807, "Ġdardar": 6808, "him": 6809, "meel": 6810, "Ġjecl": 6811, "?.": 6812, "ĠCabdis": 6813, "tten": 6814, "UQDIS": 6815, "mayaasha": 6816, "Ġxaqa": 6817, "ĠBooliiska": 6818, "Ġjeb": 6819, "Ġdhamaantood": 6820, "ĠCudur": 6821, "ĠShirkii": 6822, "Ġaamus": 6823, "Ġinagu": 6824, "con": 6825, "sity": 6826, "ĠTusaale": 6827, "ayr": 6828, "Ġtagi": 6829, "Ururka": 6830, "fo": 6831, "ĠMuq": 6832, "HAY": 6833, "Ġqars": 6834, "ĠDis": 6835, "Ġkooxood": 6836, "Waq": 6837, "Madaxweyn": 6838, "Ġfaham": 6839, "ĠParis": 6840, "adaada": 6841, "lomaas": 6842, "ney": 6843, "ĠMirror": 6844, "Ġsuurtagal": 6845, "Ġqash": 6846, "Mr": 6847, "ĠSharciga": 6848, "ĠBol": 6849, "ĠKac": 6850, "ĠJubba": 6851, "Ġmacnaheedu": 6852, "heen": 6853, "eeff": 6854, "Ġyimi": 6855, "Ġcalaamad": 6856, "Ġsaax": 6857, "ĠBu": 6858, "Ġbixisay": 6859, "Ġnot": 6860, "Ġgoobo": 6861, "kac": 6862, "ĠQaad": 6863, "Ġsharafta": 6864, "Ġqori": 6865, "ĠWas": 6866, "Ġintuu": 6867, "aashan": 6868, "Ġwaddooyinka": 6869, "ĠLug": 6870, "ĠDaar": 6871, "marin": 6872, "Barnaamijka": 6873, "Hab": 6874, "Ġkobc": 6875, "Maxay": 6876, "jii": 6877, "Ġkuxigeenka": 6878, "Ġyidhaahdo": 6879, "ĠCaawa": 6880, "ĠMinnesota": 6881, "giis": 6882, "ower": 6883, "ĠMourinho": 6884, "ĠXaqiiq": 6885, "Ġqiyaastii": 6886, "Ġkamida": 6887, "ĠFalastiin": 6888, "ĠXay": 6889, "Ġcaansan": 6890, "ĠÙĬ": 6891, "ĠSil": 6892, "has": 6893, "oosto": 6894, "daada": 6895, "ĠJamaal": 6896, "ria": 6897, "Ha": 6898, "Ġwaqtigii": 6899, "Ġisticmaalaan": 6900, "qal": 6901, "geliyo": 6902, "Ġsheekh": 6903, "shax": 6904, "ĠMeel": 6905, "Ġdowladaha": 6906, "BA": 6907, "Ġgabay": 6908, "uudda": 6909, "Ġmarxuum": 6910, "ĠKhasaar": 6911, "ĠHoos": 6912, "aynay": 6913, "Ø£": 6914, "Ġrunta": 6915, "taamaha": 6916, "kadaha": 6917, "ĠDjibouti": 6918, "Ġbara": 6919, "Guddoomiye": 6920, "ĠWararkii": 6921, "istaan": 6922, "Ġwareysi": 6923, "ĠAduunka": 6924, "ĠCaafimaad": 6925, "Ġbini": 6926, "aalihii": 6927, "ĠArgag": 6928, "ens": 6929, "ĠFaa": 6930, "ĠDilay": 6931, "Ġiskaashiga": 6932, "eykanka": 6933, "hey": 6934, "UUQ": 6935, "haya": 6936, "Ġshil": 6937, "ĠMor": 6938, "ĠAR": 6939, "ĠJohn": 6940, "Ġmarkaasna": 6941, "ĠWashington": 6942, "ÛĮ": 6943, "udha": 6944, "Ġwel": 6945, "ĠRay": 6946, "Ġgaystay": 6947, "ĠTogdheer": 6948, "Ġgaaraan": 6949, "áĮ": 6950, "Ġdaraj": 6951, "Ġguurka": 6952, "ĠMA": 6953, "nde": 6954, "Ġmustaqbal": 6955, "ĠÂ£": 6956, "aaraan": 6957, "Ġabaaraha": 6958, "ĠIib": 6959, "Ġwadi": 6960, "eestay": 6961, "KU": 6962, "ory": 6963, "Ġgaara": 6964, "ĠMasiix": 6965, "ĠBeer": 6966, "Ġxukumay": 6967, "Ġkulmaan": 6968, "siiyey": 6969, "ĠAlla": 6970, "2016": 6971, "abo": 6972, "CT": 6973, "cid": 6974, "2014": 6975, "Ġ35": 6976, "ĠAmaanka": 6977, "Ġall": 6978, "Ġisbedel": 6979, "yihii": 6980, "Ġmaqal": 6981, "ĠWindows": 6982, "Ġdalkiisa": 6983, "Ġxusid": 6984, "Ġbarnaamijyada": 6985, "ĠHargeisa": 6986, "Ġdabadeed": 6987, "UQDISHO": 6988, "Ġwajahay": 6989, "taad": 6990, "uusta": 6991, "Ġkujir": 6992, "Mud": 6993, "ĠSocda": 6994, "aata": 6995, "Ġdiiradda": 6996, "Ġwareegeen": 6997, "owday": 6998, "Ġmanta": 6999, "Ġgaarin": 7000, "Ġmush": 7001, "dooyin": 7002, "Ġdalkan": 7003, "res": 7004, "Ġgoolka": 7005, "eelada": 7006, "asa": 7007, "Ġaduun": 7008, "Ġxigta": 7009, "Ġsalaam": 7010, "Â·": 7011, "49": 7012, "ĠMidoobey": 7013, "noq": 7014, "ĠTah": 7015, "ins": 7016, "ĠAhaa": 7017, "uudi": 7018, "Ġdagan": 7019, "ĠSiyaasadeed": 7020, "ĠWakiil": 7021, "Ġinan": 7022, "Ġqanac": 7023, "Ġjidka": 7024, "ĠAS": 7025, "iss": 7026, "Ġarrintaasi": 7027, "eek": 7028, "Sidaas": 7029, "Ġxoolo": 7030, "ĠHawada": 7031, "Ġjih": 7032, "ĠGacanta": 7033, "haha": 7034, "ĠDheere": 7035, "Ġixtir": 7036, "ĠRabbi": 7037, "ĠLo": 7038, "Ġkulmeen": 7039, "Ġiibsan": 7040, "Muuq": 7041, "dogan": 7042, "Ġxeerka": 7043, "Ġqoro": 7044, "Ġkeena": 7045, "Ġdhaweeyey": 7046, "ĠNaf": 7047, "Ch": 7048, "karaq": 7049, "mooyin": 7050, "Ġmadaxweynuhu": 7051, "ĠShabeelaha": 7052, "ĠCid": 7053, "Ġlacago": 7054, "Ġwarka": 7055, "Ġter": 7056, "Ġhadba": 7057, "Ġyeel": 7058, "ĠIbrah": 7059, "eenada": 7060, "Ġgeeyay": 7061, "Ġqabsan": 7062, "car": 7063, "ĠYork": 7064, "Ġdoonayay": 7065, "Ġisticmaas": 7066, "ĠGoor": 7067, "Ġweydiiyay": 7068, "Ġele": 7069, "ĠOromiyaa": 7070, "Ġkhibrad": 7071, "ĠAyaan": 7072, "ĠBisha": 7073, "ĠDhii": 7074, "uth": 7075, "Ġwaqooyi": 7076, "ĠMak": 7077, "Kadib": 7078, "Ġguddoomiye": 7079, "Ġfree": 7080, "IYA": 7081, "Ġkalsoonida": 7082, "Ciidanka": 7083, "ĠNidaamka": 7084, "Ġisbitaalka": 7085, "Ġfarsamada": 7086, "Fad": 7087, "avid": 7088, "Weerar": 7089, "ĠDP": 7090, "Ġdega": 7091, "Wada": 7092, "eher": 7093, "anii": 7094, "Ġiiga": 7095, "ĠPoli": 7096, "ĠJanaayo": 7097, "Ġsaxiixay": 7098, "xaan": 7099, "ĠONLF": 7100, "Ġaar": 7101, "Bur": 7102, "ĠÂ«": 7103, "Ġsaddexda": 7104, "ĠObama": 7105, "Ġcilmiga": 7106, "Xisbiga": 7107, "siyad": 7108, "Ġdegmad": 7109, "ĠGalbeedka": 7110, "Ġhadlayey": 7111, "46": 7112, "Ġcap": 7113, "anaha": 7114, "Ġ196": 7115, "ĠSafar": 7116, "Ġikhtiyaar": 7117, "Ġsheegayo": 7118, "Ġbilaabeen": 7119, "buur": 7120, "danta": 7121, "Ġwajah": 7122, "Ġubax": 7123, "idan": 7124, "Ġfashi": 7125, "ĠMilyan": 7126, "ĠDhulka": 7127, "Wixii": 7128, "ĠIdaacadda": 7129, "ĠOs": 7130, "ĠRep": 7131, "Dag": 7132, "ĠMursal": 7133, "ĠLabo": 7134, "Ġdanaha": 7135, "Ġnoocyo": 7136, "Ġdimuq": 7137, "Ġsocdeen": 7138, "Ġraadinta": 7139, "DO": 7140, "ristiano": 7141, "haw": 7142, "ĠDiiriye": 7143, "ĠShacab": 7144, "Qayb": 7145, "Ġtooga": 7146, "Ġfag": 7147, "tus": 7148, "ĠTodob": 7149, "ĠBakool": 7150, "--": 7151, "Ġcuna": 7152, "ĠKoobka": 7153, "Ġwill": 7154, "Ġbandhigtay": 7155, "Ð³": 7156, "daro": 7157, "Ġilo": 7158, "aul": 7159, "Ġarrim": 7160, "Ġisaguna": 7161, "Ġnoqonaya": 7162, "Ġhadlaan": 7163, "oobi": 7164, "Ġdhigto": 7165, "ĠCun": 7166, "ĠDhalinyarada": 7167, "Ġtahriib": 7168, "Ġtaageersan": 7169, "Ġganaax": 7170, "aliya": 7171, "iisaa": 7172, "Ġtalaabo": 7173, "Ġmab": 7174, "Ġdhiska": 7175, "Gur": 7176, "miska": 7177, "Ġfuu": 7178, "Ġver": 7179, "Ġdaayay": 7180, "aaxda": 7181, "shadda": 7182, "Ġbeddel": 7183, "Ġcunt": 7184, "Ġahaana": 7185, "Ġmaxaab": 7186, "Ġsac": 7187, "baahin": 7188, "Ġfaahin": 7189, "Ġmeeshii": 7190, "ĠKit": 7191, "adde": 7192, "Arrin": 7193, "Ġjeceshahay": 7194, "Ġsuug": 7195, "Ġmarkasta": 7196, "Ġuur": 7197, "Ġhoreeyey": 7198, "ĠFeb": 7199, "top": 7200, "Ġdariiq": 7201, "aalay": 7202, "Ġwareejin": 7203, "Ġwej": 7204, "Ġbadal": 7205, "ĠAustralia": 7206, "kale": 7207, "Ġtamarta": 7208, "Ġmen": 7209, "ĠXoolaha": 7210, "Ġkoror": 7211, "Ġmaahan": 7212, "Ġqoon": 7213, "tif": 7214, "Ġimanaya": 7215, "ĠAada": 7216, "TE": 7217, "yed": 7218, "ĠXafiis": 7219, "ĠPak": 7220, "Ġhortago": 7221, "laam": 7222, "imco": 7223, "ĠAle": 7224, "Ġguuleysan": 7225, "Ġmadasha": 7226, "99": 7227, "Ġqaldan": 7228, "aashay": 7229, "ĠGe": 7230, "vic": 7231, "Ġqaw": 7232, "ĠRaad": 7233, "rim": 7234, "Ġafri": 7235, "MA": 7236, "Hoos": 7237, "Ġmee": 7238, "ĠXisbiyada": 7239, "ĠKasoo": 7240, "Ġhalista": 7241, "Ġunug": 7242, "Ġawoodi": 7243, "ĠRob": 7244, "Ã¼": 7245, "ugaal": 7246, "Ġwadahada": 7247, "ike": 7248, "ĠJubb": 7249, "Ġaasaasay": 7250, "Ġbixiya": 7251, "58": 7252, "Ġfuritaanka": 7253, "Ġamma": 7254, "Ġlabadaba": 7255, "ĠBeen": 7256, "Ġdigniin": 7257, "Ġbedelay": 7258, "ĠLabaad": 7259, "OOS": 7260, "Ġmudada": 7261, "Ġdiro": 7262, "Ġxaafadda": 7263, "ĠGabiley": 7264, "nan": 7265, "ateg": 7266, "ĠSamatar": 7267, "Ġxoojinta": 7268, "Ġdhuftay": 7269, "Ġdowladdu": 7270, "Ġqandaraas": 7271, "Ġmidig": 7272, "Published": 7273, "ĠBir": 7274, "ĠItoob": 7275, "ĠCabdillaahi": 7276, "Ġtirtir": 7277, "ĠNig": 7278, "Sidaa": 7279, "ĠSomaliyeed": 7280, "Ġqorsha": 7281, "Ġgalaya": 7282, "ĠLix": 7283, "Ġqaata": 7284, "ĠKun": 7285, "dama": 7286, "ĠGeneral": 7287, "Ġhadaba": 7288, "ĠAfka": 7289, "ĠDes": 7290, "uwaadin": 7291, "liinta": 7292, "ĠKir": 7293, "Hadda": 7294, "ĠCabdulle": 7295, "Ġcomputer": 7296, "Kha": 7297, "Ġgeysteen": 7298, "Ġxur": 7299, "tiib": 7300, "jidka": 7301, "ĠXigeenka": 7302, "iidooyinka": 7303, "Ġ(âŁ¨": 7304, "Mad": 7305, "ita": 7306, "ĠIsniin": 7307, "tinimada": 7308, "Ġmagalada": 7309, "mihii": 7310, "ĠJubbada": 7311, "Ġsameynta": 7312, "addaha": 7313, "Ġhagaag": 7314, "Ġbilaabi": 7315, "Ġdagaalada": 7316, "Ġogtahay": 7317, "Ġogaato": 7318, "ĠWadanka": 7319, "Ġhii": 7320, "Ġsaq": 7321, "ĠCabdulaahi": 7322, "ip": 7323, "ĠBel": 7324, "Ġ02": 7325, "Ġwarbixinta": 7326, "Ġgudbiyay": 7327, "Ġdirtay": 7328, "ĠXud": 7329, "ĠWat": 7330, "ĠIskaas": 7331, "Ġwaraab": 7332, "Ġdaar": 7333, "Ġmaj": 7334, "ĠOktoobar": 7335, "Ġhorj": 7336, "Ġadda": 7337, "ĠTim": 7338, "ĠDubai": 7339, "Balse": 7340, "Siyaas": 7341, "Ġxasan": 7342, "Gu": 7343, "ĠDhanka": 7344, "Ġkuwan": 7345, "Ġxeebta": 7346, "Ġshaqsiy": 7347, "Ġaragtid": 7348, "ĠCigaal": 7349, "aayaan": 7350, "Ġqasaar": 7351, "Ġdhammaantood": 7352, "Ġargagax": 7353, "ĠMagacaabay": 7354, "mis": 7355, "32": 7356, "Ã±": 7357, "ĠXiriirka": 7358, "ĠRaj": 7359, "Ġkast": 7360, "ĠLin": 7361, "Ġsocdaa": 7362, "many": 7363, "ces": 7364, "Ġcidna": 7365, "inayaan": 7366, "ĠDuqa": 7367, "Ġ05": 7368, "qq": 7369, "Ġmidnimada": 7370, "iile": 7371, "Ġaqbali": 7372, "Ġboqolaal": 7373, "Ġyeedhay": 7374, "bahan": 7375, "Ġhayey": 7376, "ĠNISA": 7377, "idi": 7378, "ĠKAL": 7379, "Ġweheli": 7380, "Ġ;": 7381, "Ġhawsha": 7382, "rans": 7383, "teena": 7384, "wuxuu": 7385, "ĠFree": 7386, "Ġgog": 7387, "ĠMucaaradka": 7388, "Ġmashiinka": 7389, "Ġged": 7390, "Ġsta": 7391, "Ġxerada": 7392, "ons": 7393, "ĠØ§ÙĦÙĦ": 7394, "IIR": 7395, "Ġbaro": 7396, "Ġinkasta": 7397, "Ġlahaan": 7398, "):-": 7399, "Ġxadgudub": 7400, "Ġxorr": 7401, "Ġwaaxda": 7402, "ĠBaa": 7403, "utub": 7404, "Ġxiliga": 7405, "ĠMAANTA": 7406, "Ø¬": 7407, "Ġfarabadan": 7408, "Ġtaf": 7409, "tics": 7410, "ire": 7411, "ĠBaxay": 7412, "Ġwaramay": 7413, "Ġgalka": 7414, "Ġtanaas": 7415, "Ġnoqotee": 7416, "eld": 7417, "sadaa": 7418, "ĠAmeer": 7419, "lif": 7420, "Ġsameysay": 7421, "Ġpoli": 7422, "ĠTukaraq": 7423, "Ġamaba": 7424, ".,": 7425, "tis": 7426, "ĠCabdal": 7427, "Ġsaameynta": 7428, "Ġkasii": 7429, "Ġaasaasiga": 7430, "ĠSala": 7431, "Ġhaka": 7432, "toon": 7433, "eessa": 7434, "ĠQabtay": 7435, "ser": 7436, "aallada": 7437, "mage": 7438, "Ġogaa": 7439, "Ġnad": 7440, "oobaha": 7441, "imadii": 7442, "ĠBaab": 7443, "Ġbooliiska": 7444, "ĠDhaawac": 7445, "tiyada": 7446, "ĠSirdoonka": 7447, "ĠTaariikhda": 7448, "vo": 7449, "stada": 7450, "Ġisagoona": 7451, "Ġhoraysay": 7452, "ĠAwood": 7453, "eysii": 7454, "Ġsheegan": 7455, "aagan": 7456, "Ġtaariikhdu": 7457, "ĠDhaqaalaha": 7458, "Ġyeelatay": 7459, "Ġdagaalanka": 7460, "udud": 7461, "Ġbaahanyahay": 7462, "iintii": 7463, "lax": 7464, "ĠBaaq": 7465, "adoodu": 7466, "Ġdhaxal": 7467, "Ġdhibcood": 7468, "Ġwakiilada": 7469, "Ġxaala": 7470, "Ġsamaysay": 7471, "Ġhooseeya": 7472, "ĠWixii": 7473, "cada": 7474, "Ġriy": 7475, "Ġaakh": 7476, "ĠCup": 7477, "qaadan": 7478, "ĠBeel": 7479, "Mur": 7480, "Ġdes": 7481, "link": 7482, "Ġqabu": 7483, "iirada": 7484, "mayaan": 7485, "ros": 7486, "HAL": 7487, "Ġhadlin": 7488, "Xil": 7489, "Ġwargeyska": 7490, "Ġabuuro": 7491, "adiis": 7492, "Ġqabanayo": 7493, "eyska": 7494, "ĠWeli": 7495, "eysid": 7496, "Ġarkeen": 7497, "Ġdegmo": 7498, "ASH": 7499, "ĠJapan": 7500, "ĠFan": 7501, "Ġbilaw": 7502, "Ġsiiso": 7503, "aladda": 7504, "Ġqaadista": 7505, "aawi": 7506, "ĠHabeen": 7507, "bin": 7508, "Ġarimo": 7509, "Xir": 7510, "ude": 7511, "Ġtaageerayaasha": 7512, "uuska": 7513, "atur": 7514, "aasho": 7515, "ĠXuku": 7516, "Ġmidkood": 7517, "Ġsameeyaa": 7518, "Ġdow": 7519, "badda": 7520, "qo": 7521, "Ġdambi": 7522, "ĠWac": 7523, "Ġaqoonsiga": 7524, "Ġuruur": 7525, "Ġadeegsado": 7526, "Ġognahay": 7527, "ĠXabsiga": 7528, "ĠAkhri": 7529, "CO": 7530, "ISO": 7531, "43": 7532, "telka": 7533, "ĠJose": 7534, "Dalka": 7535, "Ġbill": 7536, "ĠDhagax": 7537, "Ġ500": 7538, "Ġhareer": 7539, "ĠYaa": 7540, "ĠVOA": 7541, "Ġdagaalo": 7542, "Ġrabaan": 7543, "ĠRec": 7544, "ĠTaasi": 7545, "Ġfadhiis": 7546, "ĠIr": 7547, "Ġhis": 7548, "Ð´": 7549, "Ġberri": 7550, "Ġken": 7551, "Ġyurub": 7552, "Ġcasino": 7553, "oortiga": 7554, "Ġdagaalyahan": 7555, "Ġtimaado": 7556, "Ġqarsoon": 7557, "ĠRaysal": 7558, "Ġlaguma": 7559, "Ġdooda": 7560, "let": 7561, "haadada": 7562, "kariin": 7563, "Dec": 7564, "eyaal": 7565, "IV": 7566, "ĠIsbitaalka": 7567, "57": 7568, "Ġamb": 7569, "aayiin": 7570, "Had": 7571, "Ġjaamacadda": 7572, "Ġmashquul": 7573, "Ġsod": 7574, "Ġdhexdeeda": 7575, "eymo": 7576, "Dal": 7577, "ĠBaarlamanka": 7578, "ĠMiisaan": 7579, "Ġgeliyo": 7580, "ology": 7581, "Ġxagaaga": 7582, "Ġxabad": 7583, "ĠDhinaca": 7584, "Ġqabay": 7585, "ooma": 7586, "haada": 7587, "Ganac": 7588, "Ġbeegsaday": 7589, "Ġciid": 7590, "ena": 7591, "Ġwalxaha": 7592, "Ġlagaa": 7593, "Ġrayid": 7594, "Ġhadaan": 7595, "ond": 7596, "ĠSaalax": 7597, "Ġrabay": 7598, "ical": 7599, "Ġtoogtay": 7600, "Ġwarshad": 7601, "ĠIiraan": 7602, "Ġxaqiijiyey": 7603, "galeen": 7604, "red": 7605, "Ġmara": 7606, "Ġdari": 7607, "Ġsokeeye": 7608, "leey": 7609, "Ġek": 7610, "Ġsameyso": 7611, "ayda": 7612, "ladan": 7613, "ĠDhim": 7614, "kulka": 7615, "chuu": 7616, "Ġtuuray": 7617, "Ġagagaarka": 7618, "Ġdhaawaca": 7619, "Ġxaafada": 7620, "vern": 7621, "olis": 7622, "Ġsiisay": 7623, "ĠBuug": 7624, "Ġdhaxaysa": 7625, "Ġvs": 7626, "Ġkoon": 7627, "ie": 7628, "ĠCasino": 7629, "ĠAgaasim": 7630, "Ġfeker": 7631, "ĠAD": 7632, "atu": 7633, "ĠAk": 7634, "Ġdhigaya": 7635, "59": 7636, "Ġhoreeya": 7637, "Åĭ": 7638, "khtaar": 7639, "Ġberi": 7640, "Ñĥ": 7641, "Ġtob": 7642, "Ġbogag": 7643, "Ġshaacisay": 7644, "Ġtilmaan": 7645, "Ġgobal": 7646, "Ġxidiga": 7647, "Ġhalkaasoo": 7648, "ĠJigjiga": 7649, "eyey": 7650, "Ġfahan": 7651, "Ġsawirada": 7652, "ĠJira": 7653, "ĠHaa": 7654, "Ġ04": 7655, "Ġwaxaynu": 7656, "edn": 7657, "mmada": 7658, "aawan": 7659, "isaaq": 7660, "reeb": 7661, "Sep": 7662, "ĠArbac": 7663, "Ġ300": 7664, "ĠMagalada": 7665, "imic": 7666, "All": 7667, "Maalin": 7668, "Ġtod": 7669, "Ġxiisaha": 7670, "ople": 7671, "ĠSaaray": 7672, "Ġdaryeel": 7673, "oola": 7674, "yeey": 7675, "Ġ1991": 7676, "bil": 7677, "Ġfaraxsanahay": 7678, "ĠAhlus": 7679, "Ġiyadu": 7680, "obyo": 7681, "Ġshakhsi": 7682, "oobo": 7683, "ttenham": 7684, "ĠFanaan": 7685, "ĠArrin": 7686, "Ġshaaciyey": 7687, "Ġhadhay": 7688, "Ġarintaas": 7689, "Ġfak": 7690, "Ġciyaareedkan": 7691, "Rag": 7692, "ĠWak": 7693, "Ġtartiib": 7694, "ĠBaay": 7695, "eynayaan": 7696, "Ġasxaab": 7697, "2015": 7698, "TT": 7699, "Ġcomment": 7700, "Ġdhigaan": 7701, "ĠIsrael": 7702, "isha": 7703, "mation": 7704, "Inkastoo": 7705, "Ġqada": 7706, "eeyso": 7707, "ights": 7708, "Ġhubaysan": 7709, "Ġsababtay": 7710, "Ġfaq": 7711, "ĠAbdir": 7712, "ĠWanaag": 7713, "ÉĹi": 7714, "Ġbadbaadin": 7715, "ĠWa": 7716, "yoo": 7717, "gaaga": 7718, "ttii": 7719, "ĠFas": 7720, "dhaan": 7721, "Ġgeeyo": 7722, "Ġhawlgal": 7723, "aysato": 7724, "Ġqasab": 7725, "ĠMadasha": 7726, "Ġmuujiyey": 7727, "Ġhambalyo": 7728, "Ġxambaar": 7729, "eeys": 7730, "Ġficil": 7731, "Ġdhakhtar": 7732, "nin": 7733, "Ġmon": 7734, "Ġjeedaa": 7735, "Ġbaabuurta": 7736, "esident": 7737, "ĠMaay": 7738, "Saraakiisha": 7739, "zan": 7740, "ick": 7741, "Ġbaaqday": 7742, "Ġxaaskiisa": 7743, "ĠMarwo": 7744, "Ġhili": 7745, "art": 7746, "darro": 7747, "Ġgaroon": 7748, "Ġerg": 7749, "ĠSarkaal": 7750, "Ġfalal": 7751, "ĠWest": 7752, "amuud": 7753, "aafad": 7754, "ĠDownload": 7755, "usoo": 7756, "ĠXaw": 7757, "Ġlaabto": 7758, "iiday": 7759, "ĠHe": 7760, "ĠArdayda": 7761, "Ġeedeeyey": 7762, "mee": 7763, "inay": 7764, "ĠHolland": 7765, "laysan": 7766, "sk": 7767, "Ġaga": 7768, "Ġinaanay": 7769, "Ġkulmi": 7770, "Qodob": 7771, "Ġbaaritaanka": 7772, "âĨĲ": 7773, "Ġkoor": 7774, "Ġseen": 7775, "Ġnew": 7776, "ĠMaj": 7777, "Ġdhaliyey": 7778, "Ġgeeska": 7779, "Ġhere": 7780, "Ġqolka": 7781, "Ġsil": 7782, "madan": 7783, "Ġjeclahay": 7784, "irada": 7785, "Ġmum": 7786, "ĠHel": 7787, "Ġxoogaa": 7788, "ĠDur": 7789, "Ġhim": 7790, "aatiirta": 7791, "ĠKooxaha": 7792, "Ġsaamaynta": 7793, "Ġmaah": 7794, "Ġnabada": 7795, "ĠMaamu": 7796, "ĠSano": 7797, "Ġhaysato": 7798, "ĠJec": 7799, "KHR": 7800, "Â»": 7801, "Ġfuliyay": 7802, "Ġqabato": 7803, "Ġdaawan": 7804, "walka": 7805, "miid": 7806, "Ġkkk": 7807, "ĠWritten": 7808, "Ġgadaal": 7809, "Ġbanaanka": 7810, "2019": 7811, "Ġsur": 7812, "den": 7813, "aagta": 7814, "uhur": 7815, "bu": 7816, "ĠQofka": 7817, "Ġsirdoonka": 7818, "ĠKenyatta": 7819, "Ġqortay": 7820, "mayo": 7821, "Ġdhiigga": 7822, "sday": 7823, "ĠKon": 7824, "Ġwareejiyay": 7825, "shiil": 7826, "Ġmat": 7827, "ashay": 7828, "Ġidil": 7829, "igana": 7830, "ĠBarlamaanka": 7831, "ĠAAD": 7832, "Ġsaxiixa": 7833, "ĠDhammaan": 7834, "cg": 7835, "ĠGuurtida": 7836, "ĠMushar": 7837, "Ġdaan": 7838, "ĠWaxaanu": 7839, "dana": 7840, "aabi": 7841, "CR": 7842, "Ġxilligan": 7843, "ĠIyada": 7844, "ĠHalka": 7845, "March": 7846, "Ġkomb": 7847, "Ġarrima": 7848, "Ġqarn": 7849, "buuc": 7850, "ĠArin": 7851, "Ġwarfaafinta": 7852, "UUR": 7853, "Ġdalkeena": 7854, "56": 7855, "Ġimtixaanka": 7856, "Ġeray": 7857, "Ġdhash": 7858, "Mash": 7859, "oodo": 7860, "Ġmusuqmaas": 7861, "kayaga": 7862, "ĠUniversity": 7863, "Ġhoggaaminayo": 7864, "ĠDo": 7865, "igooda": 7866, "ĠShaqo": 7867, "Ġ03": 7868, "SS": 7869, "Ġgarabka": 7870, "Ġgudiga": 7871, "ĠSocdaalka": 7872, "ĠMunich": 7873, "sin": 7874, "ĠJaaliyada": 7875, "lack": 7876, "Ġmuq": 7877, "Ġwaxgaradka": 7878, "Ġsannadkan": 7879, "ĠDanb": 7880, "CD": 7881, "yd": 7882, "Kuw": 7883, "Ġkoo": 7884, "che": 7885, "anada": 7886, "noolaj": 7887, "Ġmushaar": 7888, "Ġsomaliya": 7889, "Ġraga": 7890, "Ġbinu": 7891, "XOG": 7892, "ĠArab": 7893, "ĠCaan": 7894, "Ġgaliyay": 7895, "ĠDuq": 7896, "igaas": 7897, "ĠGod": 7898, "Dhib": 7899, "ĠIf": 7900, "Ø°": 7901, "Ġkulankan": 7902, "ĠMuxuu": 7903, "Ġhorreeya": 7904, "Ġfursado": 7905, "ĠXaaladda": 7906, "ĠCabdullahi": 7907, "Ġkorontada": 7908, "sur": 7909, "leyda": 7910, "ĠXidhii": 7911, "ĠEnglish": 7912, "Ġper": 7913, "ĠBeeraha": 7914, "Ġmaqnaa": 7915, "Ġri": 7916, "Ġguy": 7917, "list": 7918, "June": 7919, "ĠMaraykanku": 7920, "fadh": 7921, "ĠCeer": 7922, "Ġlaamaha": 7923, "Ġhadalkii": 7924, "ara": 7925, "Ġxiro": 7926, "Ġdeyn": 7927, "Ġhak": 7928, "Ġkheyr": 7929, "ĠMogadishu": 7930, "Ġbadalay": 7931, "Ġxali": 7932, "Ġdhexdooda": 7933, "eesta": 7934, "ĠRW": 7935, "Farmaajo": 7936, "att": 7937, "Ġsawiro": 7938, "undi": 7939, "Ġxaadir": 7940, "icha": 7941, "ĠFal": 7942, "ĠBoqortooyada": 7943, "Ġmushahar": 7944, "Ġcadaadis": 7945, "ĠSacad": 7946, "oonida": 7947, "Ġamaah": 7948, "Ġduruuf": 7949, "ĠXulka": 7950, "Ġfaro": 7951, "ĠDhan": 7952, "Ġbeesh": 7953, "port": 7954, "Ġxilsaar": 7955, "afta": 7956, "ĠPe": 7957, "cha": 7958, "ĠUD": 7959, "âĢĻâĢĻ": 7960, "ĠPlay": 7961, "eej": 7962, "niinta": 7963, "ednesday": 7964, "Ġqaadayo": 7965, "Ġdareemay": 7966, "ĠHur": 7967, "Ġaqal": 7968, "kaar": 7969, "Ġlagana": 7970, "ĠNugaal": 7971, "Ġcib": 7972, "Ġqodobo": 7973, "ĠWasiirkii": 7974, "ĠXaalada": 7975, "Taariikh": 7976, "Ġhelitaanka": 7977, "gobol": 7978, "Ġciidammada": 7979, "Ġuguna": 7980, "aaca": 7981, "Ġfanaan": 7982, "ĠKol": 7983, "eysiin": 7984, "por": 7985, "41": 7986, "ĠStar": 7987, "Ġwaxeey": 7988, "Ġdama": 7989, "Ġmaamulada": 7990, "ĠImtix": 7991, "Ġindho": 7992, "faa": 7993, "Ġliis": 7994, "Ġduulimaad": 7995, "Ġqaabilay": 7996, "Ġfahmi": 7997, "Ġcadow": 7998, "Ġwaxyaab": 7999, "Ġehel": 8000, "hoto": 8001, "Ġbuun": 8002, "Ġaaw": 8003, "Ġdoorka": 8004, "Ġwaddamada": 8005, "Ġwaxna": 8006, "joogta": 8007, "Ġtelefoonka": 8008, "Ġcabdi": 8009, "ionel": 8010, "inaa": 8011, "Ġtr": 8012, "dhibaanka": 8013, "Ġisweyd": 8014, "maray": 8015, "Wararkii": 8016, "Ġxiligii": 8017, "Ġkaba": 8018, "ĠMuddo": 8019, "ĠQalin": 8020, "Ġkenya": 8021, "Ġcodsi": 8022, "Ġcasri": 8023, "Ġmidda": 8024, "Ġsannadka": 8025, "ĠMAX": 8026, "Ġcisho": 8027, "Ġug": 8028, "Ġqaadashada": 8029, "Ġjad": 8030, "kaagu": 8031, "Ġshirar": 8032, "ĠHooyo": 8033, "ĠJama": 8034, "uxufiyiinta": 8035, "echn": 8036, "Tur": 8037, "Ġanigoo": 8038, "sis": 8039, "Ġiyag": 8040, "ĠDalx": 8041, "ĠKaa": 8042, "Aad": 8043, "Ġsaacado": 8044, "mana": 8045, "letic": 8046, "Ġdhisi": 8047, "Ġmuxuu": 8048, "Ġaman": 8049, "ĠVal": 8050, "aadaha": 8051, "Haween": 8052, "Ġraaxo": 8053, "Ġqanacsan": 8054, "arada": 8055, "Dawladda": 8056, "Ġweydiiyey": 8057, "Ġadeer": 8058, "Ġdegay": 8059, "tayaasha": 8060, "Ġdilo": 8061, "Ġgaal": 8062, "AHAY": 8063, "Ġson": 8064, "ĠDavid": 8065, "Ġbor": 8066, "ĠHawiye": 8067, "Ġbarashada": 8068, "delka": 8069, "jid": 8070, "Ġisticmaalaya": 8071, "Ġwalaalaha": 8072, "ĠBiyo": 8073, "ĠPakistan": 8074, "Ġhaba": 8075, "Ġdhuun": 8076, "ĠAskar": 8077, "Ġdadaalka": 8078, "ĠUkra": 8079, "igaabo": 8080, "Ġmux": 8081, "ixi": 8082, "Ġkowaad": 8083, "saha": 8084, "Ġayan": 8085, "ĠAdag": 8086, "ĠDenmark": 8087, "Ġdekedda": 8088, "Ġbaraar": 8089, "ency": 8090, "ĠHOR": 8091, "ĠErdogan": 8092, "54": 8093, "ĠCiid": 8094, "aalla": 8095, "reat": 8096, "Continue": 8097, "phiyaa": 8098, "ĠJaamacada": 8099, "gaasi": 8100, "ĠRed": 8101, "Ġkulamada": 8102, "fer": 8103, "ayse": 8104, "ĠOb": 8105, "ruuf": 8106, "ĠQaybta": 8107, "ishka": 8108, "Ġciyaaray": 8109, "ĠBa": 8110, "Ġbarakac": 8111, "teri": 8112, "Shacabka": 8113, "Ã¡": 8114, "Ġturjum": 8115, "Ġcelceli": 8116, "Ġfiidiyo": 8117, "ox": 8118, "Ġqarxay": 8119, "Ġsagaal": 8120, "Ġrogay": 8121, "ĠQu": 8122, "Ġgaashaan": 8123, "Ġshacbiga": 8124, "ĠPo": 8125, "Mal": 8126, "Ġwaali": 8127, "Ġqabow": 8128, "Ġsiduu": 8129, "iiri": 8130, "tur": 8131, "Dan": 8132, "Qeyb": 8133, "Agaasimaha": 8134, "uulyo": 8135, "Ġnooga": 8136, "mur": 8137, "Ġgawaarida": 8138, "summaa": 8139, "Ø§ÙĨ": 8140, "ati": 8141, "Ġgeliyay": 8142, "Ġsaarnaa": 8143, "Ġgor": 8144, "ĠOgaden": 8145, "ĠDeegaan": 8146, "Ġaanad": 8147, "Ġbaahsan": 8148, "iina": 8149, "ĠSiyaasada": 8150, "tory": 8151, "qada": 8152, "aasiga": 8153, "Ġbixisaa": 8154, "Ġhadduu": 8155, "Ġkhatarta": 8156, "III": 8157, "ĠWasiiro": 8158, "aamiyaha": 8159, "ĠFederalka": 8160, "Ġkabadan": 8161, "Ah": 8162, "Manchester": 8163, "ardi": 8164, "OOR": 8165, "ĠJib": 8166, "ĠMili": 8167, "ĠCayn": 8168, "Ġsheg": 8169, "Ġcaawiyo": 8170, "ĠXeerka": 8171, "iiru": 8172, "sadey": 8173, "ese": 8174, "ĠDHAGEYSO": 8175, "Ġudha": 8176, "ĠTele": 8177, "July": 8178, "Ġhoost": 8179, "Ġfaan": 8180, "ADII": 8181, "Ġraba": 8182, "yarta": 8183, "tuna": 8184, "Ġqarxa": 8185, "Hase": 8186, "maanad": 8187, "Ġdhalashada": 8188, "igeeda": 8189, "ĠMusic": 8190, "Ġlaysku": 8191, "dow": 8192, "qof": 8193, "goyska": 8194, "Ġdiri": 8195, "ech": 8196, "hursday": 8197, "Ġdooday": 8198, "Ġbartilmaameed": 8199, "Ġshuruuc": 8200, "Ġcaga": 8201, "ĠWer": 8202, "hadda": 8203, "Ġsheeka": 8204, "Ġhorjeedo": 8205, "ild": 8206, "ĠDugsiga": 8207, "Ġgel": 8208, "tamaha": 8209, "Ġarinta": 8210, "Ġbarto": 8211, "Ġbus": 8212, "Ġdadkaasi": 8213, "Ġdon": 8214, "Ġmuwaadiniinta": 8215, "ĠMe": 8216, "Ġxaaj": 8217, "Ġshaqaal": 8218, "lyw": 8219, "ĠYah": 8220, "ĠAna": 8221, "Ġdhaqdhaqaaqa": 8222, "amad": 8223, "Ġculimada": 8224, "Ġul": 8225, "ĠSannad": 8226, "Madaxda": 8227, "ĠHadaba": 8228, "ĠSHA": 8229, "Ġcidii": 8230, "ĠLED": 8231, "Ġhadalo": 8232, "Ġdhinacyo": 8233, "aasir": 8234, "Ġweey": 8235, "adiina": 8236, "Ġnafaq": 8237, "tiisii": 8238, "gr": 8239, "Ġehe": 8240, "Ġlabaatan": 8241, "ĠEurope": 8242, "sus": 8243, "Ġjechuun": 8244, "ĠDekedda": 8245, "Ġlaal": 8246, "ĠLiibiya": 8247, "Ġdeegaannada": 8248, "Anigu": 8249, "tooyadda": 8250, "Ġqarsoodi": 8251, "siis": 8252, "ĠTilmaa": 8253, "Ġgacmaha": 8254, "ĠUSA": 8255, "Ġkastaa": 8256, "ĠBoqol": 8257, "Ġxish": 8258, "Ġfursadaha": 8259, "sami": 8260, "Ġqub": 8261, "Ġbooska": 8262, "Ġshaqooyinka": 8263, "ister": 8264, "Ġjeclaa": 8265, "ĠØª": 8266, "Ġkhaldan": 8267, "ĠGermany": 8268, "Press": 8269, "aage": 8270, "Shirkadda": 8271, "Ġnec": 8272, "Ġxaafadaha": 8273, "aturday": 8274, "ĠShid": 8275, "January": 8276, "Ġwho": 8277, "Markaas": 8278, "Ġujeedada": 8279, "Xus": 8280, "Ġjo": 8281, "Ġwaxii": 8282, "Ġhoggaan": 8283, "Ġsaarto": 8284, "Ġxafiiskiisa": 8285, "Ġfiles": 8286, "Ġwalbo": 8287, "Ġser": 8288, "Ġmunaasib": 8289, "ĠBayern": 8290, "Ġmiiska": 8291, "Ġdhaawacay": 8292, "April": 8293, "ĠGudiga": 8294, "Ġhannaanka": 8295, "Qab": 8296, "Ġsababaha": 8297, "42": 8298, "Ġciyaareedka": 8299, "Ġkordhiyo": 8300, "eni": 8301, "ĠUr": 8302, "ĠQorsh": 8303, "iran": 8304, "Ġhalgan": 8305, "Ġmagacyada": 8306, "ĠIsaaq": 8307, "ebraayo": 8308, "Ġallah": 8309, "Ġdayay": 8310, "Ġmunaasabad": 8311, "yahooda": 8312, "Ġwaydiin": 8313, "uxurka": 8314, "aatka": 8315, "tiyeed": 8316, "ayaale": 8317, "jineer": 8318, "rinta": 8319, "Ġxalka": 8320, "ĠXubno": 8321, "eymaha": 8322, "ĠFik": 8323, "Ġdardaar": 8324, "Ġanaga": 8325, "Ġfilimka": 8326, "imaan": 8327, "Hesh": 8328, "Ġqabta": 8329, "aye": 8330, "ĠPSG": 8331, "Ġdabar": 8332, "EH": 8333, "uj": 8334, "radda": 8335, "Ġqaadin": 8336, "Muu": 8337, "digii": 8338, "Ġqabooj": 8339, "Ġlabadan": 8340, "Tababar": 8341, "Ġsaadaa": 8342, "Ġ...]": 8343, "ive": 8344, "guna": 8345, "Ġ45": 8346, "Ġahaado": 8347, "ĠIsk": 8348, "ĠDhax": 8349, "Ġdanbeeyey": 8350, "Ġbut": 8351, "Ġgooy": 8352, "February": 8353, "ĠComment": 8354, "ĠKoob": 8355, "Ġic": 8356, "Ġdhibka": 8357, "Ġroon": 8358, "Ġagaasimaha": 8359, "Ġjaceyl": 8360, "Ġhufan": 8361, "ĠMasuuliyiin": 8362, "tayda": 8363, "ĠBah": 8364, "Dhaq": 8365, "geeda": 8366, "Ġilmo": 8367, "Ġmuc": 8368, "Bul": 8369, "van": 8370, "Ġhedd": 8371, "haye": 8372, "Ġemail": 8373, "App": 8374, "Ġiskaashi": 8375, "amee": 8376, "idada": 8377, "ster": 8378, "akiin": 8379, "Ġjidhka": 8380, "Sax": 8381, "Ġahaato": 8382, "Ġhaday": 8383, "Ġhaddaan": 8384, "ings": 8385, "Ġdabka": 8386, "xo": 8387, "riday": 8388, "batay": 8389, "Ġbooda": 8390, "ny": 8391, "Ġxariiq": 8392, "Ġwaxbarasha": 8393, "ĠBlu": 8394, "balada": 8395, "waaqo": 8396, "VIDEO": 8397, "hadka": 8398, "ĠDollar": 8399, "ĠIsticmaa": 8400, "ĠWarshadaha": 8401, "ĠRasuul": 8402, "eymar": 8403, "Ġrumeysan": 8404, "Ġwadnaha": 8405, "ĠáĬ": 8406, "iyy": 8407, "Maxkamadda": 8408, "Oday": 8409, "ction": 8410, "Ġsic": 8411, "ĠHambal": 8412, "Ġtaga": 8413, "oonis": 8414, "aansaday": 8415, "Ġkuwaa": 8416, "Ġlugta": 8417, "shu": 8418, "__": 8419, "oomada": 8420, "ĠMaxkamad": 8421, "Ġummada": 8422, "Ġdhammaystir": 8423, "ĠJun": 8424, "Ġmadaxweynihii": 8425, "ĠTurkey": 8426, "Ġbillaab": 8427, "As": 8428, "Maal": 8429, "Ġkursi": 8430, "uss": 8431, "Ġsanadood": 8432, "ĠSch": 8433, "Ġ48": 8434, "Xildhibaanada": 8435, "cyada": 8436, "abuur": 8437, "Fil": 8438, "Ġge": 8439, "aadaama": 8440, "Ġdalxiis": 8441, "Ġmuujiyeen": 8442, "adkii": 8443, "CH": 8444, "Shee": 8445, "Ġhaystay": 8446, "iqi": 8447, "ĠTP": 8448, "Ġaasay": 8449, "Ġkm": 8450, "Ġasalka": 8451, "Ġheb": 8452, "Ġbaahna": 8453, "Ġfilaan": 8454, "77": 8455, "Ġhoreba": 8456, "Iyada": 8457, "Ġmuuqataa": 8458, "Cabdir": 8459, "Ġwakiilka": 8460, "ĠSugan": 8461, "eydii": 8462, "kul": 8463, "Ġwaxaase": 8464, "Ġmillion": 8465, "Ġyeelato": 8466, "ĠØ¥": 8467, "Ġxalaal": 8468, "Ġjaga": 8469, "Ġololaha": 8470, "Ġsharrax": 8471, "ĠHirshabelle": 8472, "Ġxilal": 8473, "Ġqaraxii": 8474, "quu": 8475, "ĠIsgaarsiinta": 8476, "Ġsiinayo": 8477, "DP": 8478, "eegan": 8479, "rashiid": 8480, "apolis": 8481, "???": 8482, "aakiibta": 8483, "Ġxasaasi": 8484, "Æ´": 8485, "Ġtaliy": 8486, "Ġaruur": 8487, "ĠCaruur": 8488, "iyihii": 8489, "ĠDumarka": 8490, "Ġdegen": 8491, "ahman": 8492, "Ġmusic": 8493, "qayb": 8494, "uga": 8495, "Ġxadd": 8496, "ĠCristiano": 8497, "aatiij": 8498, "ĠLacagta": 8499, "awal": 8500, "ĠDahab": 8501, "Ġaaney": 8502, "Aniga": 8503, "Ġfood": 8504, "ĠTor": 8505, "August": 8506, "ĠTottenham": 8507, "Ġjeeday": 8508, "Ġintay": 8509, "Ġnaadiga": 8510, "Ġbidix": 8511, "ĠAB": 8512, "Ġmadaxwaynaha": 8513, "Ġhadaad": 8514, "ĠDiray": 8515, "Ġtum": 8516, "Ġqodobada": 8517, "Ġxaqiiqda": 8518, "ĠTaliye": 8519, "ĠTurki": 8520, "ras": 8521, "Ġgeerida": 8522, "Ġxarunt": 8523, "Ġmashaariicda": 8524, "Ġisbeddel": 8525, "ĠBaarlamaan": 8526, "aanib": 8527, "ĠTabab": 8528, "Ġbulshadu": 8529, "ier": 8530, "igaasi": 8531, "ĠGaarka": 8532, "ĠOp": 8533, "Ġweynaa": 8534, "beeg": 8535, "jiraha": 8536, "ÙĬÙĨ": 8537, "ĠIskaashiga": 8538, "ĠDifaaca": 8539, "IDA": 8540, "Warka": 8541, "hka": 8542, "ublic": 8543, "ugta": 8544, "Ġdhisayo": 8545, "Yaa": 8546, "?âĢĿ": 8547, "dayda": 8548, "Ġtiirsan": 8549, "Ġmidowga": 8550, "Ġqurba": 8551, "Ġgoobjoog": 8552, "ĠJimcaha": 8553, "Ġnalalka": 8554, "ĠMAR": 8555, "Ġbaaha": 8556, "Ġqaadka": 8557, "Ġinsha": 8558, "Ġsameeya": 8559, "dooyinkii": 8560, "ĠNigeria": 8561, "ĠAC": 8562, "ĠHodan": 8563, "Ġsaid": 8564, "ĠUkraine": 8565, "''": 8566, "ĠCaj": 8567, "igaan": 8568, "ĠGalka": 8569, "ĠTv": 8570, "Ġmaaliyadda": 8571, "fal": 8572, "ĠHoryaalka": 8573, "ĠSim": 8574, "atti": 8575, "Ġhadday": 8576, "Ġdownload": 8577, "Ġgelinta": 8578, "ĠDadkii": 8579, "You": 8580, "eeray": 8581, "Ġdoontaan": 8582, "Ġhelaa": 8583, "main": 8584, "aqa": 8585, "Ġshaan": 8586, "ĠIndia": 8587, "ĠJamhuuriyada": 8588, "Noo": 8589, "toc": 8590, "Ġbilowga": 8591, "ĠDoono": 8592, "Ġxilkii": 8593, "Ġbaarlamaan": 8594, ".)": 8595, "IIS": 8596, "daama": 8597, "Ġqaaradda": 8598, "ĠLay": 8599, "kuw": 8600, "formation": 8601, "waynaha": 8602, "ĠGaari": 8603, "ĠIslaamiga": 8604, "Ġsafiirka": 8605, "Ġsideed": 8606, "Ġbaabi": 8607, "neapolis": 8608, "ĠSayid": 8609, "UUQAAL": 8610, "oonada": 8611, "Ġmaadama": 8612, "bed": 8613, "CA": 8614, "Ġduug": 8615, "Ġjedham": 8616, "Ġaroor": 8617, "ĠPaul": 8618, "Ġbarakacay": 8619, "Ġjaaliyada": 8620, "Ġfarta": 8621, "OOD": 8622, "sanayaan": 8623, "Halkaan": 8624, "edex": 8625, "Ġkiimi": 8626, "ĠWaana": 8627, "ĠIta": 8628, "ĠHobyo": 8629, "Ġinna": 8630, "Ġgurmadka": 8631, "waxay": 8632, "ĠJubbooyinka": 8633, "Ġsc": 8634, "Ġmagacaabi": 8635, "Ġseeg": 8636, "Ġcodsiga": 8637, "ĠHey": 8638, "Ġballaadhan": 8639, "Ġqaraxyo": 8640, "Ġdoonayso": 8641, "Ġshirkan": 8642, "Ġsaan": 8643, "ĠQoraal": 8644, "ĠErg": 8645, "Ġhojii": 8646, "Ġwareegga": 8647, "Ġilm": 8648, "Ġkiiska": 8649, "tiyo": 8650, "Ġleex": 8651, "ave": 8652, "ĠSOOMAAL": 8653, "ĠEebbe": 8654, "Ġsiyaasi": 8655, "Ġbilyan": 8656, "ihiis": 8657, "Ġiibka": 8658, "gent": 8659, "Ġwaddada": 8660, "ĠMaxaad": 8661, "ĠMed": 8662, "Ġhaysata": 8663, "huru": 8664, "Ġmak": 8665, "Ġistaagay": 8666, "ĠWan": 8667, "Ġdhiiga": 8668, "ĠXaj": 8669, "ĠShah": 8670, "Ġqaarna": 8671, "ĠSawiro": 8672, "Ġshab": 8673, "ĠQaxootiga": 8674, "iyadoo": 8675, "taagan": 8676, "Ġninkan": 8677, "Ġtegey": 8678, "yare": 8679, "Ġrumaysan": 8680, "ĠMahdi": 8681, "galinta": 8682, "Ġáĭ": 8683, "Ġqu": 8684, "ĠSports": 8685, "Ġastaamaha": 8686, "Ġitoobiya": 8687, "Ġkaam": 8688, "Ġbahda": 8689, "sare": 8690, "Ġiftii": 8691, "ĠMukhtaar": 8692, "owmiy": 8693, "hani": 8694, "afi": 8695, "ĠKhar": 8696, "oomin": 8697, "Ġbandhigi": 8698, "Ġshidaal": 8699, "Ġtoona": 8700, "Ġnaftaada": 8701, "Ġdaj": 8702, "Ġxawaaraha": 8703, "weynta": 8704, "Ġhelnay": 8705, "Ġtalooyin": 8706, "PR": 8707, "ĠNinka": 8708, "51": 8709, "iyoo": 8710, "âĢ¦âĢ¦âĢ¦âĢ¦": 8711, "Ġbulsh": 8712, "ĠDegmooyinka": 8713, "Fadlan": 8714, "Ġdheh": 8715, "xy": 8716, "Ġmooshin": 8717, "Ġmitir": 8718, "Ġkumanaan": 8719, "Ġqabsadeen": 8720, "ĠGanacsatada": 8721, "Ġkharashka": 8722, "ĠIbrahim": 8723, "Ġitt": 8724, "52": 8725, "uldaan": 8726, "ĠQas": 8727, "Ġqaabab": 8728, "Ġmaqaarka": 8729, "saanka": 8730, "ussia": 8731, "yr": 8732, "Ġdhiiri": 8733, "iyaam": 8734, "Ġjoogaa": 8735, "eessaa": 8736, "Ġtababare": 8737, "ĠSuper": 8738, "Ġjedhu": 8739, "ĠViews": 8740, "ĠCaq": 8741, "ĠChina": 8742, "qeyb": 8743, "Ġcasilay": 8744, "aadu": 8745, "Ġanna": 8746, "Ġraaco": 8747, "ĠQeybta": 8748, "dinta": 8749, "ĠWaaxda": 8750, "tihiin": 8751, "ĠNext": 8752, "iray": 8753, "Ġsheekada": 8754, "Ġrec": 8755, "Ġsiyaabo": 8756, "madow": 8757, "ĠGabar": 8758, "Ġ%": 8759, "Ġdeb": 8760, "Ġmadaxwayne": 8761, "ĠIsaga": 8762, "ADAN": 8763, "ect": 8764, "Ġhadla": 8765, "Ġhaddaba": 8766, "shaan": 8767, "ĠDadweynaha": 8768, "kuma": 8769, "ĠHanti": 8770, "eecad": 8771, ".(": 8772, "alaam": 8773, "Ġcor": 8774, "Ġdadweyne": 8775, "now": 8776, "iimka": 8777, "ress": 8778, "ĠAbaal": 8779, "Dhammaan": 8780, "Ġgudoomiye": 8781, "Ġdagaalla": 8782, "Ġdhir": 8783, "ĠRayaale": 8784, "ath": 8785, "Ġxiriirta": 8786, "ĠMobile": 8787, "oobaan": 8788, "Ġxann": 8789, "Ġharay": 8790, "Ġlugu": 8791, "ĠSiyaasi": 8792, "ĠMoham": 8793, "Ġcalanka": 8794, "ĠSaaxil": 8795, "Ġmacalim": 8796, "ĠHeshiiska": 8797, "aayadaha": 8798, "Ġdhaxeysa": 8799, "ĠAmar": 8800, "Ġsocotaa": 8801, "aro": 8802, "caa": 8803, "Ġciyaara": 8804, "ĠQuraanka": 8805, "=\"": 8806, "Ġqoysas": 8807, "yana": 8808, "Ġmaalmahan": 8809, "ĠSeb": 8810, "ĠGaw": 8811, "Ġhoreyn": 8812, "YL": 8813, "boo": 8814, "ĠOct": 8815, "ĠABO": 8816, "ĠMaxamud": 8817, "ĠGobollada": 8818, "ĠIllaa": 8819, "Dhamaan": 8820, "Ġqoysaska": 8821, "Ġwaxaannu": 8822, "ibaax": 8823, "Ġtabar": 8824, "Ġmaraya": 8825, "ĠKaahin": 8826, "yaqaan": 8827, "Dhagayso": 8828, "radii": 8829, "fii": 8830, "ved": 8831, "ADAX": 8832, "Ġgudboon": 8833, "aalle": 8834, "Ġineey": 8835, "Ġsannadood": 8836, "Ġdiideen": 8837, "gam": 8838, "Ġarintan": 8839, "aacay": 8840, "vernment": 8841, "Ġala": 8842, "Ġbaahi": 8843, "ĠIya": 8844, "Sp": 8845, "ĠWakiilka": 8846, "Ġhorreeyey": 8847, "Bis": 8848, "Ġxadh": 8849, "Ġfurtay": 8850, "Ġmaqaal": 8851, "aysii": 8852, "ulay": 8853, "Ġshabakada": 8854, "ĠQorshaha": 8855, "ĠWuxuuna": 8856, "Ġtagtay": 8857, "Ġwaramayaa": 8858, "eneraal": 8859, "ĠBili": 8860, "aatee": 8861, "ĠIna": 8862, "yadan": 8863, "Ġduqeyn": 8864, "maday": 8865, "eedda": 8866, "Ġnoolaan": 8867, "Ġfuliyeen": 8868, "ruucan": 8869, "ĠKuuriyada": 8870, "Ġsheegatay": 8871, "ĠQardho": 8872, "jeedka": 8873, "eya": 8874, "ĠSaxaafadda": 8875, "Hiiraan": 8876, "ĠHag": 8877, "Ġwarbaahin": 8878, "Ġ32": 8879, "ĠDah": 8880, "Ġmiisaanka": 8881, "Ġhogaan": 8882, "ĠSidii": 8883, "ĠComp": 8884, "Ġxaqiijiyeen": 8885, "Ġgant": 8886, "Ġmarki": 8887, "Ġmuuqdaan": 8888, "ĠGarg": 8889, "Ġsanadihii": 8890, "aatiir": 8891, "ĠCop": 8892, "liin": 8893, "October": 8894, "Ġabuurka": 8895, "ĠDastuur": 8896, "Ġafhayeenka": 8897, "ĠWakiillada": 8898, "alinta": 8899, "Ġayagoo": 8900, "ataan": 8901, "Ġet": 8902, "MS": 8903, "Ġwalaala": 8904, "Ġsamaysan": 8905, "Cod": 8906, "Ġmuuqatay": 8907, "Øµ": 8908, "Ġwag": 8909, "Ġmiyaa": 8910, "ĠBey": 8911, "To": 8912, "Ġgaarto": 8913, "Ġtaleefan": 8914, "kana": 8915, "Ġago": 8916, "ĠPer": 8917, "Ġmidoobay": 8918, "Ġob": 8919, "Ġheerarka": 8920, "ĠAug": 8921, "Shab": 8922, "Ġsix": 8923, "Ġheysa": 8924, "Ġweerarada": 8925, "Ġgoboleed": 8926, "Ġxayawaanka": 8927, "Ġfudu": 8928, "ĠYuh": 8929, "uut": 8930, "ĠSaldhig": 8931, "ĠFI": 8932, "Ġdakhliga": 8933, "ĠXooga": 8934, "INTA": 8935, "ĠLee": 8936, "ille": 8937, "Ġiskuul": 8938, "Taas": 8939, "tiijo": 8940, "Ġcabb": 8941, "inayay": 8942, "geliyay": 8943, "Ġhormuud": 8944, "ĠQoor": 8945, "Ġiskuulka": 8946, "enger": 8947, "galyo": 8948, "ĠHabar": 8949, "ĠMudan": 8950, "Ġmalaha": 8951, "ĠSoftware": 8952, "Ġisgaarsiinta": 8953, "pep": 8954, "ĠHeer": 8955, "Ġgudihiisa": 8956, "IID": 8957, "dur": 8958, "Ġtakhasus": 8959, "Ġogayn": 8960, "ĠYihiin": 8961, "Ġafarta": 8962, "ĠTaliska": 8963, "Ġwadaagaan": 8964, "ĠXuquuqda": 8965, "Ġ:-": 8966, "isey": 8967, "Ġdiblomaas": 8968, "bahaysiga": 8969, "oobeen": 8970, "ĠOgaadeen": 8971, "ker": 8972, "Ġjiritaanka": 8973, "Ciidamo": 8974, "Ġaragtay": 8975, "Ġbr": 8976, "lici": 8977, "Ġayada": 8978, "gui": 8979, "Beesha": 8980, "aasad": 8981, "Ġjoojiyay": 8982, "OOY": 8983, "ĠPage": 8984, "achuu": 8985, "Ġheshiisiinta": 8986, "IIX": 8987, "allim": 8988, "ĠWafdi": 8989, "Ġjeedaan": 8990, "ĠáĪ": 8991, "Ġwacy": 8992, "Ġmeer": 8993, "qaba": 8994, "Ġdadkaas": 8995, "mag": 8996, "ĠWe": 8997, "Ġ1960": 8998, "tiisu": 8999, "Ġmooyee": 9000, "LA": 9001, "Ġdhabar": 9002, "ĠAbriil": 9003, "ĠBaaqay": 9004, "ĠHorseed": 9005, "Ġfashilmay": 9006, "Ġarima": 9007, "aynaynaa": 9008, "Ġlaakiinse": 9009, "ters": 9010, "Ġqabsoomay": 9011, "ral": 9012, "ĠKana": 9013, "Ġamarka": 9014, "ĠSC": 9015, "ĠUGU": 9016, "Ġdhallinyaro": 9017, "Ġcimilada": 9018, "Ġbartaan": 9019, "Ġfalalka": 9020, "Ġfikrad": 9021, "aaha": 9022, "Ġhanaanka": 9023, "TI": 9024, "fin": 9025, "ĠSaacid": 9026, "ommun": 9027, "Ġher": 9028, "Ġdawladdu": 9029, "iici": 9030, "iisku": 9031, "Ġ36": 9032, "Ġqodobka": 9033, "km": 9034, "Ġjimic": 9035, "Ġdhamaatay": 9036, "ĠSunna": 9037, "ĠAN": 9038, "ĠAnigu": 9039, "Ġhubin": 9040, "Ġdhowaad": 9041, "ĠSoco": 9042, "Ġingir": 9043, "ez": 9044, "Ġkin": 9045, "ĠAnkara": 9046, "Ġkeyd": 9047, "Ġxuduud": 9048, "ĠBac": 9049, "Ġmudadii": 9050, "ĠBanaan": 9051, "amka": 9052, "ger": 9053, "uuban": 9054, "Ġxumaa": 9055, "idaam": 9056, "ĠLas": 9057, "Ġtuulada": 9058, "ĠGaal": 9059, "ds": 9060, "100": 9061, "yl": 9062, "Ġuurka": 9063, "ĠArgagix": 9064, "Laba": 9065, "Ġqaramada": 9066, "galaan": 9067, "ĠQay": 9068, "row": 9069, "ĠSte": 9070, "AYN": 9071, "ĠNolosha": 9072, "Ġsaacadaha": 9073, "ĠTop": 9074, "Hadalka": 9075, "Ġwareejiyo": 9076, "ĠGum": 9077, "Ġbakka": 9078, "Ġraacsan": 9079, "hana": 9080, "Ġciidda": 9081, "ĠNinkii": 9082, "Ġmaaliy": 9083, "Ġshabakadda": 9084, "Ġqabeen": 9085, "Ġsanadkaan": 9086, "Ġilaalada": 9087, "aahfaahin": 9088, "Ġpeople": 9089, "Ġmidabka": 9090, "Ġceliyey": 9091, "fay": 9092, "Ġdhalisay": 9093, "Ġansixiyay": 9094, "Ġummad": 9095, "Ġdiirada": 9096, "Ġisticmaasho": 9097, "UUD": 9098, "anayo": 9099, "onus": 9100, "ayniska": 9101, "ĠBurundi": 9102, "Ġmi": 9103, "Ġyara": 9104, "letico": 9105, "Ġkut": 9106, "Hadal": 9107, "Ġdhug": 9108, "ĠTer": 9109, "ĠMasuuliyiinta": 9110, "ĠNabi": 9111, "udi": 9112, "Ġbadana": 9113, "ĠKhilaafka": 9114, "ĠWadajir": 9115, "Ġ@": 9116, "Ġwariye": 9117, "layo": 9118, "amu": 9119, "ĠDalalka": 9120, "gali": 9121, "Ġjaa": 9122, "Ġsag": 9123, "antahay": 9124, "Ġgudbiyo": 9125, "Ġinaynu": 9126, "Ġmuranka": 9127, "ĠSO": 9128, "ĠWadada": 9129, "aaladii": 9130, "=âŁ¨": 9131, "Ġkil": 9132, "iyeed": 9133, "shar": 9134, "Ġciddii": 9135, "Ġxeerarka": 9136, "Ġwaawayn": 9137, "Ġaaday": 9138, "rop": 9139, "ĠWakh": 9140, "53": 9141, "Ġsuuqyada": 9142, "ĠTuu": 9143, "AE": 9144, "Ġheerkulka": 9145, "oodeen": 9146, "Ġ2006": 9147, "adir": 9148, "ĠArchi": 9149, "wadaag": 9150, "arget": 9151, "idadka": 9152, "Ġcaqabadaha": 9153, "Ġyah": 9154, "Ġbaahnaa": 9155, "ĠRasuulka": 9156, "able": 9157, "AAG": 9158, "Ġjaban": 9159, "ĠRiy": 9160, "ĠMarkaa": 9161, "Ġgurigiisa": 9162, "Ġrep": 9163, "Ġdejinta": 9164, "taana": 9165, "AGU": 9166, "ĠGala": 9167, "Tallaab": 9168, "td": 9169, "ĠQoyska": 9170, "ĠCaab": 9171, "ĠMashruuca": 9172, "antada": 9173, "ĠUmmadda": 9174, "ĠLiga": 9175, "mah": 9176, "Ġnoocaas": 9177, "aanaa": 9178, "xadda": 9179, "ĠKubadda": 9180, "Ġdambaysay": 9181, "Ġqabad": 9182, "Ġlamid": 9183, "ooto": 9184, "ĠMuwaadin": 9185, "ĠWaxyaabaha": 9186, "fac": 9187, "ĠLionel": 9188, "Ġhowsha": 9189, "ĠAfghan": 9190, "bahante": 9191, "ĠMagaca": 9192, "ĠOromo": 9193, "Ġfarag": 9194, "ĠQaabka": 9195, "Ġfudha": 9196, "Ġfaall": 9197, "Ġdhaawacyo": 9198, "Ġwajiga": 9199, "Ġyaq": 9200, "Ġgaarsiin": 9201, "qiga": 9202, "Ġtaagay": 9203, "Ġqabiilka": 9204, "qabat": 9205, "ĠGan": 9206, "Mareykanka": 9207, "Ġbaxsaday": 9208, "ĠYariis": 9209, "Ġhawlgalka": 9210, "ego": 9211, "ĠXisbi": 9212, "Ġbaal": 9213, "anahay": 9214, "Ġtokk": 9215, "ĠSharci": 9216, "December": 9217, "Wakii": 9218, "ĠHil": 9219, "Ġannaga": 9220, "ĠBurcad": 9221, "ĠXis": 9222, "Ġjeediyeen": 9223, "Ġbilaabatay": 9224, "Ġduubay": 9225, "ĠKomishanka": 9226, "Ġkhaas": 9227, "âŁ©.": 9228, "ĠGuddida": 9229, "Ġqorrax": 9230, "gashay": 9231, "Ġjacaylka": 9232, "Ġtasha": 9233, "On": 9234, "Ġbadalo": 9235, "enter": 9236, "ĠMasaaj": 9237, "sung": 9238, "Ġshii": 9239, "Tube": 9240, "ĠBorama": 9241, "Post": 9242, "Ġdhexdiisa": 9243, "ĠSuuq": 9244, "Ġtaagnaa": 9245, "80": 9246, "Ġraggii": 9247, "Ġcount": 9248, "Ġmucaarad": 9249, "markaas": 9250, "ajab": 9251, "Ġdhamaystiran": 9252, "Boqor": 9253, "Ġmaas": 9254, "adium": 9255, "ĠDibada": 9256, "ĠMusuq": 9257, "oqon": 9258, "Ġpo": 9259, "EEL": 9260, "Ġadkeeyay": 9261, "âĢ¦..": 9262, "hayd": 9263, "Ġshaqooyin": 9264, "Ġdhiirig": 9265, "Ġdambayn": 9266, "Ġxeel": 9267, "ĠAgoosto": 9268, "Ġcuno": 9269, "Ġhindis": 9270, "Ġnabadeed": 9271, "Ġsalaad": 9272, "geen": 9273, "Ġcadowga": 9274, "dhexe": 9275, "Ġ]": 9276, "inimo": 9277, "Ġshaashadda": 9278, "Aqoon": 9279, "ĠXaflad": 9280, "Ġdhacdooyinka": 9281, "Ġcaddaalad": 9282, "Ġcodsiyada": 9283, "ĠShirkada": 9284, "Ġnoqonayaa": 9285, "ET": 9286, "ĠUDUB": 9287, "ĠTirada": 9288, "ĠDuulista": 9289, "Ġahmiy": 9290, "ĠBangiga": 9291, "Ġkoobi": 9292, "Ġsaldhiga": 9293, "Ġcinwaan": 9294, "ĠQoray": 9295, "liyaa": 9296, "Ġmaamus": 9297, "ĠXilli": 9298, "Ġkooxdii": 9299, "Gudoomiye": 9300, "Ġgudbay": 9301, "Ġcaalamku": 9302, "Ġsec": 9303, "ĠCada": 9304, "Ġhadaf": 9305, "Ġintaba": 9306, "iinada": 9307, "Ġnololeed": 9308, "zerland": 9309, "Ġadeegsanayo": 9310, "dab": 9311, "Ġdheeli": 9312, "ttoo": 9313, "kis": 9314, "ĠAkhriso": 9315, "Maxaad": 9316, "Ġkhasaaro": 9317, "als": 9318, "Ġmadaama": 9319, "Ġkhubar": 9320, "oduc": 9321, "Baarlamaanka": 9322, "Ġgoy": 9323, "Ġmagaaladaasi": 9324, "Ġajn": 9325, "Ġja": 9326, "Ġeega": 9327, "Ġsoconaya": 9328, "Ġheysta": 9329, "ĠNabadda": 9330, "Ġtixgelin": 9331, "Ġbaaris": 9332, "onto": 9333, "Ġcalaamadaha": 9334, "Ġguulo": 9335, "ĠAkhris": 9336, "ĠRaage": 9337, "eeysan": 9338, "Ġgood": 9339, "haajir": 9340, "Ġdhabarka": 9341, "lick": 9342, "ĠSameeyay": 9343, "Ġgeliyey": 9344, "mayaa": 9345, "âŁ©)": 9346, "Ġyear": 9347, "Ġcararay": 9348, "gram": 9349, "radaha": 9350, "Guud": 9351, "Ġjah": 9352, "inni": 9353, "ĠGeeriy": 9354, "Ġqoor": 9355, "ĠCabdalla": 9356, "Ġastaan": 9357, "ĠSaaxiib": 9358, "ĠWanaagsan": 9359, "à¸": 9360, "WEYN": 9361, "ĠDhigay": 9362, "qabadka": 9363, "ĠLat": 9364, "Ġyareeyo": 9365, "eysiinta": 9366, "Ġilaal": 9367, "ĠJaaliyadda": 9368, "Ġxilligaas": 9369, "Kismaayo": 9370, "ony": 9371, "zi": 9372, "Ġlayaab": 9373, "Ġtilmaameen": 9374, "Ġbaay": 9375, "Ġdishay": 9376, "Ġwaax": 9377, "ogba": 9378, "ishinka": 9379, "Ġmahadcelin": 9380, "Ġtashan": 9381, "ĠAbshir": 9382, "September": 9383, "fad": 9384, "ĠMustafe": 9385, "essor": 9386, "ĠNe": 9387, "Ġshirkaasi": 9388, "alaha": 9389, "Gabad": 9390, "Ġduw": 9391, "tim": 9392, "Ġdugsi": 9393, "Ġxariir": 9394, "Ġqaadis": 9395, "Ġiimaan": 9396, "Dhac": 9397, "Ġbaadi": 9398, "dhin": 9399, "Ġdamac": 9400, "Ġfata": 9401, "Ġadkaan": 9402, "hop": 9403, "EB": 9404, "Ġshakhsiy": 9405, "Ġdubba": 9406, "Ġboolis": 9407, "Ġbadbaaday": 9408, "Ġmaha": 9409, "Ġilka": 9410, "AAF": 9411, "Ġshaacin": 9412, "Ġgeedka": 9413, "Ġaskarta": 9414, "ĠFebraayo": 9415, "Ber": 9416, "GO": 9417, "Ġsamaynta": 9418, "Ġqaxooti": 9419, "Ġkaan": 9420, "falka": 9421, "Ġciidamadii": 9422, "mbarka": 9423, "Ġshirarka": 9424, "ĠMaxamad": 9425, "baxay": 9426, "ĠDiiwaan": 9427, "Ġabwaan": 9428, "Ġsaldhigga": 9429, "ĠLahaa": 9430, "ÙĪØ§": 9431, "Ġxiddigaha": 9432, "Ġgarsoorka": 9433, "Ġsaarayo": 9434, "ĠDhar": 9435, "ĠGuriga": 9436, "Ġqura": 9437, "Cad": 9438, "Ġub": 9439, "dega": 9440, "ĠGarsoorka": 9441, "Ġshaqeeyay": 9442, "ĠUU": 9443, "Ġarintaasi": 9444, "tary": 9445, "Ġwaxaas": 9446, "Ġqoraa": 9447, "ĠShur": 9448, "Ġ00": 9449, "Ġtoogasho": 9450, "ĠDimuq": 9451, "ĠLuulyo": 9452, "TV": 9453, "November": 9454, "Ġwareegto": 9455, "Ġbaarista": 9456, "Ġalbaabka": 9457, "Kan": 9458, "ĠSah": 9459, "ĠCeerigaabo": 9460, "ĠSaabsan": 9461, "Ġgabdh": 9462, "Ġlaanta": 9463, "galyada": 9464, "ĠDuleedka": 9465, "Ġwarbixiyay": 9466, "ĠDhaqan": 9467, "egayso": 9468, "yaala": 9469, "Ġhaduu": 9470, "ĠIsagoo": 9471, "Ġdiyaariyay": 9472, "Ġsababa": 9473, "PS": 9474, "ĠDegaanka": 9475, "bid": 9476, "Kor": 9477, "ĠMinneapolis": 9478, "ning": 9479, "ĠLOO": 9480, "ĠSwit": 9481, "Ġerga": 9482, "ĠWadani": 9483, "Ġtig": 9484, "ĠKay": 9485, "Ġsaw": 9486, "Ġqarash": 9487, "Ġosoo": 9488, "Ġshanta": 9489, "fr": 9490, "Ġidiinku": 9491, "daharaad": 9492, "Ġtuka": 9493, "Ġlacageed": 9494, "Ġgobo": 9495, "baxa": 9496, "men": 9497, "Ġwafdiga": 9498, "Ġmacno": 9499, "Ġreg": 9500, "iibo": 9501, "Ġharsan": 9502, "Ġlax": 9503, "Ġolol": 9504, "ĠXad": 9505, "SHA": 9506, "Ġxambaarsan": 9507, "Ġce": 9508, "Ġxildhibaano": 9509, "ĠOf": 9510, "Ġgaliyo": 9511, "nn": 9512, "kun": 9513, "Ġgole": 9514, "uyuu": 9515, "Ġfarriin": 9516, "Ġsheegaan": 9517, "Hub": 9518, "duna": 9519, "Ġqaabkii": 9520, "aabayaasha": 9521, "aade": 9522, "aaheen": 9523, "hann": 9524, "Ġguryo": 9525, "imoq": 9526, "gur": 9527, "Ġdalkii": 9528, "ÙĪÙĨ": 9529, "Ġxasill": 9530, "Ġfikirka": 9531, "Ġiyagana": 9532, "Ġqaarada": 9533, "Ġwararku": 9534, "Ġindh": 9535, "somali": 9536, "ĠAniga": 9537, "Ġisbuuc": 9538, "Ġaur": 9539, "âĢĶâĢĶ": 9540, "Ġbogaad": 9541, "Ġdhalinta": 9542, "Ġdaafaca": 9543, "ju": 9544, "ĠUhuru": 9545, "Ġeegista": 9546, "ĠMod": 9547, "Ġiibiyo": 9548, "Ġkadha": 9549, "Ġhooyada": 9550, "Ġdawladaha": 9551, "urs": 9552, "Ġout": 9553, "ĠSafarka": 9554, "Ġdayactir": 9555, "Ġbey": 9556, "Ġsheegnay": 9557, "ĠFA": 9558, "Ġdilkii": 9559, "Ġbaarlamanka": 9560, "ĠMark": 9561, "Jo": 9562, "Ġkuur": 9563, "Ġdhaan": 9564, "Ġkuraasta": 9565, "Ġciyaaryahanka": 9566, "Ġhayeen": 9567, "Ġdahab": 9568, "ĠNeymar": 9569, "Ġjawi": 9570, "Ġdaaweynta": 9571, "uuliyadda": 9572, "Ġmootummaa": 9573, "Ġmor": 9574, "ĠTay": 9575, "ĠXiriir": 9576, "Ġdalxiiska": 9577, "com": 9578, "Ġjoogi": 9579, "Ġxiligan": 9580, "Ġaagga": 9581, "kaani": 9582, "ĠDub": 9583, "Ġiibin": 9584, "eyo": 9585, "oogaa": 9586, "Ġdartay": 9587, "Ġqudha": 9588, "Ġjeex": 9589, "aysiin": 9590, "Ġplay": 9591, "hum": 9592, "laal": 9593, "Ġ37": 9594, "dala": 9595, "aayadda": 9596, "ĠHadd": 9597, "Ġdabay": 9598, "Ġeegtay": 9599, "geliyey": 9600, "Ġmy": 9601, "aayaa": 9602, "Ġdambeysa": 9603, "ĠSin": 9604, "ls": 9605, "tical": 9606, "Ġxoghayaha": 9607, "Ġwaraysi": 9608, "Ġdhammaadka": 9609, "Ġahaaneed": 9610, "Ġtalinayaa": 9611, "ukaan": 9612, "Ġtuul": 9613, "Ġnaftiisa": 9614, "Ġsalaan": 9615, "Ġdabiici": 9616, "AYSO": 9617, "Ġmet": 9618, "ĠWaab": 9619, "ĠUcid": 9620, "Ġbishaan": 9621, "mii": 9622, "Ġbaahnayn": 9623, "doodu": 9624, "Saddex": 9625, "ĠQo": 9626, "ĠDu": 9627, "AAJ": 9628, "Sub": 9629, "Ġadeegyo": 9630, "aaman": 9631, "Muuse": 9632, "sat": 9633, "aadku": 9634, "Ġdurba": 9635, "Ġmuhim": 9636, "ĠCabdirisaaq": 9637, "iyi": 9638, "eedh": 9639, "Ġhortagga": 9640, "Ġhorkac": 9641, "Ġhagaajin": 9642, "iijka": 9643, "ner": 9644, "ĠAdan": 9645, "MUQDISHO": 9646, "ĠMuuqaalka": 9647, "Ġhu": 9648, "aashka": 9649, "Ġdhaqameed": 9650, "sit": 9651, "Ġyab": 9652, "Ġwakhtigii": 9653, "Bil": 9654, "Ġshuruud": 9655, "TAY": 9656, "ĠTPLF": 9657, "ĠIntaa": 9658, "Ġisbadal": 9659, "Ġxildhibaannada": 9660, "Ġdirayaa": 9661, "Ġmacallin": 9662, "Kar": 9663, "Ġgeeriyootay": 9664, "lat": 9665, "Aska": 9666, "ĠDalxiiska": 9667, "staan": 9668, "Ġnaftooda": 9669, "Qoraal": 9670, "GG": 9671, "Lac": 9672, "Ġargagixiso": 9673, "Ġcarabta": 9674, "Ġganacsig": 9675, "Ġabid": 9676, "Ġkacsan": 9677, "Ġmadaafiic": 9678, "Ġimtixaan": 9679, "ĠDood": 9680, "Ġcala": 9681, "Ġdadkan": 9682, "ĠQaraxii": 9683, "Shii": 9684, "Ġdooneyso": 9685, "aafka": 9686, "mey": 9687, "ĠMaaliyada": 9688, "Ġgudbi": 9689, "Ġduuf": 9690, "ĠUs": 9691, "ĠSoomaliyeed": 9692, "Ġbaaritaano": 9693, "Ġbillow": 9694, "ĠDagaalkii": 9695, "Hadd": 9696, "bii": 9697, "Ġmeher": 9698, "Ġwadaago": 9699, "ĠWaxayna": 9700, "lihiisa": 9701, "Ġwadeen": 9702, "gee": 9703, "ĠSaaka": 9704, "ĠNam": 9705, "Ġmarkab": 9706, "press": 9707, "Muxuu": 9708, "sum": 9709, "Ġmahadnaq": 9710, "Ġbeerta": 9711, "ĠBed": 9712, "Ġayaga": 9713, "Ġdhammaaday": 9714, "ĠGaashaandhigga": 9715, "max": 9716, "ĠAmerica": 9717, "oble": 9718, "Ġtheir": 9719, "aaww": 9720, "Ġmobile": 9721, "ĠBishii": 9722, "MI": 9723, "Ġmaay": 9724, "toyda": 9725, "Ġixtiraam": 9726, "yah": 9727, "Ġtaw": 9728, "zon": 9729, "Dagaalka": 9730, "Han": 9731, "Ġblog": 9732, "aabaa": 9733, "Ġdah": 9734, "ĠArgent": 9735, "ĠSec": 9736, "ĠFiqi": 9737, "ĠDuwan": 9738, "Ġraaxada": 9739, "kiilaha": 9740, "ĠCalan": 9741, "Ġmod": 9742, "ĠMise": 9743, "ĠBid": 9744, "ĠNabiga": 9745, "Ġig": 9746, "ĠKoowaad": 9747, "Ġdaha": 9748, "Xoghayaha": 9749, "Ġden": 9750, "ĠBat": 9751, "Ġgeedi": 9752, "Ġaqbalay": 9753, "Ġdilal": 9754, "Ġdhaxeeyay": 9755, "ĠAbuukar": 9756, "Ġkom": 9757, "Haa": 9758, "bee": 9759, "igaaga": 9760, "Lama": 9761, "ĠDary": 9762, "Ġraalli": 9763, "Ġbarb": 9764, "iisan": 9765, "ahaan": 9766, "Ġdarada": 9767, "Ġgudoon": 9768, "ĠSaldhiga": 9769, "ĠMacallin": 9770, "ĠJen": 9771, "Ġsameynayo": 9772, "Ġfuliyo": 9773, "Ġbaahiyaha": 9774, "Ġbedeli": 9775, "Ġaqoonsi": 9776, "Ġbeddelo": 9777, "umber": 9778, "ĠBalcad": 9779, "ĠBAR": 9780, "Ġlakiin": 9781, "Ġdhaadhic": 9782, "teelka": 9783, "Ġquu": 9784, "Ġsareysa": 9785, "ĠNov": 9786, "sen": 9787, "ĠHALKAN": 9788, "Ġgee": 9789, "dhigay": 9790, "Ġpre": 9791, "Ġharg": 9792, "ĠXukun": 9793, "aint": 9794, "Ġwasiirrada": 9795, "Ġxukuumaddu": 9796, "Ġbilaa": 9797, "Ġcadeeyay": 9798, "Tusaale": 9799, "MED": 9800, "Ġsomaliyeed": 9801, "Ġballaar": 9802, "ĠMul": 9803, "ladaas": 9804, "Ġbuugga": 9805, "ĠGam": 9806, "uuliyada": 9807, "hen": 9808, "ged": 9809, "Ġkall": 9810, "Ġykn": 9811, "Og": 9812, "Ġdano": 9813, "Ġbarbaar": 9814, "Ġcadda": 9815, "ĠØ±": 9816, "Ġnoqda": 9817, "Ġnuu": 9818, "Ġdejin": 9819, "Ġduf": 9820, "ĠSheegtay": 9821, "ĠBosaso": 9822, "wey": 9823, "Ġhaystaa": 9824, "ĠÉĵe": 9825, "lana": 9826, "ĠCudurka": 9827, "Ġbandhigeen": 9828, "Ġgeb": 9829, "Ġtarjum": 9830, "Ġsaarin": 9831, "tugal": 9832, "Ġkawada": 9833, "Ġusii": 9834, "Ġmareen": 9835, "aaraa": 9836, "Ġgoc": 9837, "Ġkeenaan": 9838, "Ġkuleylka": 9839, "ĠFarsam": 9840, "ĠSol": 9841, "Ġwaydiiyay": 9842, "Ġheysto": 9843, "biya": 9844, "Kal": 9845, "Ġlkn": 9846, "Ġcanshuur": 9847, "ĠMacluum": 9848, "ĠBus": 9849, "Ġcaawiyaan": 9850, "hoose": 9851, "ĠIP": 9852, "Ġdiyaaradda": 9853, "tom": 9854, "Ġwasiiro": 9855, "Bog": 9856, "Ġmaalgashiga": 9857, "ĠStadium": 9858, "Ġbeddeli": 9859, "Ġmowqif": 9860, "ĠAfghanistan": 9861, "Kala": 9862, "ĠAgency": 9863, "Ġxuska": 9864, "wanaag": 9865, "London": 9866, "atid": 9867, "Ġmuujisay": 9868, "uthor": 9869, "ĠQalab": 9870, "Ġilaaliyaan": 9871, "ganka": 9872, "Ġtuub": 9873, "Afri": 9874, "khtar": 9875, "Ġshirkado": 9876, "ruufka": 9877, "Ġhogaamiye": 9878, "Ġmaamuus": 9879, "luubta": 9880, "ĠGuardi": 9881, "araha": 9882, "Ġgaarey": 9883, "Sw": 9884, "Ġshahaadada": 9885, "Ġshuc": 9886, "Iyo": 9887, "Ġqolo": 9888, "dhaca": 9889, "Tr": 9890, "Ġvideos": 9891, "Ġhadlayaa": 9892, "qaada": 9893, "ĠCovid": 9894, "Ġbadeec": 9895, "ĠFAR": 9896, "Ġsamir": 9897, "ĠCabdiqaadir": 9898, "Ġ2000": 9899, "Ġro": 9900, "Ġrajeyn": 9901, "ĠIsu": 9902, "Ġabout": 9903, "mart": 9904, "wwan": 9905, "AYA": 9906, "ĠGeedi": 9907, "ĠGir": 9908, "Prof": 9909, "Ġsanado": 9910, "Ġshaqsiyaad": 9911, "Ġqus": 9912, "Isagoo": 9913, "Qur": 9914, "UK": 9915, "very": 9916, "hadlay": 9917, "Ġdiiran": 9918, "Ġmuj": 9919, "kaada": 9920, "Ġabuuri": 9921, "ĠIslam": 9922, "ĠAtletico": 9923, "Ġmartida": 9924, "ĠOro": 9925, "iyow": 9926, "ĠSaxiix": 9927, "ÅŁ": 9928, "ĠSwitzerland": 9929, "jira": 9930, "Musharax": 9931, "Ġhorkeen": 9932, "Ġhayb": 9933, "ĠHeli": 9934, "ĠSiyaasiyiinta": 9935, "Ġshaqadii": 9936, "aynayaan": 9937, "ĠWef": 9938, "ĠItoo": 9939, "Ġkarti": 9940, "ĠFadlan": 9941, "jeedada": 9942, "vv": 9943, "Ġolole": 9944, "Ġmarkh": 9945, "Ġhorumarineed": 9946, "Ġyaraa": 9947, "ĠNoqon": 9948, "ĠCaydiid": 9949, "LAND": 9950, "Ø®": 9951, "antay": 9952, "Ġbadankood": 9953, "Ġbukaan": 9954, "Ġfaahfaahsan": 9955, "Booliska": 9956, "Ġhantid": 9957, "ĠAbuur": 9958, "ĠMaka": 9959, "ĠXee": 9960, "Ġlaka": 9961, "ANKA": 9962, "Ġgam": 9963, "ĠQorshay": 9964, "ĠJooj": 9965, "Ġshaqeynta": 9966, "Ġhawsh": 9967, "Ġdhaleec": 9968, "eembar": 9969, "ĠDoo": 9970, "Ġmuujiyaan": 9971, "Ġmaxal": 9972, "Ġdheef": 9973, "ĠCr": 9974, "Ġdaawada": 9975, "cast": 9976, "alane": 9977, "Ð¹": 9978, "Ġraaciyey": 9979, "Ġqashinka": 9980, "Ġdhoweeyay": 9981, "Ġyahan": 9982, "idane": 9983, "elli": 9984, "ĠQaban": 9985, "Ġgaarsiiyay": 9986, "KHRISO": 9987, "Ġderiska": 9988, "Ġjimc": 9989, "Ġtodobaadkii": 9990, "Ġqabin": 9991, "ĠAc": 9992, "Ġyimaad": 9993, "Ġwalaalo": 9994, "Ġqabtaa": 9995, "Ġnaas": 9996, "Ġtuhun": 9997, "jeer": 9998, "ĠTareenka": 9999, "ĠTaleex": 10000, "ĠBoolis": 10001, "ĠMuum": 10002, "siisay": 10003, "Ġ150": 10004, "Ġthey": 10005, "Ġjoojinta": 10006, "2020": 10007, "Ġru": 10008, "Ġist": 10009, "ĠBaraawe": 10010, "!âĢĿ": 10011, "ĠEuro": 10012, "ĠAfrican": 10013, "ĠNaxariis": 10014, "Ġogaadaan": 10015, "iidhan": 10016, "Ġimaa": 10017, "Ġyaabay": 10018, "ĠKux": 10019, "Ġfuri": 10020, "Ġgob": 10021, "Ġdhaliilay": 10022, "Ġmamnuucay": 10023, "daw": 10024, "gium": 10025, "Ġhebel": 10026, "ihiisu": 10027, "Wiil": 10028, "lahaa": 10029, "Ġdhahay": 10030, "ĠWeerarkii": 10031, "ĠFaah": 10032, "ALKA": 10033, "atee": 10034, "ĠGaaray": 10035, "Ġraashin": 10036, "Ġhaweeney": 10037, "EM": 10038, "Ġlaayay": 10039, "Ġogolaaday": 10040, "ĠMaraykan": 10041, "uuna": 10042, "rif": 10043, "ĠMU": 10044, "ates": 10045, "EEG": 10046, "iyadu": 10047, "Ġover": 10048, "hai": 10049, "Ġ33": 10050, "eth": 10051, "Ġone": 10052, "Ġdhaqso": 10053, "Ġcarq": 10054, "Ġxamar": 10055, "Madaxwaynaha": 10056, "aalee": 10057, "Ġjaamacadaha": 10058, "ĠCawad": 10059, "galbeed": 10060, "aawiish": 10061, "OOG": 10062, "Ġakhriso": 10063, "ĠShabakada": 10064, "ĠNool": 10065, "ĠÃ±": 10066, "Ġmarwalba": 10067, "ĠGuddi": 10068, "Ġsugnaayeen": 10069, "crip": 10070, "shaxanka": 10071, "Ġqoond": 10072, "Ġrajeynayaa": 10073, "ĠPC": 10074, "IF": 10075, "Ġcadaadiska": 10076, "Ġfududahay": 10077, "Ġdoortaan": 10078, "Ġtaliska": 10079, "nab": 10080, "Ġuser": 10081, "Ġintiisa": 10082, "Ġhaddaad": 10083, "gooda": 10084, "Intaa": 10085, "isaan": 10086, "ĠTaf": 10087, "ĠJacay": 10088, "Ġgaruu": 10089, "Ġjawaabta": 10090, "Ġnuqul": 10091, "Ġshacabku": 10092, "ĠGO": 10093, "ĠQiimaha": 10094, "ĠRabbigu": 10095, "Ġnoqnoq": 10096, "Ġyaada": 10097, "tuun": 10098, "Ġaflag": 10099, "Ġadeegsanaya": 10100, "rog": 10101, "baco": 10102, "Ġbixiyeen": 10103, "ĠAnsix": 10104, "atey": 10105, "ĠDep": 10106, "ĠMustaq": 10107, "Ġhagaajinta": 10108, "urity": 10109, "Ġfanka": 10110, "Ġlaabtaan": 10111, "Ġtartamay": 10112, "ĠWasiirrada": 10113, "ĠMuxum": 10114, "Ġnabadgelyada": 10115, "Filed": 10116, "Ġbeeniyay": 10117, "Ġdheehan": 10118, "ĠCap": 10119, "Ġmunaasabadda": 10120, "imbir": 10121, "ĠMareykan": 10122, "ĠNabadsug": 10123, "toni": 10124, "Ġcaleemo": 10125, "faha": 10126, "Ġng": 10127, "pro": 10128, "int": 10129, "Akhri": 10130, "Ġqorsheysan": 10131, "'.": 10132, ");": 10133, "[/": 10134, "Ġubad": 10135, "Ġiftiin": 10136, "ĠAdmin": 10137, "Howl": 10138, "Ġmiyaan": 10139, "Ġtibaax": 10140, "media": 10141, "ĠâĤ¬": 10142, "Ġkunool": 10143, "Ġtaan": 10144, "ĠCulimada": 10145, "Ġdiley": 10146, "Ġsharciyada": 10147, "Ġtub": 10148, "aduba": 10149, "ĠCoronavirus": 10150, "ĠCaf": 10151, "ĠYouTube": 10152, "ĠCabdicasiis": 10153, "pa": 10154, "Ġdaahfur": 10155, "Ã§": 10156, "Ġversion": 10157, "aatiin": 10158, "uusa": 10159, "aydka": 10160, "shaxan": 10161, "Ġcaloosha": 10162, "lass": 10163, "intii": 10164, "Ġyaad": 10165, "Weli": 10166, "ĠKaro": 10167, "Ġneed": 10168, "axda": 10169, "adiid": 10170, "adeen": 10171, "Ġduqa": 10172, "ĠLaab": 10173, "Ġalaa": 10174, "IIL": 10175, "ĠQaatay": 10176, "lon": 10177, "Ġbayaan": 10178, "ĠCash": 10179, "Ġ2005": 10180, "Ġabuurtay": 10181, "Ġmaqnaan": 10182, "Ġqaybsan": 10183, "Ġjasiir": 10184, "isku": 10185, "ĠKulankii": 10186, "500": 10187, "ae": 10188, "uufi": 10189, "Ġsirta": 10190, "Ġquud": 10191, "Ġfac": 10192, "ĠHelay": 10193, "Ġnj": 10194, "ĠJim": 10195, "ĠWaad": 10196, "Waad": 10197, "sti": 10198, "nam": 10199, "ĠOlo": 10200, "Ġyidhaa": 10201, "Ġdabeec": 10202, "ĠBaashe": 10203, "Ġdhigayo": 10204, "ĠDaily": 10205, "IO": 10206, "tac": 10207, "Ġasagoo": 10208, "Ġdhej": 10209, "Ġdeke": 10210, "ĠShabelle": 10211, "ĠMos": 10212, "wareer": 10213, "EC": 10214, "po": 10215, "Ġmaamulo": 10216, "áĬķ": 10217, "Ġdayn": 10218, "Ġshuruucda": 10219, "Ġtuug": 10220, "ĠDowladaha": 10221, "Ø´": 10222, "Ġsaxaf": 10223, "Ġhogaamiyaha": 10224, "ĠHus": 10225, "Ġ400": 10226, "ĠNoqo": 10227, "aadam": 10228, "echnology": 10229, "Ġsiiyaa": 10230, "Ġmuuqdo": 10231, "Ġwateen": 10232, "stem": 10233, "',": 10234, "uxul": 10235, "Ġiibsaday": 10236, "ĠJames": 10237, "keenu": 10238, "ĠTh": 10239, "Ġmacnaha": 10240, "Ġguddoon": 10241, "Ġburburka": 10242, "Ġqaf": 10243, "Ġtegi": 10244, "Ġkordhaya": 10245, "Ġlat": 10246, "Ġbandhigo": 10247, "ĠKaar": 10248, "Ġqaawan": 10249, "anay": 10250, "Ġagab": 10251, "Ġdoorashooyin": 10252, "cadda": 10253, "ĠEU": 10254, "ĠWasiiru": 10255, "Ġsaas": 10256, "Ġsow": 10257, "ĠBada": 10258, "**": 10259, "Ġkaarka": 10260, "ĠSom": 10261, "Ġlun": 10262, "Ġnoqoshada": 10263, "Ġxeryaha": 10264, "Ġdabada": 10265, "SF": 10266, "Ú©": 10267, "Ġmacn": 10268, "socodka": 10269, "ĠReply": 10270, "aashiisa": 10271, "Afar": 10272, "tashiga": 10273, "Ġnatiijo": 10274, "Ġkulmo": 10275, "ĠRoobow": 10276, "Ġunugyada": 10277, "Ġgay": 10278, "Warbaahinta": 10279, "Ġsamayso": 10280, "ĠÙĤ": 10281, "ishan": 10282, "ĠTimes": 10283, "Ġmuda": 10284, "Ġgudbiyey": 10285, "Ġfoo": 10286, "lywood": 10287, "ĠIsa": 10288, "anta": 10289, "ĠQalbi": 10290, "Xuk": 10291, "SW": 10292, "ĠFadh": 10293, "ILAND": 10294, "Ġguuleysatay": 10295, "Ġxukuntay": 10296, "Ġqaybood": 10297, "Ġdilalka": 10298, "Intii": 10299, "Ġbaadhitaan": 10300, "pala": 10301, "Ġdadban": 10302, "Ġdacwada": 10303, "Ġqaadey": 10304, "Ġmaya": 10305, "oonta": 10306, "ĠRagga": 10307, "ĠMujaahidiinta": 10308, "Maqal": 10309, "ĠDhab": 10310, "Ġyum": 10311, "Ġdiyaarinta": 10312, "Ġdamacsan": 10313, "ĠBaah": 10314, "Ġdimuqraad": 10315, "ĠKhudbad": 10316, "Ġummata": 10317, "Ġciqaab": 10318, "ĠKat": 10319, "gaab": 10320, "Image": 10321, "Ġcayn": 10322, "Ġduulay": 10323, "Ġkaasha": 10324, "Ġqabanqaab": 10325, "Ġcashar": 10326, "Ġogahay": 10327, "ĠIdaacada": 10328, "gy": 10329, "Muuqaal": 10330, "laf": 10331, "Kulankan": 10332, "ĠMADAX": 10333, "Ġlu": 10334, "Ġxayawaan": 10335, "Waxyaabaha": 10336, "Ġganacsato": 10337, "ĠDahabshiil": 10338, "Ġgaadheen": 10339, "Ġcaption": 10340, "ĠLiiska": 10341, "ĠCayaar": 10342, "Ġkulmiye": 10343, "ĠHase": 10344, "hesh": 10345, "Ġaragnay": 10346, "Ġxafiisyada": 10347, "agaa": 10348, "Ġmooshinka": 10349, "ĠHer": 10350, "Ġtaasna": 10351, "Ġheeso": 10352, "Ġjala": 10353, "ĠAqoonyahan": 10354, "Ġambab": 10355, "Ġheysan": 10356, "Ġcaqliga": 10357, "Ġtaageera": 10358, "Ġmarxalad": 10359, "anayaan": 10360, "Ġculi": 10361, "âŁ©)-": 10362, "Ġsonkor": 10363, "ĠGalkacyo": 10364, "Ġaynaan": 10365, "cation": 10366, "Ġxafladda": 10367, "tum": 10368, "Ġturan": 10369, "ĠNatiij": 10370, "Ġsuu": 10371, "Ġfasalka": 10372, "agga": 10373, "ĠCUS": 10374, "Ġtaageeraan": 10375, "nuu": 10376, "áį": 10377, "biir": 10378, "Ġbixiyaa": 10379, "maamulka": 10380, "Ġjamhuur": 10381, "Ġsala": 10382, "ĠMam": 10383, "ĠGaadhay": 10384, "Ġdhageyso": 10385, "ĠSI": 10386, "ĠDool": 10387, "Ġogow": 10388, "Ġmacm": 10389, "Ñħ": 10390, "Ġwaxyeelo": 10391, "ĠMagaalooyinka": 10392, "eelay": 10393, "Ġxidho": 10394, "RC": 10395, "Ġwaxeyna": 10396, "Ġboqortooyada": 10397, "Ġhiig": 10398, "iness": 10399, "ĠHotelka": 10400, "ĠSur": 10401, "88": 10402, "Jab": 10403, "ĠAfaan": 10404, "Ġyidhaahdeen": 10405, "ĠFiican": 10406, "EFA": 10407, "Target": 10408, "Ġkordhinta": 10409, "ĠDanjire": 10410, "67": 10411, "Ðº": 10412, "Ġmadaxbanaan": 10413, "UNT": 10414, "ĠDaarood": 10415, "Ġaxmed": 10416, "ĠOromada": 10417, "Ġmed": 10418, "Waxan": 10419, "duuca": 10420, "jeex": 10421, "Ġhanga": 10422, "Fur": 10423, "Ġcialis": 10424, "inion": 10425, "Mon": 10426, "ĠSomaaliya": 10427, "lip": 10428, "uunta": 10429, "ĠMaryan": 10430, "Ġmartig": 10431, "ĠMusharaxiinta": 10432, "aafo": 10433, "toodu": 10434, "ĠTartanka": 10435, "ĠQAB": 10436, "Ġsiinayaa": 10437, "ĠØ§ÙĦÙĦÙĩ": 10438, "ollow": 10439, "Ġwaxyaabihii": 10440, "shabab": 10441, "Ġgeystaan": 10442, "finn": 10443, "Ġfeej": 10444, "Ġgudbiyeen": 10445, "fadhiga": 10446, "aasay": 10447, "Ġgeel": 10448, "::": 10449, "Ġtaleefanka": 10450, "geynta": 10451, "Ġxoojiyo": 10452, "ibo": 10453, "olm": 10454, "ĠPortugal": 10455, "eesan": 10456, "riy": 10457, "Ġidhi": 10458, "Ġcaag": 10459, "Ġafrika": 10460, "Ġdarrada": 10461, "dun": 10462, "Ġkulantay": 10463, "Ġacc": 10464, "Fik": 10465, "ĠGuri": 10466, "Ġqop": 10467, "Ġfadhiyo": 10468, "Â´": 10469, "som": 10470, "Ġhaala": 10471, "Ġwadaad": 10472, "Ġthan": 10473, "Ġajj": 10474, "agra": 10475, "Ġaroos": 10476, "Ġlacagtii": 10477, "ĠYariisow": 10478, "Ġtoosan": 10479, "Wafdi": 10480, "burg": 10481, "ĠIlo": 10482, "ĠTus": 10483, "uwaa": 10484, "Sii": 10485, "ĠSc": 10486, "nadii": 10487, "ĠKi": 10488, "Ġiri": 10489, "aaqa": 10490, "Ġwaajibaadka": 10491, "yaanee": 10492, "balse": 10493, "Ġumad": 10494, "Ġjeeb": 10495, "Ġxaqiiqada": 10496, "Ġooy": 10497, "Ġjub": 10498, "ĠUp": 10499, "ĠLAGU": 10500, "Ġjawaabo": 10501, "ĠNic": 10502, "Ùĭ": 10503, "sheegay": 10504, "ÃŃ": 10505, "ulo": 10506, "ĠSaint": 10507, "Ġmun": 10508, "Ġguuleysto": 10509, "eero": 10510, "Ġqiyaasay": 10511, "ĠCiidda": 10512, "Ġqabqab": 10513, "ĠGAL": 10514, "ĠRom": 10515, "Ġlafa": 10516, "ĠSaa": 10517, "?!": 10518, "ĠDFKMG": 10519, "Ġtaliye": 10520, "Barcelona": 10521, "ĠKusoo": 10522, "Ġkaleba": 10523, "ĠSanadkii": 10524, "KAAN": 10525, "Ġfadhig": 10526, "Ġxirtay": 10527, "ĠSCW": 10528, "Ġmarba": 10529, "Ġfadhiga": 10530, "Ġdherer": 10531, "Ġkhayraadka": 10532, "Garoowe": 10533, "mara": 10534, "the": 10535, "Ġhol": 10536, "Ġxilalka": 10537, "Ġalaabada": 10538, "ĠAxad": 10539, "tagga": 10540, "Ġfed": 10541, "Ġdaruur": 10542, "Ġsheegto": 10543, "BN": 10544, "Ġxalin": 10545, "ĠSamsung": 10546, "Ġculeys": 10547, "ĠBaardheere": 10548, "ĠCabdiwali": 10549, "ican": 10550, "Bishii": 10551, "ĠTab": 10552, "Ġinteeda": 10553, "unda": 10554, "ĠHalkaan": 10555, "Ġsee": 10556, "Ġeeday": 10557, "shey": 10558, "ĠContinue": 10559, "Ġgudbo": 10560, "hel": 10561, "Ġlagugu": 10562, "Ġisdaba": 10563, "Ġbala": 10564, "Ġadeegsiga": 10565, "Ġboob": 10566, "meerka": 10567, "val": 10568, "Ġqaraxyada": 10569, "Ġbiiro": 10570, "Ninka": 10571, "Ġbuuq": 10572, "ĠRober": 10573, "Ġhadalada": 10574, "ĠArticle": 10575, "Ġdaal": 10576, "aadumo": 10577, "Ġamaanay": 10578, "ridge": 10579, "Ġardey": 10580, "ett": 10581, "Ġtixraac": 10582, "cadde": 10583, "Ġsaad": 10584, "Ġhelno": 10585, "diisii": 10586, "tama": 10587, "ĠNac": 10588, "Ġcadaw": 10589, "Ġcabasho": 10590, "Ġdoonka": 10591, "ffaa": 10592, "AAA": 10593, "sanahay": 10594, "Ġorom": 10595, "Ġwaxyaalaha": 10596, "Ġdaada": 10597, "adiisu": 10598, "UG": 10599, "ĠAbaaraha": 10600, "RE": 10601, "eesay": 10602, "ĠBelgium": 10603, "ooyinkan": 10604, "ĠMaw": 10605, "ĠGaadh": 10606, "Ġwalwal": 10607, "Ġbadbaadiyo": 10608, "Ġisbitaal": 10609, "ĠKum": 10610, "Ġnim": 10611, "Ġjoojiyaan": 10612, "Sam": 10613, "ĠDeegaanada": 10614, "Ġwanaaj": 10615, "ĠMadaxtooyadda": 10616, "Ġmaraan": 10617, "Ð°ÑĢ": 10618, "Ġarim": 10619, "IH": 10620, "ĠNaq": 10621, "Ġkombiyuu": 10622, "Jaamac": 10623, "wadeen": 10624, "zz": 10625, "ĠHorumarka": 10626, "iilo": 10627, "ĠTurk": 10628, "Ġqabyaalad": 10629, "yow": 10630, "ĠShac": 10631, "Ġsafka": 10632, "Ġraf": 10633, "ĠCajiib": 10634, "bis": 10635, "Sun": 10636, "Ġshirkaas": 10637, "Ġáī": 10638, "PL": 10639, "Or": 10640, "iima": 10641, "dhis": 10642, "ĠShirkadaha": 10643, "eedkii": 10644, "ĠJul": 10645, "ĠKitaabka": 10646, "qay": 10647, "Ġqurbaha": 10648, "Ġyeero": 10649, "ĠDekeda": 10650, "ĠFahad": 10651, "aafin": 10652, "raadka": 10653, "dhaqam": 10654, "ĠMooshin": 10655, "ĠWadamada": 10656, "Ġbarlamaanka": 10657, "OOL": 10658, "Ġgudan": 10659, "Ġdhaqmo": 10660, "Ġhirgelinta": 10661, "sata": 10662, "celinta": 10663, "ĠXiddiga": 10664, "ĠCong": 10665, "addar": 10666, "Ġderis": 10667, "ĠÉĹum": 10668, "Ġbaasab": 10669, "ĠMasuul": 10670, "Ġyeeli": 10671, "Ġdhigaysa": 10672, "Hoose": 10673, "Hargaysa": 10674, "ĠJav": 10675, "elf": 10676, "eelasha": 10677, "ĠQAR": 10678, "Nabad": 10679, "aacida": 10680, "Qalabka": 10681, "ĠHu": 10682, "cade": 10683, "Ġ34": 10684, "Ġmuhiimadda": 10685, "post": 10686, "xay": 10687, "off": 10688, "ics": 10689, "count": 10690, "jan": 10691, "que": 10692, "ugul": 10693, "ĠLeeyahay": 10694, "heena": 10695, "Ġsuuragal": 10696, "Ġhababka": 10697, "Ġgroup": 10698, "Ġrajaynayaa": 10699, "ĠXanuun": 10700, "Ð¼": 10701, "ĠWord": 10702, "Ġnus": 10703, "ĠWaaj": 10704, "Ġfile": 10705, "Bad": 10706, "2011": 10707, "Ġsiinaya": 10708, "hael": 10709, "Ġkaab": 10710, "Ġraaceen": 10711, "Ġreerka": 10712, "Ġmaqli": 10713, "Ġsanduuqa": 10714, "Sababta": 10715, "Ġfaal": 10716, "Ġsuurtogal": 10717, "Ä°": 10718, "Ġiyaduna": 10719, "Ġkey": 10720, "ĠÙĥ": 10721, "velop": 10722, "Ġkordha": 10723, "tigan": 10724, "Ġcuf": 10725, "âŁ©:": 10726, "ĠWatch": 10727, "Ġxuma": 10728, "uudha": 10729, "ĠHogaamin": 10730, "Ġguulaysan": 10731, "ĠGobal": 10732, "Ġmaleeshiyaadka": 10733, "iceel": 10734, "Ġguulaha": 10735, "kaalka": 10736, "Ġafgar": 10737, "Ġdarteedna": 10738, "Ġdayactirka": 10739, "ĠII": 10740, "gaadhsiinta": 10741, "ĠCag": 10742, "ĠLama": 10743, "Maar": 10744, "aadey": 10745, "Ġsaacad": 10746, "ĠSunday": 10747, "Ġtodobaadkan": 10748, "ĠAay": 10749, "ĠSSC": 10750, "ĠInaan": 10751, "stagram": 10752, "Ġguryahooda": 10753, "tiri": 10754, "Ġjij": 10755, "Real": 10756, "Reer": 10757, "ĠCUSUB": 10758, "Ġqatar": 10759, "Ġqaababka": 10760, "Ġgeyn": 10761, "Ġxariga": 10762, "Ġmuujiyo": 10763, "Ġxuduudaha": 10764, "Oi": 10765, "Ġmalaayiin": 10766, "assad": 10767, "ĠRights": 10768, "ĠGoobta": 10769, "lum": 10770, "Ġlambarka": 10771, "ĠIbraahin": 10772, "ĠFederaal": 10773, "ĠMaxaab": 10774, "suur": 10775, "Ġammoo": 10776, "ĠBurbur": 10777, "Duqa": 10778, "laga": 10779, "Ġsedex": 10780, "Ġdhankooda": 10781, "Arin": 10782, "lock": 10783, "Ġistir": 10784, "Ġastaanta": 10785, "...\"": 10786, "Ġdhameystiran": 10787, "Ġmidba": 10788, "Ġcomments": 10789, "Ġkalluum": 10790, "sto": 10791, "Ġgasha": 10792, "Ġgaranayn": 10793, "Ġisagana": 10794, "ĠKulmay": 10795, "FG": 10796, "Ġmacdanta": 10797, "ĠOmar": 10798, "Ġmacruufka": 10799, "Ġmaamuli": 10800, "ĠMis": 10801, "Ġrabin": 10802, "iber": 10803, "ĠKhamiistii": 10804, "Ġseer": 10805, "Doorashada": 10806, "Ġtacsiy": 10807, "Ġilaha": 10808, "ĠQurba": 10809, "ĠJimcaale": 10810, "Taliska": 10811, "Madaxa": 10812, "Ġits": 10813, "ĠWadooyinka": 10814, "qaaf": 10815, "Ġcayaaraha": 10816, "Ġkenn": 10817, "ĠTahriib": 10818, "ĠBaq": 10819, "Ġwacyi": 10820, "Ġjiid": 10821, "ĠKaliya": 10822, "ĠDambeeyay": 10823, "get": 10824, "Ġmideysan": 10825, "Ġdabacsan": 10826, "Ġxirnaa": 10827, "Ġqorsheyn": 10828, "eysaan": 10829, "EF": 10830, "TM": 10831, "Ġlambar": 10832, "ĠDhashay": 10833, "alth": 10834, "Ġdiyaariyey": 10835, "soomaali": 10836, "Ġcudurada": 10837, "Ġnamoota": 10838, "eeynta": 10839, "TC": 10840, "Ġcaanaha": 10841, "ibka": 10842, "Ġkitaab": 10843, "Ġï": 10844, "Ġkaca": 10845, "Ġdeynta": 10846, "ĠiPad": 10847, "Ġqaraab": 10848, "Ġdhuu": 10849, "Ġmagaalooyin": 10850, "tarada": 10851, "ĠSiyaasiyiin": 10852, "ĠWenger": 10853, "Ġaqris": 10854, "Ġmadad": 10855, "Tababaraha": 10856, "à¥": 10857, "udwaaq": 10858, "onder": 10859, "Ġgubay": 10860, "Ġkordhiyay": 10861, "ĠFarah": 10862, "weynihii": 10863, "ĠCaa": 10864, "ĠLugood": 10865, "Ġwasiirku": 10866, "Ġbannaanka": 10867, "Ġhabsami": 10868, "Ġdhid": 10869, "aadhka": 10870, "SAWIRO": 10871, "Ġqosol": 10872, "Ġmiisaaniyadda": 10873, "Deeg": 10874, "Ġfaray": 10875, "ĠCansh": 10876, "Ġqarka": 10877, "Ġgaroomada": 10878, "Ġwanaaga": 10879, "ink": 10880, "Ġinoogu": 10881, "Ġkubad": 10882, "Taasi": 10883, "ĠRun": 10884, "Cumar": 10885, "Ġfuf": 10886, "ĠMuqdis": 10887, "Ġxero": 10888, "Ġlixaad": 10889, "ĠJaz": 10890, "Ġdhiirrig": 10891, "Ġbeenta": 10892, "Ġreebay": 10893, "Ġgudbiyaan": 10894, "ĠMaalintii": 10895, "jiso": 10896, "ĠXalane": 10897, "eysiis": 10898, "Ġqabsadaan": 10899, "Ġfaylasha": 10900, "ĠIM": 10901, "Ġdiyaarada": 10902, "ĠAqal": 10903, "aaminta": 10904, "Ġnoloshooda": 10905, "Ġsugayo": 10906, "ĠAar": 10907, "Ġdabcan": 10908, "Ġduwanaan": 10909, "gt": 10910, "Ġaragno": 10911, "ĠPresident": 10912, "ĠWebsite": 10913, "Ġasaga": 10914, "iyar": 10915, "Ġdedaal": 10916, "assador": 10917, "Shirkan": 10918, "Ġ38": 10919, "Liverpool": 10920, "Ġtacad": 10921, "ifaf": 10922, "enti": 10923, "ĠXOG": 10924, "Ġbadisay": 10925, "ilinta": 10926, "ĠSafaaradda": 10927, "Ġqaadaa": 10928, "Ġmaleeshiyada": 10929, "Ġisticmaalayo": 10930, "ĠMUUQAAL": 10931, "Ġdura": 10932, "Ġxidig": 10933, "90": 10934, "tanii": 10935, "Ġbeddelay": 10936, "ĠWalaal": 10937, "ĠQeerr": 10938, "Ġwargeys": 10939, "ĠDhow": 10940, "Un": 10941, "Ġbooqashada": 10942, "eere": 10943, "Ġfo": 10944, "ĠHambalyo": 10945, "Ġtiradoodu": 10946, "Sab": 10947, "Ûģ": 10948, "ĠWA": 10949, "Ġjirtey": 10950, "Ġhodan": 10951, "Ġciyaareedkii": 10952, "lines": 10953, "ibada": 10954, "ĠJimcihii": 10955, "Ġshaqeyso": 10956, "Ġkeento": 10957, "ĠHaz": 10958, "ĠCiidamadda": 10959, "Ġjoogeen": 10960, "yaasha": 10961, "Ġkismaayo": 10962, "sarka": 10963, "Hargeisa": 10964, "WQ": 10965, "ĠNational": 10966, "Ġqarnigii": 10967, "Ġshe": 10968, "gin": 10969, "Ġtagto": 10970, "Gaa": 10971, "AMISOM": 10972, "zania": 10973, "kal": 10974, "ĠDKMG": 10975, "cil": 10976, "Ġqowmiy": 10977, "Ġqadka": 10978, "Ġabaarta": 10979, "ĠRak": 10980, "Xaqiiq": 10981, "oly": 10982, "Ġill": 10983, "Ġbuuf": 10984, "ode": 10985, "Nas": 10986, "Ġfoosha": 10987, "UUL": 10988, "Ġtartamaya": 10989, "Ġcaasim": 10990, "Isla": 10991, "ĠNabadoon": 10992, "ĠEeg": 10993, "Kuwan": 10994, "Ġop": 10995, "Ġhowlan": 10996, "Ġxaqiijiyo": 10997, "ible": 10998, "Safiirka": 10999, "Tirada": 11000, "ashaxa": 11001, "Ġsugida": 11002, "HE": 11003, "Rab": 11004, "Ġeegto": 11005, "ĠAAN": 11006, "Ġdhankiisa": 11007, "iij": 11008, "ĠSena": 11009, "ĠNasiib": 11010, "Ġgaas": 11011, "Ġhort": 11012, "ĠBakaaraha": 11013, "noolajiyada": 11014, "aami": 11015, "Ġjoogtay": 11016, "Ġsaadaalin": 11017, "Ġdaqiiqadii": 11018, "Ġistar": 11019, "obe": 11020, "stan": 11021, "Ġmarkaasi": 11022, "bitaalka": 11023, "gas": 11024, "Ġwarramay": 11025, "ids": 11026, "ĠRoma": 11027, "Ġmoodaa": 11028, "Ġful": 11029, "Ġdegmadaasi": 11030, "Gobolka": 11031, "ĠItaly": 11032, "Ġraaww": 11033, "Ġaqoonsaday": 11034, "ĠBandhigay": 11035, "Ġdagaallo": 11036, "Hogg": 11037, "Ġmaqaalka": 11038, "Maray": 11039, "vis": 11040, "Gool": 11041, "ject": 11042, "Ġmariyo": 11043, "laaq": 11044, "dhaab": 11045, "Ġes": 11046, "Ġqadar": 11047, "Ġfuliyaan": 11048, "Ġsheegaa": 11049, "Ġcinwaanka": 11050, "aanku": 11051, "ĠTa": 11052, "This": 11053, "mit": 11054, "Ġheshiiyay": 11055, "Ġwayna": 11056, "view": 11057, "Ġmoo": 11058, "66": 11059, "Ġdareemayaa": 11060, "Ġmaantana": 11061, "ĠWaare": 11062, "ĠGuriceel": 11063, "sidoo": 11064, "Wali": 11065, "ĠAweys": 11066, "Ġdhiibo": 11067, "SE": 11068, "RA": 11069, "Ġjaar": 11070, "Ġbilowgii": 11071, "Ġbadnayd": 11072, "Ġtaariikhi": 11073, "Ġlaw": 11074, "aadamka": 11075, "Ġdhexeysa": 11076, "Ġkorantada": 11077, "Ġlibaax": 11078, "xada": 11079, "ĠDhawaan": 11080, "Ġaaminsanahay": 11081, "Ġdhaqaaqay": 11082, "Ġbiyy": 11083, "Ġcaano": 11084, "ĠBaraka": 11085, "suu": 11086, "Cil": 11087, "ĠFo": 11088, "dax": 11089, "MN": 11090, "Ġnde": 11091, "Ġsiddeed": 11092, "Siilaanyo": 11093, "Sac": 11094, "ĠOld": 11095, "Ġjedha": 11096, "Ġallaah": 11097, "idhka": 11098, "Ġkaniis": 11099, "Ġdabadeedna": 11100, "fiiq": 11101, "Taag": 11102, "aasaa": 11103, "LIN": 11104, "Ġheesaha": 11105, "ĠCu": 11106, "lalka": 11107, "ĠIt": 11108, "Ġcagaaran": 11109, "Laga": 11110, "Ġcilm": 11111, "saabta": 11112, "Ġqaadday": 11113, "ĠIII": 11114, "Ġmaxaabiis": 11115, "AAY": 11116, "ĠYo": 11117, "Ġdhum": 11118, "Col": 11119, "aaqil": 11120, "Ġhawlan": 11121, "ĠÐ±": 11122, "haddii": 11123, "VD": 11124, "ĠMomb": 11125, "Ġisboortiga": 11126, "Ġwasiirkii": 11127, "ĠMonday": 11128, "Ġ!!!": 11129, "ĠCha": 11130, "ĠSAWIRADA": 11131, "Ġcaadada": 11132, "isbitaalka": 11133, "Shirkii": 11134, "Ġtho": 11135, "Ġ!!": 11136, "Ġtimaha": 11137, "Ġsilsi": 11138, "Ġbangiga": 11139, "linka": 11140, "ĠTun": 11141, "ĠMalays": 11142, "ĠNeb": 11143, "ĠAxmad": 11144, "ĠCarabiya": 11145, "Ġsawirro": 11146, "Ġamba": 11147, "Ġheshiin": 11148, "ANN": 11149, "ĠCawaale": 11150, "Ġlabaduba": 11151, "Say": 11152, "Ġdaac": 11153, "isi": 11154, "any": 11155, "Ġsafaaradda": 11156, "dhiska": 11157, "Ġbuuxin": 11158, "Ġkanaan": 11159, "ĠBank": 11160, "oco": 11161, "DI": 11162, "eysnaa": 11163, "Ġgumaysiga": 11164, "ĠTacsi": 11165, "giyada": 11166, "Ġcasho": 11167, "ĠHawlaha": 11168, "Ġboqorka": 11169, "Ġdhigin": 11170, "Ġwaayaan": 11171, "Ġsafiir": 11172, "Ġcarqalad": 11173, "Ġmiti": 11174, "Ġabaalmarinta": 11175, "Har": 11176, "Ġgudo": 11177, "ĠXaalad": 11178, "Ø¶": 11179, "eeso": 11180, "ĠNoqday": 11181, "Ñĭ": 11182, "ĠBuulo": 11183, "Ġnaqshadeynta": 11184, "ĠALL": 11185, "ĠDaah": 11186, "Ġstar": 11187, "ĠUEFA": 11188, "ĠVan": 11189, "acf": 11190, "Ġwareer": 11191, "laakiin": 11192, "ĠWasiiradda": 11193, "Ġqaadanaya": 11194, "Ġfoor": 11195, "Ġdeegaanno": 11196, "aragnimo": 11197, "Ġqorsheeyay": 11198, "Ġqaybtii": 11199, "ĠJaceyl": 11200, "Ġdawladu": 11201, "Ġceel": 11202, "Ġdegaanada": 11203, "Ġkoronto": 11204, "Xarunta": 11205, "aadadii": 11206, "ĠBuux": 11207, "Xiddiga": 11208, "Ġliida": 11209, "Ġwaalidka": 11210, "Ġnatiijooyinka": 11211, "Ġbaxda": 11212, "ĠRiix": 11213, "Ġsugidda": 11214, "mon": 11215, "Ġsomalida": 11216, "ĠAlex": 11217, "baal": 11218, "Ġnaloo": 11219, "Ġgagg": 11220, "Ġsaxiixday": 11221, "iifka": 11222, "Ġeegi": 11223, "ĠXeebaha": 11224, "Ġguji": 11225, "ĠTalo": 11226, "Ġcom": 11227, "ĠMer": 11228, "Ġtallaalka": 11229, "addaas": 11230, "Ġdaraaddeed": 11231, "ĠMet": 11232, "Ġjaamacada": 11233, "Ġbaaxad": 11234, "iinna": 11235, "Ġwelw": 11236, "uumay": 11237, "ading": 11238, "ashadu": 11239, "Ġcutub": 11240, "Ġeegis": 11241, "Ġqabtey": 11242, "baahan": 11243, "ĠMala": 11244, "%.": 11245, "Ger": 11246, "Ġmadaxdii": 11247, "Ġdheeraa": 11248, "Ġmahadceliyay": 11249, "Ġkusug": 11250, "Ġadkaatay": 11251, "ĠMooshinka": 11252, "maddu": 11253, "ĠGor": 11254, "PP": 11255, "Ġruq": 11256, "tiina": 11257, "ĠPh": 11258, "Ġmarkan": 11259, "Ġmujaahid": 11260, "ĠMuc": 11261, "dhism": 11262, "eystey": 11263, "Ġismiid": 11264, "ĠGunn": 11265, "ĠKM": 11266, "Ġkulay": 11267, "ĠAmiin": 11268, "ĠArgentina": 11269, "Ġwafdig": 11270, "Ġsokow": 11271, "nimadu": 11272, "Ġqabsatay": 11273, "rik": 11274, "ĠJin": 11275, "ĠMaska": 11276, "cayo": 11277, "poor": 11278, "see": 11279, "qsi": 11280, "Waayo": 11281, "Ġdiiwaangelinta": 11282, "ĠMaha": 11283, "idir": 11284, "Ġgeeyey": 11285, "Ġwaraabiyo": 11286, "Ġnaannoo": 11287, "Vi": 11288, "lated": 11289, "(âŁ¨": 11290, "Ġwalitti": 11291, "ĠAsh": 11292, "Ġwarqab": 11293, "Ġarkin": 11294, "finnee": 11295, "ĠDugsiyada": 11296, "ball": 11297, "Ġisma": 11298, "eeli": 11299, "Ġcaddayn": 11300, "Ġhorseedi": 11301, "Ġcadawga": 11302, "Ġcabbir": 11303, "Ġbaahdo": 11304, "Xaaladda": 11305, "lood": 11306, "ĠCaruurta": 11307, "Ġxaflada": 11308, "ĠUrurada": 11309, "Ġdaaha": 11310, "yu": 11311, "ladooda": 11312, "ĠChar": 11313, "Ġ39": 11314, "Ġwaalidiinta": 11315, "à¦": 11316, "Ġanagu": 11317, "uri": 11318, "Ġinaa": 11319, "Ġqalal": 11320, "Ø¥": 11321, "ĠDAD": 11322, "uudo": 11323, "ĠKormeer": 11324, "ĠXildhibaannada": 11325, "ĠDhibaat": 11326, "Ġdhami": 11327, "field": 11328, "Ġnaxdin": 11329, "Ġqeybtii": 11330, "irif": 11331, "Ġshilin": 11332, "Ġkabashada": 11333, "Ġprof": 11334, "date": 11335, "ĠBadb": 11336, "Ġnafta": 11337, "Xulka": 11338, "AAQ": 11339, "imay": 11340, "ĠPogba": 11341, "Ġxaalado": 11342, "umb": 11343, "Ġstate": 11344, "rac": 11345, "ĠHD": 11346, "Ġsaabsanaa": 11347, "Ġfurmo": 11348, "ĠShidaalka": 11349, "ahooda": 11350, "ĠFIFA": 11351, "Ġgalinta": 11352, "maanta": 11353, "gane": 11354, "Ġwaajibaad": 11355, "Adeeg": 11356, "Ġgudbinta": 11357, "Ġkib": 11358, "oogada": 11359, "Ġmaraakiibta": 11360, "ĠDoorasho": 11361, "Ġbaahanahay": 11362, "Ġafter": 11363, "Ġshaqaala": 11364, "adeena": 11365, "Ġqiimeyn": 11366, "Ġdhallinyar": 11367, "ĠHAD": 11368, "Ġcadeyn": 11369, "Ġwaji": 11370, "Ġnaxariisto": 11371, "iisi": 11372, "Ġdid": 11373, "Ġsw": 11374, "ship": 11375, "aahinta": 11376, "hadii": 11377, "ĠZidane": 11378, "Ġdhah": 11379, "Ġhirgelin": 11380, "Ġtababaraha": 11381, "UZUi": 11382, "Ġdool": 11383, "Ġsaarista": 11384, "Xubnaha": 11385, "Ġakhrin": 11386, "Ġhanjabay": 11387, "dhexgalka": 11388, "Ġbartiisa": 11389, "ĠNO": 11390, "Ġdheel": 11391, "iyee": 11392, "Ġbooqan": 11393, "ĠGuardiola": 11394, "Ġnuur": 11395, "baxyo": 11396, "ura": 11397, "Ġilaali": 11398, "Ġilkaha": 11399, "moon": 11400, "ĠMasjidka": 11401, "ĠGoobaha": 11402, "owgii": 11403, "Ġrabitaanka": 11404, "Ġlaacibka": 11405, "Ġjidadka": 11406, "Ġshanaad": 11407, "Ġcaado": 11408, "Ġeek": 11409, "Ġtaaj": 11410, "ĠJIR": 11411, "Ġwadani": 11412, "Ġsiiyeen": 11413, "Ġaadna": 11414, "aach": 11415, "Ġmucaaridka": 11416, "ĠXoogan": 11417, "Ġbeeleed": 11418, "ĠEle": 11419, "los": 11420, "Degmada": 11421, "aamay": 11422, "ĠGarba": 11423, "dood": 11424, "Ġjalqab": 11425, "Ġdaahir": 11426, "ries": 11427, "Ġkalsoonaan": 11428, "Ġtareen": 11429, "Ġheshiiyeen": 11430, "barbar": 11431, "Akhris": 11432, "Ġbede": 11433, "itaankii": 11434, "Ġwaxuuna": 11435, "ĠLaf": 11436, "iideysan": 11437, "Ġgelinkii": 11438, "ĠWakaaladda": 11439, "ashadda": 11440, "Ġbann": 11441, "Ġwataan": 11442, "wayne": 11443, "osit": 11444, "Ġgudbisay": 11445, "ĠYes": 11446, "Ġugala": 11447, "Ġsuugaanta": 11448, "Ġash": 11449, "Ġree": 11450, "Khilaaf": 11451, "ategor": 11452, "ĠWednesday": 11453, "roolka": 11454, "Ġkacdoon": 11455, "doba": 11456, "Ġarka": 11457, "Ġtelefoon": 11458, "Sarkaal": 11459, "Ġdowladdii": 11460, "Im": 11461, "ĠKubada": 11462, "Ġxaar": 11463, "Ġmiyiga": 11464, "deena": 11465, "Ġdhoofinta": 11466, "Ġxaad": 11467, "ĠAQ": 11468, "Ġbadnaan": 11469, "Ġgabadhii": 11470, "Ġmurugo": 11471, "ĠDer": 11472, "Ġcuq": 11473, "ular": 11474, "ĠMuxumed": 11475, "ĠCabdulqaadir": 11476, "ĠGawaarida": 11477, "taba": 11478, "Ġaqlab": 11479, "Ġsxb": 11480, "ĠTaagan": 11481, "Ġwasakh": 11482, "Intaas": 11483, "ĠJibriil": 11484, "Ġtacliinta": 11485, "sanayn": 11486, "Ġtop": 11487, "Ġhogaamiyo": 11488, "ĠDiyaarad": 11489, "Ġmuwaadiniin": 11490, "ayaashii": 11491, "Ġkulankaasi": 11492, "ĠSuug": 11493, "OOW": 11494, "Ġsido": 11495, "Ġmiraha": 11496, "Ġmaaliyadeed": 11497, "Ġgaalada": 11498, "ĠLiibaan": 11499, "ĠAbd": 11500, "Ġfogaado": 11501, "Ġdembi": 11502, "Ġxaqiijisay": 11503, "Xeer": 11504, "ĠYeeshay": 11505, "Ġsidda": 11506, "Ġxulay": 11507, "ĠXiiso": 11508, "ĠCent": 11509, "iyeyaal": 11510, "Ġxireen": 11511, "ĠGanacsi": 11512, "Shan": 11513, "Ġdiido": 11514, "Qofka": 11515, "Ġhagar": 11516, "Ġbogaadin": 11517, "ĠWaxy": 11518, "Ġjog": 11519, "Ġabaalmarin": 11520, "Ġinaadan": 11521, "ĠShiin": 11522, "Ġmajir": 11523, "ĠCabdin": 11524, "HCR": 11525, "Ġhortiisa": 11526, "Ġajan": 11527, "Dawlada": 11528, "uuni": 11529, "Ø§Ø±": 11530, "Markaa": 11531, "iiraanyo": 11532, "KM": 11533, "Ġsaxaafadeed": 11534, "ooge": 11535, "Ġweerarkaasi": 11536, "rosoft": 11537, "Ġdoorteen": 11538, "ĠHogaanka": 11539, "Ġbulshad": 11540, "Ġfikradaha": 11541, "Ġsuura": 11542, "Ġwayday": 11543, "Ġaaladaha": 11544, "lanta": 11545, "shiid": 11546, "Ġajaanib": 11547, "MO": 11548, "Ġwato": 11549, "Ġelek": 11550, "reed": 11551, "Ġkumb": 11552, "Ġmaamusho": 11553, "Ġliita": 11554, "isagoo": 11555, "ĠEre": 11556, "Ġap": 11557, "Ġraaci": 11558, "Ġkeeneen": 11559, "ĠQoraalka": 11560, "ument": 11561, "Ġsocdey": 11562, "Ġwarra": 11563, "Ġalbaabada": 11564, "Ġnaadi": 11565, "ĠMareykanku": 11566, "ĠAsluubta": 11567, "Ġwalbana": 11568, "Ġmaga": 11569, "Ġxakamaynta": 11570, "Ġguddaa": 11571, "Ġbilowdo": 11572, "sein": 11573, "ĠTik": 11574, "hili": 11575, "Ġmaamulkaasi": 11576, "Ġkanneen": 11577, "ikh": 11578, "Ġà¤": 11579, "áīµ": 11580, "Ġtaxane": 11581, "Ġdhiganta": 11582, "Ġguddida": 11583, "Ġwaxtarka": 11584, "ĠPut": 11585, "owdo": 11586, "Shariif": 11587, "Ġxagaagan": 11588, "ĠEthiopian": 11589, "Ġwaara": 11590, "ĠCur": 11591, "cda": 11592, "Ġiyagoona": 11593, "Ġdus": 11594, "ĠKii": 11595, "Ġqaadaya": 11596, "Ġqiyaasta": 11597, "Ġcabir": 11598, "Kuwani": 11599, "Inkasta": 11600, "ĠMarkab": 11601, "ments": 11602, "Ġlink": 11603, "Ġbakh": 11604, "Ġtuf": 11605, "ration": 11606, "Ġcanshuurta": 11607, "Ġ<": 11608, "Ġqalbiga": 11609, "damb": 11610, "hammad": 11611, "ĠDhinac": 11612, "ladaasi": 11613, "ĠNof": 11614, "ĠRIIX": 11615, "my": 11616, "ils": 11617, "itan": 11618, "Ø§Øª": 11619, "Ġkulankaas": 11620, "Ġwareejiyey": 11621, "Ġxarig": 11622, "adiisii": 11623, "Ġbaaqayaa": 11624, "Ġbilaabaan": 11625, "lopp": 11626, "aafur": 11627, "Ġhalganka": 11628, "ĠWasaaradaha": 11629, "ĠKoonfureed": 11630, "ĠIsniintii": 11631, "ĠXeeb": 11632, "Ġduur": 11633, "Ġqis": 11634, "ÙĲÙĳ": 11635, "ĠGeeriyooday": 11636, "ator": 11637, "Ġkanaa": 11638, "Ġculays": 11639, "mahaan": 11640, "Ġcu": 11641, "Ġinni": 11642, "ladiisa": 11643, "ĠGees": 11644, "ĠAden": 11645, "ĠMuxamed": 11646, "Goobjoog": 11647, "ĠSalaan": 11648, "Ġloosoo": 11649, "Ġcamal": 11650, "Kuwa": 11651, "Ġtijaabada": 11652, "Ġdanbeysay": 11653, "yadiisa": 11654, "ĠIC": 11655, "Ġqalinka": 11656, "Ġisbedelka": 11657, "duwan": 11658, "Ġkoobaad": 11659, "Ġciidankii": 11660, "oomay": 11661, "Ġiibsado": 11662, "ĠMagacyada": 11663, "ayan": 11664, "Ġduhur": 11665, "Ġtek": 11666, "Ġdhaga": 11667, "Ġiskuu": 11668, "Ay": 11669, "Ġinnaga": 11670, "ĠIntii": 11671, "Ġsiiya": 11672, "layaal": 11673, "ĠDibedda": 11674, "Ġwaab": 11675, "loud": 11676, "UUN": 11677, "Ġ75": 11678, "attoo": 11679, "share": 11680, "Ġtaam": 11681, "Ġdhexda": 11682, "Ġwararkii": 11683, "ĠShil": 11684, "Ġgaranayo": 11685, "Ġinu": 11686, "dhismeedka": 11687, "ĠGudb": 11688, "?\"": 11689, "Goor": 11690, "Ġcak": 11691, "ono": 11692, "Ġgabo": 11693, "Ġabaabulay": 11694, "naf": 11695, "Ġdhasha": 11696, "Ġwaxgarad": 11697, "Ġxubnihii": 11698, "Ġti": 11699, "ĠLaanta": 11700, "Ġroobab": 11701, "Faah": 11702, "Ġdhadhan": 11703, "ING": 11704, "Ġuummata": 11705, "Ġqiima": 11706, "ĠMc": 11707, "Ġdoonno": 11708, "ĠKama": 11709, "Ġfarshaxan": 11710, "Ġwareejinta": 11711, "Ġhortagi": 11712, "Ġcaddaan": 11713, "Ġhuba": 11714, "Ġhawlo": 11715, "OOO": 11716, "Ġwiiq": 11717, "ĠTuesday": 11718, "Ġbadali": 11719, "nolo": 11720, "Ġmashruucan": 11721, "ble": 11722, "lands": 11723, "Ñĩ": 11724, "ĠTartan": 11725, "king": 11726, "Ġmakh": 11727, "Shabab": 11728, "Ġyaalo": 11729, "Ġdardaarmay": 11730, "Ġfirst": 11731, "ĠWilli": 11732, "Ġbaryayaa": 11733, "Ġdhafan": 11734, "ĠSand": 11735, "Ġdhawaaj": 11736, "Ġgaraacay": 11737, "kaygii": 11738, "ĠApr": 11739, "Ġwaaya": 11740, "ĠItoobiyaan": 11741, "ĠTaliyihii": 11742, "hoodu": 11743, "Ġgaarsiiyo": 11744, "reak": 11745, "aafadeedka": 11746, "Ġmawduuc": 11747, "ĠGaashaandhiga": 11748, "Ġyeelo": 11749, "Ġqulqul": 11750, "gabka": 11751, "Ġheesta": 11752, "Ġcadaalada": 11753, "ĠAdeegga": 11754, "Ġgeg": 11755, "ĠRaac": 11756, "Ġkacday": 11757, "ĠJubooyinka": 11758, "ĠDumar": 11759, "ĠArbacadii": 11760, "Ġguyyaa": 11761, "ĠSAM": 11762, "Chelsea": 11763, "XO": 11764, "ĠXuska": 11765, "ĠSabtida": 11766, "Ġhorg": 11767, "Ġdooro": 11768, "Ġsiid": 11769, "ĠMucaaridka": 11770, "Ġqabsoon": 11771, "ĠRi": 11772, "halka": 11773, "ĠMidawga": 11774, "Ġyu": 11775, "Ġleydi": 11776, "ĠXayir": 11777, "ĠSAWIRRO": 11778, "ĠQaada": 11779, "Ġarintaan": 11780, "Ġbaxayaan": 11781, "ĠLibya": 11782, "Ġsuuro": 11783, "Ġhoostiisa": 11784, "ĠCeli": 11785, "ĠKAR": 11786, "Ġ2004": 11787, "Ġjagada": 11788, "ĠQodobka": 11789, "Ġahba": 11790, "ĠQaadka": 11791, "Ġlog": 11792, "unyaa": 11793, "ĠSaxaafada": 11794, "Ġnoloshiisa": 11795, "Ġmidnimo": 11796, "ĠXaafada": 11797, "Ġdoonan": 11798, "Ġtaxadar": 11799, "Ġdadkiisa": 11800, "Ġbeelood": 11801, "ATO": 11802, "Ġsiiba": 11803, "ĠSalah": 11804, "Ġqoraaga": 11805, "baday": 11806, "iyya": 11807, "ĠPrevious": 11808, "Ġcodsig": 11809, "RW": 11810, "Ġdhaqaaj": 11811, "miin": 11812, "och": 11813, "Ġdalkeeda": 11814, "Ġjirnay": 11815, "Ġnoqonaysaa": 11816, "ategory": 11817, "Ġmuhiimad": 11818, "Ġsana": 11819, "Ġcambaareeyay": 11820, "Ġyare": 11821, "Ġdambayntii": 11822, "Ġkoro": 11823, "Ġsalaadda": 11824, "Ġbedelo": 11825, "ĠMichael": 11826, "ance": 11827, "ĠSadex": 11828, "Ġcunsur": 11829, "Ġqofna": 11830, "aakul": 11831, "ĠMuumin": 11832, "Ġcc": 11833, "ĠBADAN": 11834, "Ġarrimood": 11835, "AK": 11836, "Ġwork": 11837, "kiyo": 11838, "ann": 11839, "ĠMombasa": 11840, "Ġyahiin": 11841, "Ġdhamaa": 11842, "ĠMadaarka": 11843, "Saraakiil": 11844, "gashiga": 11845, "ĠNad": 11846, "wer": 11847, "OOB": 11848, "Ġquus": 11849, "Wakiilka": 11850, "Ġqaraar": 11851, "Ġsaftay": 11852, "ĠTurkigu": 11853, "Gaar": 11854, "ĠDoona": 11855, "ajaaj": 11856, "Ġweerareen": 11857, "Ġijaar": 11858, "IMES": 11859, "Ġsamee": 11860, "aliga": 11861, "ĠYare": 11862, "Ġdaboolka": 11863, "ĠXaawo": 11864, "gio": 11865, "jiyo": 11866, "Ġshaqeeyaa": 11867, "Ġdeegaankaasi": 11868, "Ġdhaliil": 11869, "tonio": 11870, "inium": 11871, "Ġxush": 11872, "Ġcodadka": 11873, "uters": 11874, "tify": 11875, "Ġmaamulkii": 11876, "Ã³": 11877, "Ġmaalintaas": 11878, "Ġjiidasho": 11879, "ĠAhaan": 11880, "Ġadeegsadaan": 11881, "ĠGAR": 11882, "Ġbaahantahay": 11883, "risaaq": 11884, "Ġfiicnaa": 11885, "Ġsooc": 11886, "Ġciidamadu": 11887, "eenta": 11888, "ful": 11889, "addib": 11890, "Ġmuddadii": 11891, "AANKA": 11892, "Ġcaddeyn": 11893, "Ġdhaxeeyo": 11894, "uel": 11895, "xid": 11896, "Ġgovernment": 11897, "Ġsharciy": 11898, "70": 11899, "ĠHack": 11900, "ĠHorn": 11901, "ated": 11902, "Baar": 11903, "Iska": 11904, "Ġislamarkaas": 11905, "Ġtaageeri": 11906, "Heshiis": 11907, "Ġwasaaradaha": 11908, "oodaan": 11909, "rr": 11910, "Ġagaasimay": 11911, "Tu": 11912, "Ġgartay": 11913, "Ġmiino": 11914, "Ġmarayay": 11915, "ĠMoot": 11916, "bari": 11917, "Ġfulisay": 11918, "Way": 11919, "Ġhaysay": 11920, "].": 11921, "Ġsite": 11922, "Maan": 11923, "IP": 11924, "ooyinkooda": 11925, "Wad": 11926, "BIX": 11927, "Ġlike": 11928, "ĠHiir": 11929, "Ġcunug": 11930, "Ġkhasab": 11931, "0000": 11932, "Ġdadkooda": 11933, "Ġqabsado": 11934, "Ġhowlgallo": 11935, "agsan": 11936, "SU": 11937, "ĠFulinta": 11938, "Wargeyska": 11939, "Ġav": 11940, "Ġkumeel": 11941, "Ġwaafaj": 11942, "Sannad": 11943, "Ġmaxalliga": 11944, "ĠKuf": 11945, "Ġmoor": 11946, "ssa": 11947, "Ġxumada": 11948, "ream": 11949, "Faa": 11950, "ult": 11951, "pport": 11952, "Ġtoddobaadkii": 11953, "ĠRaash": 11954, "Tabab": 11955, "ĠMarti": 11956, "Ġqirtay": 11957, "Ġrabtaa": 11958, "ĠTraf": 11959, "Ø·": 11960, "ĠSOMALILAND": 11961, "Ġhilibka": 11962, "Ġqaaliga": 11963, "Ġmudnaanta": 11964, "Ġhedduu": 11965, "shaxa": 11966, "Ġgoostay": 11967, "Madaxweynihii": 11968, "Ġeegno": 11969, "Cabdiraxmaan": 11970, "Itoobiya": 11971, "Ġdhaho": 11972, "agala": 11973, "ĠKhadar": 11974, "Kooxaha": 11975, "ĠVo": 11976, "ĠNuux": 11977, "Ġqoraalkan": 11978, "Ġwaraaqaha": 11979, "Ġfarr": 11980, "dadaas": 11981, "kulan": 11982, "Ġ120": 11983, "ĠSaturday": 11984, "haad": 11985, "ĠLuuq": 11986, "Ġhowlgala": 11987, "Ġgoobtii": 11988, "Ġmusharaxiinta": 11989, "hoos": 11990, "lanyo": 11991, "ĠFa": 11992, "ĠMagacaab": 11993, "Midowga": 11994, "Ġrakaab": 11995, "Ġhawo": 11996, "ht": 11997, "Madaxwayne": 11998, "Ġmarag": 11999, "aki": 12000, "Ġcaar": 12001, "Ġxanaaq": 12002, "ÄŁ": 12003, "Ġte": 12004, "Ġmaaddaama": 12005, "Ġmashquu": 12006, "orgor": 12007, "ĠAmeerika": 12008, "Ġlatest": 12009, "Ġwadashaq": 12010, "Ġhalga": 12011, "Ġdegdegga": 12012, "ĠVer": 12013, "IK": 12014, "ĠKhaliijka": 12015, "dhaa": 12016, "yin": 12017, "urnal": 12018, "Ġisin": 12019, "lamanka": 12020, "Ġsaara": 12021, "Ġdirir": 12022, "ĠWarbixinta": 12023, "Ġkaabayaasha": 12024, "ĠMali": 12025, "ĠBalan": 12026, "ĠAhlusunna": 12027, "Arsenal": 12028, "ĠKampala": 12029, "ĠGali": 12030, "Ġkhaf": 12031, "cow": 12032, "Ġood": 12033, "âŁ©,": 12034, "Ġkolba": 12035, "ĠBiir": 12036, "Ġsababi": 12037, "ĠIto": 12038, "Saac": 12039, "Ġimmoo": 12040, "Ġasxaabta": 12041, "Ġbilaaw": 12042, "ĠVideos": 12043, "ommunity": 12044, "Ã¶r": 12045, "Abwaan": 12046, "hakuur": 12047, "ĠBrit": 12048, "Ġbadbaadada": 12049, "iyaanka": 12050, "ĠØ³": 12051, "Ġnawaax": 12052, "Ø§Ùħ": 12053, "ĠHoggaam": 12054, "Ġatta": 12055, "Ġjeedisay": 12056, "ĠTanzania": 12057, "ĠDani": 12058, "ĠInternetka": 12059, "Ġhoggaamiye": 12060, "ĠThursday": 12061, "uminium": 12062, "Ð²": 12063, "Ġtilmaamo": 12064, "ĠXukuumaddu": 12065, "Ġtallaabooyinka": 12066, "rand": 12067, "Ġdhaadheer": 12068, "ĠLeave": 12069, "ĠLaw": 12070, "AYS": 12071, "Ġkhaatumo": 12072, "ĠQod": 12073, "ataax": 12074, "mida": 12075, "ĠYoonis": 12076, "Ġhorjoog": 12077, "ĠIlaalinta": 12078, "Ġwaaye": 12079, "pha": 12080, "ĠShabeelada": 12081, "jj": 12082, "Ġbarr": 12083, "ĠCadaaladda": 12084, "Ġgaraad": 12085, "ĠCirka": 12086, "Ø²": 12087, "ĠWadaha": 12088, "ĠGole": 12089, "Ġraacday": 12090, "tainment": 12091, "Ġeuro": 12092, "Ġmugdi": 12093, "Ġxalinta": 12094, "ĠFer": 12095, "Ġdabaq": 12096, "Ġxarumo": 12097, "ĠKordh": 12098, "ĠGabay": 12099, "Ġegtahay": 12100, "ĠTO": 12101, "heshiis": 12102, "FP": 12103, "Ġxeeb": 12104, "Ġalso": 12105, "dhigo": 12106, "Ġdoonayey": 12107, "ifaftir": 12108, "Ġhogaaminayay": 12109, "Ġcirib": 12110, "ĠMagaalo": 12111, "lii": 12112, "ĠKuma": 12113, "Ġwaal": 12114, "ateen": 12115, "Ġgarto": 12116, "Ġhubi": 12117, "Ò¯": 12118, "Ġxuduuda": 12119, "Ġlammaan": 12120, "toodii": 12121, "Ġnabadgelyo": 12122, "raph": 12123, "ĠInstagram": 12124, "ĠKanada": 12125, "Ġ2002": 12126, "madaasi": 12127, "Ġtallaabooyin": 12128, "ĠMana": 12129, "ĠIswiidhan": 12130, "Ġyari": 12131, "Ġmagaalaa": 12132, "laada": 12133, "agana": 12134, "ĠEver": 12135, "Ilo": 12136, "ANA": 12137, "ĠCala": 12138, "Ġfalka": 12139, "//": 12140, "oosan": 12141, "Cir": 12142, "Ġkoofur": 12143, "Ġneb": 12144, "ĠQaraxa": 12145, "ĠID": 12146, "Ġkugula": 12147, "earch": 12148, "vice": 12149, "Ġmidaysan": 12150, "ĠWaxan": 12151, "inst": 12152, "Ġogaadeen": 12153, "Ġxukuumad": 12154, "icester": 12155, "ĠNidaam": 12156, "eexaan": 12157, "Ġdheere": 12158, "Qaramada": 12159, "mund": 12160, "SD": 12161, "Ġxidid": 12162, "Ġbaahiyay": 12163, "Ġkaddibna": 12164, "Taariikhda": 12165, "Ġfilimada": 12166, "tockh": 12167, "EX": 12168, "Ġkartaan": 12169, "Jawaab": 12170, "Ġgabdho": 12171, "Ġ55": 12172, "Ġsugi": 12173, "Ġgudaheeda": 12174, "ĠKenyan": 12175, "Ġcarabka": 12176, "Ġsamaynayo": 12177, "osp": 12178, "Ġmurashax": 12179, "Ġnuuc": 12180, "UNTLAND": 12181, "Ġlihi": 12182, "Ġmusuqmaasuq": 12183, "ĠDhala": 12184, "Ġxasiloonida": 12185, "khad": 12186, "ĠBaad": 12187, "Ġgaadhin": 12188, "raxa": 12189, "Ġfadeex": 12190, "ĠKib": 12191, "Ġent": 12192, "ĠMashaariic": 12193, "Ġhaysaa": 12194, "?)": 12195, "ĠNolol": 12196, "ĠIllaahay": 12197, "isid": 12198, "Ġany": 12199, "Ġhurdo": 12200, "ĠQad": 12201, "ĠWaqtiga": 12202, "Ġmish": 12203, "ĠGuddoonka": 12204, "Ġkasoc": 12205, "Ġilaaliyaha": 12206, "ĠKe": 12207, "ĠGalaydh": 12208, "Ġhorayn": 12209, "Ġbadbaado": 12210, "ĠXFS": 12211, "Ġgogol": 12212, "Ġawoodin": 12213, "rough": 12214, "Runtii": 12215, "tha": 12216, "Ġraq": 12217, "Ġheshiisyo": 12218, "Ġdec": 12219, "Ġmasaajidka": 12220, "hid": 12221, "ilib": 12222, "Ġcha": 12223, "Suldaan": 12224, "ected": 12225, "Ġmb": 12226, "ĠCalaam": 12227, "ĠCenter": 12228, "Ġisbeddelka": 12229, "ĠDahir": 12230, "Ġsaraakii": 12231, "Ġbilaabmay": 12232, "Ġmarkhaati": 12233, "oomiyuhu": 12234, "lub": 12235, "doono": 12236, "ĠSyria": 12237, "Ġadkaaday": 12238, "Ġhabar": 12239, "Ġneceb": 12240, "Ġdey": 12241, "ĠGabadh": 12242, "Sir": 12243, "Ġdagaaladii": 12244, "aaladu": 12245, "ĠHormuud": 12246, "Ġmaamulaan": 12247, "ĠGaadiid": 12248, "Ġganacsade": 12249, "Ø§Ø¨": 12250, "ĠCos": 12251, "Ġkaalmo": 12252, "Ġwejiga": 12253, "Ġqun": 12254, "ĠHeerka": 12255, "ĠShare": 12256, "Ġbiya": 12257, "Ġtaliyay": 12258, "ĠPower": 12259, "Ġweydiis": 12260, "oyinka": 12261, "Ġsaha": 12262, "âĤ¬": 12263, "leeyahay": 12264, "ĠXubin": 12265, "iyadooda": 12266, "iiga": 12267, "ĠIsniinta": 12268, "Ġdanbayn": 12269, "oll": 12270, "ĠSport": 12271, "Ġbaaba": 12272, "Ġche": 12273, "ĠSYL": 12274, "Geeska": 12275, "sanayaa": 12276, "Ġtoddobaadkan": 12277, "mil": 12278, "uska": 12279, "Ġbillaabay": 12280, "Ġinjineer": 12281, "ĠBartamaha": 12282, "Ġfasaxa": 12283, "ĠMarx": 12284, "ĠTamar": 12285, "ĠIsgoyska": 12286, "iiqa": 12287, "ĠHO": 12288, "Ġeegayo": 12289, "Ex": 12290, "IX": 12291, "ocument": 12292, "ĠMagaalad": 12293, "Ġhubaa": 12294, "Ġsiyaad": 12295, "Ġgoolal": 12296, "ĠQabiil": 12297, "Ġmagaceeda": 12298, "ĠÑģ": 12299, "Ġgaa": 12300, "ĠWi": 12301, "Ġsafaar": 12302, "ĠDirir": 12303, "Ġgul": 12304, "ĠIsticmaalka": 12305, "Ġdhaabba": 12306, "Faysal": 12307, "riyay": 12308, "199": 12309, "Ġhoggaamiyaha": 12310, "Ġammaanay": 12311, "ĠDhalinyaro": 12312, "Cabdul": 12313, "raaca": 12314, "Da": 12315, "Ġdor": 12316, "abuurka": 12317, "niinka": 12318, "istii": 12319, "Ġidaacadda": 12320, "Ġdukaanka": 12321, "âĢĻ.": 12322, "ĠHeshiiskii": 12323, "Ġfayr": 12324, "Ġmaareynta": 12325, "Ġqoyskiisa": 12326, "ĠQorshe": 12327, "Ġiibinta": 12328, "Ġstr": 12329, "ĠKim": 12330, "Ġsiweyn": 12331, "ĠXogta": 12332, "Ġhoreysa": 12333, "ĠKasta": 12334, "Aan": 12335, "ĠAdis": 12336, "Ġkoritaanka": 12337, "Ġfun": 12338, "Ġdegmooyin": 12339, "Ġsadar": 12340, "ĠJubada": 12341, "Ġqareen": 12342, "Ġkaashanaya": 12343, "Ġgelisay": 12344, "Ġbet": 12345, "ĠOslo": 12346, "Ġnder": 12347, "Ġawal": 12348, "Ġxiisad": 12349, "Ġca": 12350, "Ġmushki": 12351, "ders": 12352, "ĠBlack": 12353, "ahaas": 12354, "hasaabka": 12355, "Ġoto": 12356, "Ġdhibic": 12357, "Ġdanbeyn": 12358, "ĠInaad": 12359, "Ġoog": 12360, "Ġmalayn": 12361, "Ġdhulkii": 12362, "ĠAmazon": 12363, "ĠNebi": 12364, "Ġwhich": 12365, "!.": 12366, "Ġabtir": 12367, "Ġbilaashka": 12368, "did": 12369, "Ġdhaweynta": 12370, "Ġxabsiyada": 12371, "Ġxaqiiqo": 12372, "Ġmuhiimada": 12373, "ĠUmadda": 12374, "Ġhowlo": 12375, "ĠHubka": 12376, "ĠYidhi": 12377, "Ġrabnaa": 12378, "Ġhordhac": 12379, "Ġfarmaajo": 12380, "Wariye": 12381, "Ġugaar": 12382, "Ġwareegaan": 12383, "ĠShirkad": 12384, "ĠJeneraal": 12385, "ĠQO": 12386, "Ġtidh": 12387, "BT": 12388, "Ġatt": 12389, "ĠAP": 12390, "Ġraadinaya": 12391, "New": 12392, "Ġweyne": 12393, "Ġtas": 12394, "ĠUR": 12395, "Trump": 12396, "Ras": 12397, "jiir": 12398, "ally": 12399, "ayayaanka": 12400, "ĠMadiina": 12401, "Ġlabadaas": 12402, "Mahad": 12403, "Ġgobalada": 12404, "ALL": 12405, "Qoraalka": 12406, "Maxamuud": 12407, "Ġafaraad": 12408, "Ġdhalaal": 12409, "Ġodayaal": 12410, "nia": 12411, "asc": 12412, "amuu": 12413, "Ġdareemi": 12414, "buun": 12415, "alo": 12416, "Ġmacaamiis": 12417, "Ninkii": 12418, "Ġtijaabo": 12419, "ashadiisa": 12420, "âĢ¦âĢĿ": 12421, "Ġsoosaar": 12422, "Ġwaqtigan": 12423, "acsan": 12424, "AALKA": 12425, "Ġwadamo": 12426, "ĠDhaqaale": 12427, "waana": 12428, "ĠðŁ": 12429, "Ġkansarka": 12430, "Ġexp": 12431, "Ġresp": 12432, "Ã¢": 12433, "mala": 12434, "Ġgabagabeeyay": 12435, "ĠMudo": 12436, "Ġdhaqaala": 12437, "rain": 12438, "Ġshareecada": 12439, "ĠBaahan": 12440, "oqooyi": 12441, "miya": 12442, "ĠFid": 12443, "Ġ47": 12444, "Ġisticmaalin": 12445, "Ġdr": 12446, "waxayna": 12447, "SOM": 12448, "ĠIslaamku": 12449, "ĠCamp": 12450, "69": 12451, "tockholm": 12452, "Dhis": 12453, "Ġadagtahay": 12454, "yaar": 12455, "heed": 12456, "Xas": 12457, "\".\"": 12458, "ĠSaad": 12459, "Ġwakaaladda": 12460, "Ġwareegi": 12461, "baca": 12462, "ĠSabti": 12463, "riend": 12464, "ĠInkastoo": 12465, "ĠMaamulada": 12466, "Ġmaarmaanka": 12467, ",,,": 12468, "Ġansixinta": 12469, "ĠImaaraatka": 12470, "Ġom": 12471, "Ġhaayo": 12472, "Ġdagaalku": 12473, "Nairobi": 12474, "ĠSaylac": 12475, "Ġworld": 12476, "Ġbeeka": 12477, "ĠCiidammada": 12478, "Ġtixgeli": 12479, "Ġsumcad": 12480, "aadkan": 12481, "Ġhaynta": 12482, "Ġqornaa": 12483, "Shaba": 12484, "Ġcodsatay": 12485, "Ġdayo": 12486, "Ġkhilaafaadka": 12487, "ĠAfrik": 12488, "laanka": 12489, "ĠSawirka": 12490, "lease": 12491, "ĠGalab": 12492, "ÙĦÙĬ": 12493, "Ġingiriiska": 12494, "Ġmasiib": 12495, "Day": 12496, "Ġjoogin": 12497, "Ġhunda": 12498, "Ġqiray": 12499, "ismaan": 12500, "eating": 12501, "Ġdamaanad": 12502, "Ġwaran": 12503, "Ġ42": 12504, "ĠAragtida": 12505, "Ġleague": 12506, "ĠTacliinta": 12507, "ĠCAB": 12508, "Ġansax": 12509, "Ġdep": 12510, "Ġsawirrada": 12511, "ĠDhacday": 12512, "ĠSafiir": 12513, "Ġqalbi": 12514, "Ġtime": 12515, "Ġkormeeray": 12516, "ĠTababarka": 12517, "dhaqaaqa": 12518, "Ġbixitaanka": 12519, "Ġref": 12520, "ĠBoqorka": 12521, "Ġkicin": 12522, "ium": 12523, "Ġked": 12524, "Ġduun": 12525, "Ġawoodo": 12526, "ĠHubaal": 12527, "Mogadishu": 12528, "aachuu": 12529, "Ġdhacdooyin": 12530, "Ġheyso": 12531, "Ġshahaado": 12532, "England": 12533, "Ġjadwalka": 12534, "cia": 12535, "Ġsy": 12536, "Tallaabada": 12537, "Ġlead": 12538, "ken": 12539, "Ġnaa": 12540, "ĠAirport": 12541, "mataa": 12542, "ĠItoophiyaa": 12543, "Ġkhuseeya": 12544, "Ġwaaj": 12545, "Ġqoreen": 12546, "chan": 12547, "word": 12548, "ĠSubax": 12549, "Id": 12550, "axman": 12551,
[...]
