{
  "version": "1.0",
  "truncation": null,
  "padding": null,
  "added_tokens": [
    {
      "id": 0,
      "content": "<unk>",
      "single_word": false,
      "lstrip": false,
      "rstrip": false,
      "normalized": false,
      "special": true
    },
    {
      "id": 1,
      "content": "[CLS]",
      "single_word": false,
      "lstrip": false,
      "rstrip": false,
      "normalized": false,
      "special": true
    },
    {
      "id": 2,
      "content": "[SEP]",
      "single_word": false,
      "lstrip": false,
      "rstrip": false,
      "normalized": false,
      "special": true
    },
    {
      "id": 3,
      "content": "<pad>",
      "single_word": false,
      "lstrip": false,
      "rstrip": false,
      "normalized": false,
      "special": true
    },
    {
      "id": 4,
      "content": "[MASK]",
      "single_word": false,
      "lstrip": false,
      "rstrip": false,
      "normalized": false,
      "special": true
    }
  ],
  "normalizer": {
    "type": "NFC"
  },
  "pre_tokenizer": {
    "type": "Whitespace"
  },
  "post_processor": null,
  "decoder": {
    "type": "BPEDecoder",
    "suffix": "</w>"
  },
  "model": {
    "type": "BPE",
    "dropout": null,
    "unk_token": "<unk>",
    "continuing_subword_prefix": null,
    "end_of_word_suffix": null,
    "fuse_unk": false,
    "byte_fallback": false,
    "ignore_merges": false,
    "vocab": {
      "<unk>": 0,
      "[CLS]": 1,
      "[SEP]": 2,
      "<pad>": 3,
      "[MASK]": 4,
      "!": 5,
      "\"": 6,
      "#": 7,
      "$": 8,
      "%": 9,
      "&": 10,
      "'": 11,
      "(": 12,
      ")": 13,
      "*": 14,
      "+": 15,
      ",": 16,
      "-": 17,
      ".": 18,
      "/": 19,
      "0": 20,
      "1": 21,
      "2": 22,
      "3": 23,
      "4": 24,
      "5": 25,
      "6": 26,
      "7": 27,
      "8": 28,
      "9": 29,
      ":": 30,
      ";": 31,
      "<": 32,
      "=": 33,
      ">": 34,
      "?": 35,
      "@": 36,
      "A": 37,
      "B": 38,
      "C": 39,
      "D": 40,
      "E": 41,
      "F": 42,
      "G": 43,
      "H": 44,
      "I": 45,
      "J": 46,
      "K": 47,
      "L": 48,
      "M": 49,
      "N": 50,
      "O": 51,
      "P": 52,
      "Q": 53,
      "R": 54,
      "S": 55,
      "T": 56,
      "U": 57,
      "V": 58,
      "W": 59,
      "X": 60,
      "Y": 61,
      "Z": 62,
      "[": 63,
      "\\": 64,
      "]": 65,
      "^": 66,
      "_": 67,
      "`": 68,
      "a": 69,
      "b": 70,
      "c": 71,
      "d": 72,
      "e": 73,
      "f": 74,
      "g": 75,
      "h": 76,
      "i": 77,
      "j": 78,
      "k": 79,
      "l": 80,
      "m": 81,
      "n": 82,
      "o": 83,
      "p": 84,
      "q": 85,
      "r": 86,
      "s": 87,
      "t": 88,
      "u": 89,
      "v": 90,
      "w": 91,
      "x": 92,
      "y": 93,
      "z": 94,
      "{": 95,
      "|": 96,
      "}": 97,
      "~": 98,
      "¡": 99,
      "¢": 100,
      "£": 101,
      "¤": 102,
      "¥": 103,
      "¦": 104,
      "§": 105,
      "¨": 106,
      "©": 107,
      "ª": 108,
      "«": 109,
      "¬": 110,
      "®": 111,
      "¯": 112,
      "°": 113,
      "±": 114,
      "²": 115,
      "³": 116,
      "´": 117,
      "µ": 118,
      "¶": 119,
      "·": 120,
      "¸": 121,
      "¹": 122,
      "º": 123,
      "»": 124,
      "¼": 125,
      "½": 126,
      "¾": 127,
      "¿": 128,
      "À": 129,
      "Á": 130,
      "Â": 131,
      "Ã": 132,
      "Ä": 133,
      "Å": 134,
      "Æ": 135,
      "Ç": 136,
      "È": 137,
      "É": 138,
      "Ê": 139,
      "Ë": 140,
      "Ì": 141,
      "Í": 142,
      "Î": 143,
      "Ï": 144,
      "Ð": 145,
      "Ñ": 146,
      "Ò": 147,
      "Ó": 148,
      "Ô": 149,
      "Õ": 150,
      "Ö": 151,
      "×": 152,
      "Ø": 153,
      "Ù": 154,
      "Ú": 155,
      "Û": 156,
      "Ü": 157,
      "Ý": 158,
      "Þ": 159,
      "ß": 160,
      "à": 161,
      "á": 162,
      "â": 163,
      "ã": 164,
      "ä": 165,
      "å": 166,
      "æ": 167,
      "ç": 168,
      "è": 169,
      "é": 170,
      "ê": 171,
      "ë": 172,
      "ì": 173,
      "í": 174,
      "î": 175,
      "ï": 176,
      "ð": 177,
      "ñ": 178,
      "ò": 179,
      "ó": 180,
      "ô": 181,
      "õ": 182,
      "ö": 183,
      "÷": 184,
      "ø": 185,
      "ù": 186,
      "ú": 187,
      "û": 188,
      "ü": 189,
      "ý": 190,
      "þ": 191,
      "ÿ": 192,
      "Ā": 193,
      "ā": 194,
      "Ă": 195,
      "ă": 196,
      "Ą": 197,
      "ą": 198,
      "Ć": 199,
      "ć": 200,
      "Ĉ": 201,
      "ĉ": 202,
      "Ċ": 203,
      "ċ": 204,
      "Č": 205,
      "č": 206,
      "Ď": 207,
      "ď": 208,
      "Đ": 209,
      "đ": 210,
      "Ē": 211,
      "ē": 212,
      "Ĕ": 213,
      "ĕ": 214,
      "Ė": 215,
      "ė": 216,
      "Ę": 217,
      "ę": 218,
      "Ě": 219,
      "ě": 220,
      "Ĝ": 221,
      "ĝ": 222,
      "Ğ": 223,
      "ğ": 224,
      "Ġ": 225,
      "ġ": 226,
      "Ģ": 227,
      "ģ": 228,
      "Ĥ": 229,
      "ĥ": 230,
      "Ħ": 231,
      "ħ": 232,
      "Ĩ": 233,
      "ĩ": 234,
      "Ī": 235,
      "ī": 236,
      "Ĭ": 237,
      "ĭ": 238,
      "Į": 239,
      "į": 240,
      "İ": 241,
      "ı": 242,
      "Ĵ": 243,
      "Ķ": 244,
      "ķ": 245,
      "Ĺ": 246,
      "ĺ": 247,
      "Ļ": 248,
      "ļ": 249,
      "Ľ": 250,
      "ľ": 251,
      "Ł": 252,
      "ł": 253,
      "Ń": 254,
      "ń": 255,
      "Ņ": 256,
      "ņ": 257,
      "Ň": 258,
      "ň": 259,
      "Ŋ": 260,
      "ŋ": 261,
      "Ō": 262,
      "ō": 263,
      "ŏ": 264,
      "Ő": 265,
      "ő": 266,
      "Œ": 267,
      "œ": 268,
      "Ŕ": 269,
      "ŕ": 270,
      "Ŗ": 271,
      "ŗ": 272,
      "Ř": 273,
      "ř": 274,
      "Ś": 275,
      "ś": 276,
      "Ŝ": 277,
      "ŝ": 278,
      "Ş": 279,
      "ş": 280,
      "Š": 281,
      "š": 282,
      "ţ": 283,
      "Ť": 284,
      "ť": 285,
      "ŧ": 286,
      "Ũ": 287,
      "ũ": 288,
      "Ū": 289,
      "ū": 290,
      "ŭ": 291,
      "Ů": 292,
      "ů": 293,
      "Ű": 294,
      "ű": 295,
      "Ų": 296,
      "ų": 297,
      "Ŵ": 298,
      "ŵ": 299,
      "Ŷ": 300,
      "ŷ": 301,
      "Ÿ": 302,
      "Ź": 303,
      "ź": 304,
      "Ż": 305,
      "ż": 306,
      "Ž": 307,
      "ž": 308,
      "Ɓ": 309,
      "Ƃ": 310,
      "ƃ": 311,
      "Ƅ": 312,
      "ƅ": 313,
      "Ɔ": 314,
      "ƈ": 315,
      "Ɖ": 316,
      "Ɗ": 317,
      "Ƌ": 318,
      "ƌ": 319,
      "Ə": 320,
      "Ɛ": 321,
      "Ƒ": 322,
      "ƒ": 323,
      "Ɠ": 324,
      "Ɣ": 325,
      "Ƙ": 326,
      "ƙ": 327,
      "Ɲ": 328,
      "Ɵ": 329,
      "Ơ": 330,
      "ơ": 331,
      "Ƥ": 332,
      "ƥ": 333,
      "Ʀ": 334,
      "ƨ": 335,
      "Ʃ": 336,
      "Ƭ": 337,
      "ƭ": 338,
      "Ư": 339,
      "ư": 340,
      "Ʊ": 341,
      "Ƴ": 342,
      "ƴ": 343,
      "ƶ": 344,
      "Ʒ": 345,
      "Ƹ": 346,
      "ǀ": 347,
      "ǁ": 348,
      "ǂ": 349,
      "ǃ": 350,
      "Ǉ": 351,
      "ǌ": 352,
      "ǎ": 353,
      "Ǐ": 354,
      "ǐ": 355,
      "ǒ": 356,
      "ǔ": 357,
      "ǖ": 358,
      "ǚ": 359,
      "ǝ": 360,
      "ǟ": 361,
      "ǣ": 362,
      "ǥ": 363,
      "Ǧ": 364,
      "ǧ": 365,
      "ǩ": 366,
      "ǫ": 367,
      "ǯ": 368,
      "ǻ": 369,
      "Ǿ": 370,
      "ǿ": 371,
      "ȓ": 372,
      "Ș": 373,
      "ș": 374,
      "Ț": 375,
      "ț": 376,
      "ȟ": 377,
      "ȧ": 378,
      "ȳ": 379,
      "ȶ": 380,
      "ȷ": 381,
      "Ɂ": 382,
      "Ʉ": 383,
      "Ʌ": 384,
      "Ɇ": 385,
      "ɋ": 386,
      "Ɏ": 387,
      "ɐ": 388,
      "ɑ": 389,
      "ɒ": 390,
      "ɓ": 391,
      "ɔ": 392,
      "ɕ": 393,
      "ɖ": 394,
      "ɗ": 395,
      "ɘ": 396,
      "ə": 397,
      "ɚ": 398,
      "ɛ": 399,
      "ɜ": 400,
      "ɟ": 401,
      "ɡ": 402,
      "ɢ": 403,
      "ɣ": 404,
      "ɥ": 405,
      "ɦ": 406,
      "ɨ": 407,
      "ɩ": 408,
      "ɪ": 409,
      "ɫ": 410,
      "ɬ": 411,
      "ɭ": 412,
      "ɮ": 413,
      "ɯ": 414,
      "ɰ": 415,
      "ɱ": 416,
      "ɲ": 417,
      "ɳ": 418,
      "ɴ": 419,
      "ɵ": 420,
      "ɹ": 421,
      "ɻ": 422,
      "ɽ": 423,
      "ɾ": 424,
      "ʀ": 425,
      "ʁ": 426,
      "ʂ": 427,
      "ʃ": 428,
      "ʄ": 429,
      "ʇ": 430,
      "ʉ": 431,
      "ʊ": 432,
      "ʋ": 433,
      "ʌ": 434,
      "ʍ": 435,
      "ʎ": 436,
      "ʏ": 437,
      "ʐ": 438,
      "ʑ": 439,
      "ʒ": 440,
      "ʓ": 441,
      "ʔ": 442,
      "ʕ": 443,
      "ʙ": 444,
      "ʜ": 445,
      "ʝ": 446,
      "ʞ": 447,
      "ʟ": 448,
      "ʠ": 449,
      "ʭ": 450,
      "ʰ": 451,
      "ʱ": 452,
      "ʲ": 453,
      "ʹ": 454,
      "ʺ": 455,
      "ʻ": 456,
      "ʼ": 457,
      "ʽ": 458,
      "ʾ": 459,
      "ʿ": 460,
      "˂": 461,
      "˃": 462,
      "˄": 463,
      "˅": 464,
      "ˆ": 465,
      "ˇ": 466,
      "ˈ": 467,
      "ˉ": 468,
      "ˊ": 469,
      "ˌ": 470,
      "ˍ": 471,
      "ː": 472,
      "ˑ": 473,
      "˘": 474,
      "˙": 475,
      "˚": 476,
      "˛": 477,
      "˜": 478,
      "˝": 479,
      "ˡ": 480,
      "ˤ": 481,
      "˧": 482,
      "˨": 483,
      "˩": 484,
      "˴": 485,
      "˵": 486,
      "˷": 487,
      "̀": 488,
      "́": 489,
      "̂": 490,
      "̃": 491,
      "̄": 492,
      "̆": 493,
      "̇": 494,
      "̊": 495,
      "̌": 496,
      "̡": 497,
      "̣": 498,
      "̤": 499,
      "̧": 500,
      "̨": 501,
      "̩": 502,
      "̪": 503,
      "̫": 504,
      "̬": 505,
      "̮": 506,
      "̯": 507,
      "̰": 508,
      "̱": 509,
      "̲": 510,
      "̴": 511,
      "̵": 512,
      "̶": 513,
      "̷": 514,
      "̽": 515,
      "͈": 516,
      "͗": 517,
      "͘": 518,
      "͠": 519,
      "͡": 520,
      "͸": 521,
      "ͺ": 522,
      "ͻ": 523,
      "΄": 524,
      "Ά": 525,
      "Έ": 526,
      "Ί": 527,
      "Ό": 528,
      "Ύ": 529,
      "Ώ": 530,
      "ΐ": 531,
      "Α": 532,
      "Β": 533,
      "Γ": 534,
      "Δ": 535,
      "Ε": 536,
      "Η": 537,
      "Θ": 538,
      "Ι": 539,
      "Κ": 540,
      "Λ": 541,
      "Μ": 542,
      "Ν": 543,
      "Ξ": 544,
      "Ο": 545,
      "Π": 546,
      "Ρ": 547,
      "Σ": 548,
      "Τ": 549,
      "Υ": 550,
      "Φ": 551,
      "Χ": 552,
      "Ψ": 553,
      "Ω": 554,
      "Ϊ": 555,
      "ά": 556,
      "έ": 557,
      "ή": 558,
      "ί": 559,
      "ΰ": 560,
      "α": 561,
      "β": 562,
      "γ": 563,
      "δ": 564,
      "ε": 565,
      "ζ": 566,
      "η": 567,
      "θ": 568,
      "ι": 569,
      "κ": 570,
      "λ": 571,
      "μ": 572,
      "ν": 573,
      "ξ": 574,
      "ο": 575,
      "π": 576,
      "ρ": 577,
      "ς": 578,
      "σ": 579,
      "τ": 580,
      "υ": 581,
      "φ": 582,
      "χ": 583,
      "ψ": 584,
      "ω": 585,
      "ϊ": 586,
      "ϋ": 587,
      "ό": 588,
      "ύ": 589,
      "ώ": 590,
      "ϐ": 591,
      "ϑ": 592,
      "ϒ": 593,
      "ϕ": 594,
      "ϖ": 595,
      "Ϝ": 596,
      "ϣ": 597,
      "Ϩ": 598,
      "ϫ": 599,
      "ϭ": 600,
      "ϯ": 601,
      "ϰ": 602,
      "ϲ": 603,
      "ϳ": 604,
      "ϵ": 605,
      "Ϲ": 606,
      "Ё": 607,
      "Ђ": 608,
      "Ѓ": 609,
      "Є": 610,
      "Ѕ": 611,
      "І": 612,
      "Ї": 613,
      "Ј": 614,
      "Љ": 615,
      "Њ": 616,
      "Ћ": 617,
      "Ќ": 618,
      "Ў": 619,
      "Џ": 620,
      "А": 621,
      "Б": 622,
      "В": 623,
      "Г": 624,
      "Д": 625,
      "Е": 626,
      "Ж": 627,
      "З": 628,
      "И": 629,
      "Й": 630,
      "К": 631,
      "Л": 632,
      "М": 633,
      "Н": 634,
      "О": 635,
      "П": 636,
      "Р": 637,
      "С": 638,
      "Т": 639,
      "У": 640,
      "Ф": 641,
      "Х": 642,
      "Ц": 643,
      "Ч": 644,
      "Ш": 645,
      "Щ": 646,
      "Ъ": 647,
      "Ы": 648,
      "Ь": 649,
      "Э": 650,
      "Ю": 651,
      "Я": 652,
      "а": 653,
      "б": 654,
      "в": 655,
      "г": 656,
      "д": 657,
      "е": 658,
      "ж": 659,
      "з": 660,
      "и": 661,
      "й": 662,
      "к": 663,
      "л": 664,
      "м": 665,
      "н": 666,
      "о": 667,
      "п": 668,
      "р": 669,
      "с": 670,
      "т": 671,
      "у": 672,
      "ф": 673,
      "х": 674,
      "ц": 675,
      "ч": 676,
      "ш": 677,
      "щ": 678,
      "ъ": 679,
      "ы": 680,
      "ь": 681,
      "э": 682,
      "ю": 683,
      "я": 684,
      "ё": 685,
      "ђ": 686,
      "ѓ": 687,
      "є": 688,
      "ѕ": 689,
      "і": 690,
      "ї": 691,
      "ј": 692,
      "љ": 693,
      "њ": 694,
      "ћ": 695,
      "ќ": 696,
      "ў": 697,
      "џ": 698,
      "ѡ": 699,
      "ѣ": 700,
      "Ѧ": 701,
      "ѧ": 702,
      "Ѫ": 703,
      "Ѳ": 704,
      "ѳ": 705,
      "Ѵ": 706,
      "ѵ": 707,
      "ѻ": 708,
      "Ҁ": 709,
      "҈": 710,
      "ҋ": 711,
      "Ґ": 712,
      "ґ": 713,
      "Ғ": 714,
      "ғ": 715,
      "ҕ": 716,
      "Ҙ": 717,
      "Қ": 718,
      "қ": 719,
      "Ҝ": 720,
      "ҝ": 721,
      "ҟ": 722,
      "ҡ": 723,
      "Ң": 724,
      "ң": 725,
      "ҧ": 726,
      "Ҩ": 727,
      "ҫ": 728,
      "ҭ": 729,
      "Ү": 730,
      "ү": 731,
      "Ұ": 732,
      "ұ": 733,
      "Ҳ": 734,
      "ҳ": 735,
      "ҵ": 736,
      "Ҷ": 737,
      "ҷ": 738,
      "Ҹ": 739,
      "Һ": 740,
      "һ": 741,
      "Ҽ": 742,
      "ҽ": 743,
      "Ӏ": 744,
      "Ӂ": 745,
      "ӄ": 746,
      "Ӈ": 747,
      "ӏ": 748,
      "ӑ": 749,
      "ӗ": 750,
      "Ә": 751,
      "ә": 752,
      "Ӝ": 753,
      "ӡ": 754,
      "ӣ": 755,
      "Ө": 756,
      "ө": 757,
      "ӯ": 758,
      "ӳ": 759,
      "ӹ": 760,
      "Ӽ": 761,
      "Ӿ": 762,
      "ӿ": 763,
      "Ԁ": 764,
      "ԁ": 765,
      "Ԍ": 766,
      "ԛ": 767,
      "Ԝ": 768,
      "ԝ": 769,
      "Ա": 770,
      "Բ": 771,
      "Գ": 772,
      "Դ": 773,
      "Ե": 774,
      "Զ": 775,
      "Է": 776,
      "Թ": 777,
      "Ժ": 778,
      "Ի": 779,
      "Լ": 780,
      "Խ": 781,
      "Ծ": 782,
      "Կ": 783,
      "Հ": 784,
      "Ձ": 785,
      "Ճ": 786,
      "Մ": 787,
      "Յ": 788,
      "Ն": 789,
      "Շ": 790,
      "Ո": 791,
      "Չ": 792,
      "Պ": 793,
      "Ռ": 794,
      "Ս": 795,
      "Վ": 796,
      "Տ": 797,
      "Ր": 798,
      "Փ": 799,
      "Ք": 800,
      "Օ": 801,
      "Ֆ": 802,
      "՛": 803,
      "՝": 804,
      "՞": 805,
      "ա": 806,
      "բ": 807,
      "գ": 808,
      "դ": 809,
      "ե": 810,
      "զ": 811,
      "է": 812,
      "ը": 813,
      "թ": 814,
      "ժ": 815,
      "ի": 816,
      "լ": 817,
      "խ": 818,
      "ծ": 819,
      "կ": 820,
      "հ": 821,
      "ձ": 822,
      "ղ": 823,
      "ճ": 824,
      "մ": 825,
      "յ": 826,
      "ն": 827,
      "շ": 828,
      "ո": 829,
      "չ": 830,
      "պ": 831,
      "ջ": 832,
      "ռ": 833,
      "ս": 834,
      "վ": 835,
      "տ": 836,
      "ր": 837,
      "ց": 838,
      "ւ": 839,
      "փ": 840,
      "ք": 841,
      "օ": 842,
      "ֆ": 843,
      "և": 844,
      "֏": 845,
      "ְ": 846,
      "ֲ": 847,
      "ֳ": 848,
      "ִ": 849,
      "ֵ": 850,
      "ֶ": 851,
      "ַ": 852,
      "ָ": 853,
      "ֹ": 854,
      "ֻ": 855,
      "ּ": 856,
      "ֽ": 857,
      "ֿ": 858,
      "ׁ": 859,
      "ׂ": 860,
      "׃": 861,
      "א": 862,
      "ב": 863,
      "ג": 864,
      "ד": 865,
      "ה": 866,
      "ו": 867,
      "ז": 868,
      "ח": 869,
      "ט": 870,
      "י": 871,
      "ך": 872,
      "כ": 873,
      "ל": 874,
      "ם": 875,
      "מ": 876,
      "ן": 877,
      "נ": 878,
      "ס": 879,
      "ע": 880,
      "ף": 881,
      "פ": 882,
      "ץ": 883,
      "צ": 884,
      "ק": 885,
      "ר": 886,
      "ש": 887,
      "ת": 888,
      "؂": 889,
      "؋": 890,
      "،": 891,
      "؍": 892,
      "ؐ": 893,
      "ؑ": 894,
      "ؒ": 895,
      "ؓ": 896,
      "ؔ": 897,
      "ؕ": 898,
      "؛": 899,
      "؟": 900,
      "ء": 901,
      "آ": 902,
      "أ": 903,
      "ؤ": 904,
      "إ": 905,
      "ئ": 906,
      "ا": 907,
      "ب": 908,
      "ة": 909,
      "ت": 910,
      "ث": 911,
      "ج": 912,
      "ح": 913,
      "خ": 914,
      "د": 915,
      "ذ": 916,
      "ر": 917,
      "ز": 918,
      "س": 919,
      "ش": 920,
      "ص": 921,
      "ض": 922,
      "ط": 923,
      "ظ": 924,
      "ع": 925,
      "غ": 926,
      "ػ": 927,
      "ؼ": 928,
      "ـ": 929,
      "ف": 930,
      "ق": 931,
      "ك": 932,
      "ل": 933,
      "م": 934,
      "ن": 935,
      "ه": 936,
      "و": 937,
      "ى": 938,
      "ي": 939,
      "ً": 940,
      "ٌ": 941,
      "ٍ": 942,
      "َ": 943,
      "ُ": 944,
      "ِ": 945,
      "ّ": 946,
      "ْ": 947,
      "ٓ": 948,
      "ٔ": 949,
      "ٕ": 950,
      "ٖ": 951,
      "ٗ": 952,
      "٘": 953,
      "ٙ": 954,
      "ٚ": 955,
      "ٛ": 956,
      "ٜ": 957,
      "ٝ": 958,
      "ٞ": 959,
      "ٟ": 960,
      "٠": 961,
      "١": 962,
      "٢": 963,
      "٣": 964,
      "٤": 965,
      "٥": 966,
      "٦": 967,
      "٧": 968,
      "٨": 969,
      "٩": 970,
      "٪": 971,
      "٬": 972,
      "٭": 973,
      "ٮ": 974,
      "ٰ": 975,
      "ٱ": 976,
      "ٲ": 977,
      "ٳ": 978,
      "ٴ": 979,
      "ٶ": 980,
      "ٸ": 981,
      "ٹ": 982,
      "ټ": 983,
      "پ": 984,
      "ٿ": 985,
      "ځ": 986,
      "څ": 987,
      "چ": 988,
      "ڈ": 989,
      "ډ": 990,
      "ڊ": 991,
      "ڌ": 992,
      "ڍ": 993,
      "ڑ": 994,
      "ړ": 995,
      "ڕ": 996,
      "ږ": 997,
      "ژ": 998,
      "ڙ": 999,
      "ښ": 1000,
      "ڤ": 1001,
      "ک": 1002,
      "ڪ": 1003,
      "ګ": 1004,
      "ڭ": 1005,
      "گ": 1006,
      "ڵ": 1007,
      "ں": 1008,
      "ڼ": 1009,
      "ھ": 1010,
      "ۀ": 1011,
      "ہ": 1012,
      "ۂ": 1013,
      "ۃ": 1014,
      "ۆ": 1015,
      "ۇ": 1016,
      "ۈ": 1017,
      "ۊ": 1018,
      "ۋ": 1019,
      "ی": 1020,
      "ۍ": 1021,
      "ێ": 1022,
      "ې": 1023,
      "ے": 1024,
      "ۓ": 1025,
      "۔": 1026,
      "ە": 1027,
      "ۖ": 1028,
      "ۗ": 1029,
      "ۘ": 1030,
      "ۙ": 1031,
      "ۚ": 1032,
      "ۛ": 1033,
      "ۜ": 1034,
      "۝": 1035,
      "۞": 1036,
      "۟": 1037,
      "۠": 1038,
      "ۡ": 1039,
      "ۢ": 1040,
      "ۣ": 1041,
      "ۤ": 1042,
      "ۥ": 1043,
      "ۦ": 1044,
      "ۧ": 1045,
      "ۨ": 1046,
      "۩": 1047,
      "۪": 1048,
      "۫": 1049,
      "۬": 1050,
      "ۭ": 1051,
      "۰": 1052,
      "۱": 1053,
      "۲": 1054,
      "۳": 1055,
      "۴": 1056,
      "۵": 1057,
      "۶": 1058,
      "۷": 1059,
      "۸": 1060,
      "۹": 1061,
      "ܐ": 1062,
      "ܒ": 1063,
      "ܔ": 1064,
      "ܕ": 1065,
      "ܗ": 1066,
      "ܘ": 1067,
      "ܚ": 1068,
      "ܛ": 1069,
      "ܝ": 1070,
      "ܠ": 1071,
      "ܡ": 1072,
      "ܢ": 1073,
      "ܣ": 1074,
      "ܤ": 1075,
      "ܦ": 1076,
      "ܨ": 1077,
      "ܩ": 1078,
      "ܪ": 1079,
      "ܫ": 1080,
      "ܬ": 1081,
      "ܲ": 1082,
      "ݡ": 1083,
      "ݥ": 1084,
      "ݫ": 1085,
      "ݱ": 1086,
      "ހ": 1087,
      "ރ": 1088,
      "ބ": 1089,
      "ޅ": 1090,
      "ވ": 1091,
      "މ": 1092,
      "ދ": 1093,
      "ސ": 1094,
      "ޣ": 1095,
      "ަ": 1096,
      "ި": 1097,
      "ެ": 1098,
      "ް": 1099,
      "ߋ": 1100,
      "ߗ": 1101,
      "ߣ": 1102,
      "ߨ": 1103,
      "߶": 1104,
      "߸": 1105,
      "ࣖ": 1106,
      "ࣰ": 1107,
      "ऀ": 1108,
      "ँ": 1109,
      "ं": 1110,
      "ः": 1111,
      "अ": 1112,
      "आ": 1113,
      "इ": 1114,
      "ई": 1115,
      "उ": 1116,
      "ऊ": 1117,
      "ऋ": 1118,
      "ऍ": 1119,
      "ए": 1120,
      "ऐ": 1121,
      "ऑ": 1122,
      "ऒ": 1123,
      "ओ": 1124,
      "औ": 1125,
      "क": 1126,
      "ख": 1127,
      "ग": 1128,
      "घ": 1129,
      "ङ": 1130,
      "च": 1131,
      "छ": 1132,
      "ज": 1133,
      "झ": 1134,
      "ञ": 1135,
      "ट": 1136,
      "ठ": 1137,
      "ड": 1138,
      "ढ": 1139,
      "ण": 1140,
      "त": 1141,
      "थ": 1142,
      "द": 1143,
      "ध": 1144,
      "न": 1145,
      "ऩ": 1146,
      "प": 1147,
      "फ": 1148,
      "ब": 1149,
      "भ": 1150,
      "म": 1151,
      "य": 1152,
      "र": 1153,
      "ऱ": 1154,
      "ल": 1155,
      "ळ": 1156,
      "ऴ": 1157,
      "व": 1158,
      "श": 1159,
      "ष": 1160,
      "स": 1161,
      "ह": 1162,
      "ऺ": 1163,
      "़": 1164,
      "ा": 1165,
      "ि": 1166,
      "ी": 1167,
      "ु": 1168,
      "ू": 1169,
      "ृ": 1170,
      "ॅ": 1171,
      "ॆ": 1172,
      "े": 1173,
      "ै": 1174,
      "ॉ": 1175,
      "ो": 1176,
      "ौ": 1177,
      "्": 1178,
      "ॐ": 1179,
      "॒": 1180,
      "ॣ": 1181,
      "।": 1182,
      "॥": 1183,
      "०": 1184,
      "१": 1185,
      "२": 1186,
      "३": 1187,
      "४": 1188,
      "५": 1189,
      "६": 1190,
      "७": 1191,
      "८": 1192,
      "९": 1193,
      "॰": 1194,
      "ঁ": 1195,
      "ং": 1196,
      "ঃ": 1197,
      "অ": 1198,
      "আ": 1199,
      "ই": 1200,
      "ঈ": 1201,
      "উ": 1202,
      "এ": 1203,
      "ঐ": 1204,
      "ও": 1205,
      "ঔ": 1206,
      "ক": 1207,
      "খ": 1208,
      "গ": 1209,
      "ঘ": 1210,
      "ঙ": 1211,
      "চ": 1212,
      "ছ": 1213,
      "জ": 1214,
      "ঝ": 1215,
      "ঞ": 1216,
      "ট": 1217,
      "ঠ": 1218,
      "ড": 1219,
      "ঢ": 1220,
      "ণ": 1221,
      "ত": 1222,
      "থ": 1223,
      "দ": 1224,
      "ধ": 1225,
      "ন": 1226,
      "প": 1227,
      "ফ": 1228,
      "ব": 1229,
      "ভ": 1230,
      "ম": 1231,
      "য": 1232,
      "র": 1233,
      "ল": 1234,
      "শ": 1235,
      "ষ": 1236,
      "স": 1237,
      "হ": 1238,
      "়": 1239,
      "া": 1240,
      "ি": 1241,
      "ী": 1242,
      "ু": 1243,
      "ূ": 1244,
      "ৃ": 1245,
      "ে": 1246,
      "ৈ": 1247,
      "ো": 1248,
      "ৌ": 1249,
      "্": 1250,
      "ৎ": 1251,
      "ৣ": 1252,
      "০": 1253,
      "১": 1254,
      "২": 1255,
      "৩": 1256,
      "৫": 1257,
      "৮": 1258,
      "৯": 1259,
      "ৰ": 1260,
      "৳": 1261,
      "ਂ": 1262,
      "ਅ": 1263,
      "ਆ": 1264,
      "ਇ": 1265,
      "ਈ": 1266,
      "ਉ": 1267,
      "ਊ": 1268,
      "ਏ": 1269,
      "ਐ": 1270,
      "ਓ": 1271,
      "ਕ": 1272,
      "ਖ": 1273,
      "ਗ": 1274,
      "ਘ": 1275,
      "ਚ": 1276,
      "ਛ": 1277,
      "ਜ": 1278,
      "ਝ": 1279,
      "ਟ": 1280,
      "ਠ": 1281,
      "ਡ": 1282,
      "ਣ": 1283,
      "ਤ": 1284,
      "ਥ": 1285,
      "ਦ": 1286,
      "ਧ": 1287,
      "ਨ": 1288,
      "ਪ": 1289,
      "ਫ": 1290,
      "ਬ": 1291,
      "ਭ": 1292,
      "ਮ": 1293,
      "ਯ": 1294,
      "ਰ": 1295,
      "ਲ": 1296,
      "ਵ": 1297,
      "ਸ": 1298,
      "ਹ": 1299,
      "਼": 1300,
      "ਾ": 1301,
      "ਿ": 1302,
      "ੀ": 1303,
      "ੁ": 1304,
      "ੂ": 1305,
      "ੇ": 1306,
      "ੈ": 1307,
      "ੋ": 1308,
      "ੌ": 1309,
      "੍": 1310,
      "ੜ": 1311,
      "੧": 1312,
      "੪": 1313,
      "੯": 1314,
      "ੰ": 1315,
      "ੱ": 1316,
      "ੳ": 1317,
      "ੴ": 1318,
      "ં": 1319,
      "અ": 1320,
      "આ": 1321,
      "ઇ": 1322,
      "ઈ": 1323,
      "ઉ": 1324,
      "એ": 1325,
      "ઓ": 1326,
      "ક": 1327,
      "ખ": 1328,
      "ગ": 1329,
      "ઘ": 1330,
      "ચ": 1331,
      "છ": 1332,
      "જ": 1333,
      "ઝ": 1334,
      "ઞ": 1335,
      "ટ": 1336,
      "ઠ": 1337,
      "ડ": 1338,
      "ઢ": 1339,
      "ણ": 1340,
      "ત": 1341,
      "થ": 1342,
      "દ": 1343,
      "ધ": 1344,
      "ન": 1345,
      "પ": 1346,
      "ફ": 1347,
      "બ": 1348,
      "ભ": 1349,
      "મ": 1350,
      "ય": 1351,
      "ર": 1352,
      "લ": 1353,
      "ળ": 1354,
      "વ": 1355,
      "શ": 1356,
      "ષ": 1357,
      "સ": 1358,
      "હ": 1359,
      "ા": 1360,
      "િ": 1361,
      "ી": 1362,
      "ુ": 1363,
      "ૂ": 1364,
      "ૃ": 1365,
      "ૅ": 1366,
      "ે": 1367,
      "ૈ": 1368,
      "ૉ": 1369,
      "ો": 1370,
      "ૌ": 1371,
      "્": 1372,
      "ૐ": 1373,
      "૚": 1374,
      "૮": 1375,
      "ଁ": 1376,
      "ଅ": 1377,
      "ଆ": 1378,
      "ଉ": 1379,
      "ଓ": 1380,
      "କ": 1381,
      "ଗ": 1382,
      "ଜ": 1383,
      "ଡ": 1384,
      "ତ": 1385,
      "ପ": 1386,
      "ଫ": 1387,
      "ଭ": 1388,
      "ର": 1389,
      "ଲ": 1390,
      "ସ": 1391,
      "ହ": 1392,
      "଼": 1393,
      "ା": 1394,
      "ି": 1395,
      "ୀ": 1396,
      "ୁ": 1397,
      "େ": 1398,
      "ୟ": 1399,
      "ஃ": 1400,
      "அ": 1401,
      "ஆ": 1402,
      "இ": 1403,
      "ஈ": 1404,
      "உ": 1405,
      "ஊ": 1406,
      "எ": 1407,
      "ஏ": 1408,
      "ஐ": 1409,
      "ஒ": 1410,
      "ஓ": 1411,
      "க": 1412,
      "ங": 1413,
      "ச": 1414,
      "ஜ": 1415,
      "ஞ": 1416,
      "ட": 1417,
      "ண": 1418,
      "த": 1419,
      "ந": 1420,
      "ன": 1421,
      "ப": 1422,
      "ம": 1423,
      "ய": 1424,
      "ர": 1425,
      "ற": 1426,
      "ல": 1427,
      "ள": 1428,
      "ழ": 1429,
      "வ": 1430,
      "ஷ": 1431,
      "ஸ": 1432,
      "ஹ": 1433,
      "ா": 1434,
      "ி": 1435,
      "ீ": 1436,
      "ு": 1437,
      "ூ": 1438,
      "ெ": 1439,
      "ே": 1440,
      "ை": 1441,
      "ொ": 1442,
      "ோ": 1443,
      "்": 1444,
      "௨": 1445,
      "௰": 1446,
      "ం": 1447,
      "అ": 1448,
      "ఆ": 1449,
      "ఇ": 1450,
      "ఈ": 1451,
      "ఉ": 1452,
      "ఋ": 1453,
      "ఎ": 1454,
      "ఏ": 1455,
      "ఐ": 1456,
      "ఒ": 1457,
      "ఓ": 1458,
      "క": 1459,
      "ఖ": 1460,
      "గ": 1461,
      "ఘ": 1462,
      "చ": 1463,
      "ఛ": 1464,
      "జ": 1465,
      "ట": 1466,
      "డ": 1467,
      "ణ": 1468,
      "త": 1469,
      "థ": 1470,
      "ద": 1471,
      "ధ": 1472,
      "న": 1473,
      "ప": 1474,
      "ఫ": 1475,
      "బ": 1476,
      "భ": 1477,
      "మ": 1478,
      "య": 1479,
      "ర": 1480,
      "ల": 1481,
      "ళ": 1482,
      "వ": 1483,
      "శ": 1484,
      "ష": 1485,
      "స": 1486,
      "హ": 1487,
      "ా": 1488,
      "ి": 1489,
      "ీ": 1490,
      "ు": 1491,
      "ూ": 1492,
      "ృ": 1493,
      "ె": 1494,
      "ే": 1495,
      "ై": 1496,
      "ొ": 1497,
      "ో": 1498,
      "ౌ": 1499,
      "్": 1500,
      "౨": 1501,
      "ಂ": 1502,
      "ಅ": 1503,
      "ಆ": 1504,
      "ಇ": 1505,
      "ಈ": 1506,
      "ಉ": 1507,
      "ಋ": 1508,
      "ಎ": 1509,
      "ಏ": 1510,
      "ಐ": 1511,
      "ಒ": 1512,
      "ಓ": 1513,
      "ಕ": 1514,
      "ಖ": 1515,
      "ಗ": 1516,
      "ಘ": 1517,
      "ಚ": 1518,
      "ಜ": 1519,
      "ಟ": 1520,
      "ಠ": 1521,
      "ಡ": 1522,
      "ಣ": 1523,
      "ತ": 1524,
      "ಥ": 1525,
      "ದ": 1526,
      "ಧ": 1527,
      "ನ": 1528,
      "ಪ": 1529,
      "ಫ": 1530,
      "ಬ": 1531,
      "ಭ": 1532,
      "ಮ": 1533,
      "ಯ": 1534,
      "ರ": 1535,
      "ಲ": 1536,
      "ಳ": 1537,
      "ವ": 1538,
      "ಶ": 1539,
      "ಷ": 1540,
      "ಸ": 1541,
      "ಹ": 1542,
      "ಾ": 1543,
      "ಿ": 1544,
      "ೀ": 1545,
      "ು": 1546,
      "ೂ": 1547,
      "ೃ": 1548,
      "ೆ": 1549,
      "ೇ": 1550,
      "ೈ": 1551,
      "ೊ": 1552,
      "ೋ": 1553,
      "ೌ": 1554,
      "್": 1555,
      "ം": 1556,
      "അ": 1557,
      "ആ": 1558,
      "ഇ": 1559,
      "ഈ": 1560,
      "ഉ": 1561,
      "എ": 1562,
      "ക": 1563,
      "ഖ": 1564,
      "ഗ": 1565,
      "ങ": 1566,
      "ച": 1567,
      "ജ": 1568,
      "ഞ": 1569,
      "ട": 1570,
      "ഡ": 1571,
      "ണ": 1572,
      "ത": 1573,
      "ഥ": 1574,
      "ദ": 1575,
      "ധ": 1576,
      "ന": 1577,
      "പ": 1578,
      "ഫ": 1579,
      "ബ": 1580,
      "മ": 1581,
      "യ": 1582,
      "ര": 1583,
      "റ": 1584,
      "ല": 1585,
      "ള": 1586,
      "ഴ": 1587,
      "വ": 1588,
      "ശ": 1589,
      "ഷ": 1590,
      "സ": 1591,
      "ഹ": 1592,
      "ാ": 1593,
      "ി": 1594,
      "ീ": 1595,
      "ു": 1596,
      "ൂ": 1597,
      "െ": 1598,
      "േ": 1599,
      "ൊ": 1600,
      "ോ": 1601,
      "്": 1602,
      "ൺ": 1603,
      "ൻ": 1604,
      "ർ": 1605,
      "ൽ": 1606,
      "ං": 1607,
      "අ": 1608,
      "ආ": 1609,
      "ඇ": 1610,
      "ඉ": 1611,
      "ඊ": 1612,
      "උ": 1613,
      "ඍ": 1614,
      "එ": 1615,
      "ඒ": 1616,
      "ඓ": 1617,
      "ඔ": 1618,
      "ක": 1619,
      "ඛ": 1620,
      "ග": 1621,
      "ඝ": 1622,
      "ඟ": 1623,
      "ච": 1624,
      "ජ": 1625,
      "ඥ": 1626,
      "ට": 1627,
      "ඨ": 1628,
      "ඩ": 1629,
      "ණ": 1630,
      "ඬ": 1631,
      "ත": 1632,
      "ථ": 1633,
      "ද": 1634,
      "ධ": 1635,
      "න": 1636,
      "ඳ": 1637,
      "ප": 1638,
      "ඵ": 1639,
      "බ": 1640,
      "භ": 1641,
      "ම": 1642,
      "ඹ": 1643,
      "ය": 1644,
      "ර": 1645,
      "ල": 1646,
      "ව": 1647,
      "ශ": 1648,
      "ෂ": 1649,
      "ස": 1650,
      "හ": 1651,
      "ළ": 1652,
      "ෆ": 1653,
      "්": 1654,
      "ා": 1655,
      "ැ": 1656,
      "ෑ": 1657,
      "ි": 1658,
      "ී": 1659,
      "ු": 1660,
      "ූ": 1661,
      "ෘ": 1662,
      "ෙ": 1663,
      "ේ": 1664,
      "ෛ": 1665,
      "ො": 1666,
      "ෝ": 1667,
      "ෞ": 1668,
      "ก": 1669,
      "ข": 1670,
      "ฃ": 1671,
      "ค": 1672,
      "ฅ": 1673,
      "ฆ": 1674,
      "ง": 1675,
      "จ": 1676,
      "ฉ": 1677,
      "ช": 1678,
      "ซ": 1679,
      "ฌ": 1680,
      "ญ": 1681,
      "ฎ": 1682,
      "ฏ": 1683,
      "ฐ": 1684,
      "ฑ": 1685,
      "ฒ": 1686,
      "ณ": 1687,
      "ด": 1688,
      "ต": 1689,
      "ถ": 1690,
      "ท": 1691,
      "ธ": 1692,
      "น": 1693,
      "บ": 1694,
      "ป": 1695,
      "ผ": 1696,
      "ฝ": 1697,
      "พ": 1698,
      "ฟ": 1699,
      "ภ": 1700,
      "ม": 1701,
      "ย": 1702,
      "ร": 1703,
      "ฤ": 1704,
      "ล": 1705,
      "ว": 1706,
      "ศ": 1707,
      "ษ": 1708,
      "ส": 1709,
      "ห": 1710,
      "อ": 1711,
      "ฮ": 1712,
      "ะ": 1713,
      "ั": 1714,
      "า": 1715,
      "ำ": 1716,
      "ิ": 1717,
      "ี": 1718,
      "ึ": 1719,
      "ื": 1720,
      "ุ": 1721,
      "ู": 1722,
      "฿": 1723,
      "เ": 1724,
      "แ": 1725,
      "โ": 1726,
      "ใ": 1727,
      "ไ": 1728,
      "ๆ": 1729,
      "็": 1730,
      "่": 1731,
      "้": 1732,
      "๊": 1733,
      "๋": 1734,
      "์": 1735,
      "๐": 1736,
      "๑": 1737,
      "๒": 1738,
      "๘": 1739,
      "ກ": 1740,
      "ຂ": 1741,
      "ຄ": 1742,
      "ງ": 1743,
      "ຈ": 1744,
      "ຊ": 1745,
      "ຍ": 1746,
      "ດ": 1747,
      "ຕ": 1748,
      "ຖ": 1749,
      "ທ": 1750,
      "ນ": 1751,
      "ບ": 1752,
      "ປ": 1753,
      "ຜ": 1754,
      "ຝ": 1755,
      "ພ": 1756,
      "ມ": 1757,
      "ຢ": 1758,
      "ຣ": 1759,
      "ລ": 1760,
      "ວ": 1761,
      "ສ": 1762,
      "ຫ": 1763,
      "ອ": 1764,
      "ຮ": 1765,
      "ະ": 1766,
      "ັ": 1767,
      "າ": 1768,
      "ຳ": 1769,
      "ິ": 1770,
      "ີ": 1771,
      "ື": 1772,
      "ຸ": 1773,
      "ູ": 1774,
      "ົ": 1775,
      "ຼ": 1776,
      "ຽ": 1777,
      "ເ": 1778,
      "ແ": 1779,
      "ໂ": 1780,
      "ໃ": 1781,
      "ໄ": 1782,
      "ໆ": 1783,
      "່": 1784,
      "້": 1785,
      "ໍ": 1786,
      "ໝ": 1787,
      "་": 1788,
      "༺": 1789,
      "༻": 1790,
      "ཁ": 1791,
      "ག": 1792,
      "ང": 1793,
      "ཇ": 1794,
      "ད": 1795,
      "པ": 1796,
      "བ": 1797,
      "མ": 1798,
      "འ": 1799,
      "ཡ": 1800,
      "ར": 1801,
      "ལ": 1802,
      "ི": 1803,
      "ུ": 1804,
      "ོ": 1805,
      "ཽ": 1806,
      "ྒ": 1807,
      "ྱ": 1808,
      "ྲ": 1809,
      "ླ": 1810,
      "က": 1811,
      "ခ": 1812,
      "ဂ": 1813,
      "င": 1814,
      "စ": 1815,
      "ဆ": 1816,
      "ဇ": 1817,
      "ဉ": 1818,
      "ည": 1819,
      "ဌ": 1820,
      "ဏ": 1821,
      "တ": 1822,
      "ထ": 1823,
      "ဒ": 1824,
      "န": 1825,
      "ပ": 1826,
      "ဖ": 1827,
      "ဗ": 1828,
      "ဘ": 1829,
      "မ": 1830,
      "ယ": 1831,
      "ရ": 1832,
      "လ": 1833,
      "ဝ": 1834,
      "သ": 1835,
      "ဟ": 1836,
      "အ": 1837,
      "ဤ": 1838,
      "ဦ": 1839,
      "ါ": 1840,
      "ာ": 1841,
      "ိ": 1842,
      "ီ": 1843,
      "ု": 1844,
      "ူ": 1845,
      "ေ": 1846,
      "ဲ": 1847,
      "ဴ": 1848,
      "ံ": 1849,
      "့": 1850,
      "း": 1851,
      "္": 1852,
      "်": 1853,
      "ျ": 1854,
      "ြ": 1855,
      "ွ": 1856,
      "ှ": 1857,
      "၊": 1858,
      "။": 1859,
      "၎": 1860,
      "၏": 1861,
      "ၚ": 1862,
      "ၯ": 1863,
      "ႏ": 1864,
      "ა": 1865,
      "ბ": 1866,
      "გ": 1867,
      "დ": 1868,
      "ე": 1869,
      "ვ": 1870,
      "ზ": 1871,
      "თ": 1872,
      "ი": 1873,
      "კ": 1874,
      "ლ": 1875,
      "მ": 1876,
      "ნ": 1877,
      "ო": 1878,
      "პ": 1879,
      "ჟ": 1880,
      "რ": 1881,
      "ს": 1882,
      "ტ": 1883,
      "უ": 1884,
      "ფ": 1885,
      "ქ": 1886,
      "ღ": 1887,
      "ყ": 1888,
      "შ": 1889,
      "ჩ": 1890,
      "ც": 1891,
      "ძ": 1892,
      "წ": 1893,
      "ჭ": 1894,
      "ხ": 1895,
      "ჯ": 1896,
      "ჰ": 1897,
      "ሀ": 1898,
      "ሁ": 1899,
      "ሂ": 1900,
      "ሃ": 1901,
      "ሄ": 1902,
      "ህ": 1903,
      "ሆ": 1904,
      "ሇ": 1905,
      "ለ": 1906,
      "ሉ": 1907,
      "ሊ": 1908,
      "ላ": 1909,
      "ሌ": 1910,
      "ል": 1911,
      "ሎ": 1912,
      "ሏ": 1913,
      "ሐ": 1914,
      "ሑ": 1915,
      "ሒ": 1916,
      "ሓ": 1917,
      "ሔ": 1918,
      "ሕ": 1919,
      "ሖ": 1920,
      "ሗ": 1921,
      "መ": 1922,
      "ሙ": 1923,
      "ሚ": 1924,
      "ማ": 1925,
      "ሜ": 1926,
      "ም": 1927,
      "ሞ": 1928,
      "ሟ": 1929,
      "ሠ": 1930,
      "ሡ": 1931,
      "ሢ": 1932,
      "ሣ": 1933,
      "ሤ": 1934,
      "ሥ": 1935,
      "ሦ": 1936,
      "ረ": 1937,
      "ሩ": 1938,
      "ሪ": 1939,
      "ራ": 1940,
      "ሬ": 1941,
      "ር": 1942,
      "ሮ": 1943,
      "ሯ": 1944,
      "ሰ": 1945,
      "ሱ": 1946,
      "ሲ": 1947,
      "ሳ": 1948,
      "ሴ": 1949,
      "ስ": 1950,
      "ሶ": 1951,
      "ሷ": 1952,
      "ሸ": 1953,
      "ሹ": 1954,
      "ሺ": 1955,
      "ሻ": 1956,
      "ሼ": 1957,
      "ሽ": 1958,
      "ሾ": 1959,
      "ሿ": 1960,
      "ቀ": 1961,
      "ቁ": 1962,
      "ቂ": 1963,
      "ቃ": 1964,
      "ቄ": 1965,
      "ቅ": 1966,
      "ቆ": 1967,
      "ቇ": 1968,
      "ቈ": 1969,
      "ቋ": 1970,
      "ቍ": 1971,
      "ቐ": 1972,
      "ቓ": 1973,
      "ቕ": 1974,
      "ቖ": 1975,
      "ቛ": 1976,
      "በ": 1977,
      "ቡ": 1978,
      "ቢ": 1979,
      "ባ": 1980,
      "ቤ": 1981,
      "ብ": 1982,
      "ቦ": 1983,
      "ቧ": 1984,
      "ቨ": 1985,
      "ቪ": 1986,
      "ቫ": 1987,
      "ቬ": 1988,
      "ቭ": 1989,
      "ቮ": 1990,
      "ተ": 1991,
      "ቱ": 1992,
      "ቲ": 1993,
      "ታ": 1994,
      "ቴ": 1995,
      "ት": 1996,
      "ቶ": 1997,
      "ቷ": 1998,
      "ቸ": 1999,
      "ቹ": 2000,
      "ቺ": 2001,
      "ቻ": 2002,
      "ቼ": 2003,
      "ች": 2004,
      "ቾ": 2005,
      "ቿ": 2006,
      "ኀ": 2007,
      "ኁ": 2008,
      "ኂ": 2009,
      "ኃ": 2010,
      "ኄ": 2011,
      "ኅ": 2012,
      "ኆ": 2013,
      "ኇ": 2014,
      "ኋ": 2015,
      "ነ": 2016,
      "ኑ": 2017,
      "ኒ": 2018,
      "ና": 2019,
      "ኔ": 2020,
      "ን": 2021,
      "ኖ": 2022,
      "ኗ": 2023,
      "ኘ": 2024,
      "ኙ": 2025,
      "ኚ": 2026,
      "ኛ": 2027,
      "ኜ": 2028,
      "ኝ": 2029,
      "ኞ": 2030,
      "አ": 2031,
      "ኡ": 2032,
      "ኢ": 2033,
      "ኣ": 2034,
      "ኤ": 2035,
      "እ": 2036,
      "ኦ": 2037,
      "ኧ": 2038,
      "ከ": 2039,
      "ኩ": 2040,
      "ኪ": 2041,
      "ካ": 2042,
      "ኬ": 2043,
      "ክ": 2044,
      "ኮ": 2045,
      "ኰ": 2046,
      "ኳ": 2047,
      "ኴ": 2048,
      "ኵ": 2049,
      "ኸ": 2050,
      "ኹ": 2051,
      "ኺ": 2052,
      "ኻ": 2053,
      "ኼ": 2054,
      "ኽ": 2055,
      "ኾ": 2056,
      "ዃ": 2057,
      "ወ": 2058,
      "ዉ": 2059,
      "ዊ": 2060,
      "ዋ": 2061,
      "ዌ": 2062,
      "ው": 2063,
      "ዎ": 2064,
      "ዐ": 2065,
      "ዑ": 2066,
      "ዒ": 2067,
      "ዓ": 2068,
      "ዔ": 2069,
      "ዕ": 2070,
      "ዖ": 2071,
      "ዘ": 2072,
      "ዙ": 2073,
      "ዚ": 2074,
      "ዛ": 2075,
      "ዜ": 2076,
      "ዝ": 2077,
      "ዞ": 2078,
      "ዟ": 2079,
      "ዠ": 2080,
      "ዡ": 2081,
      "ዢ": 2082,
      "ዣ": 2083,
      "ዤ": 2084,
      "ዥ": 2085,
      "ዦ": 2086,
      "የ": 2087,
      "ዩ": 2088,
      "ዪ": 2089,
      "ያ": 2090,
      "ዬ": 2091,
      "ይ": 2092,
      "ዮ": 2093,
      "ዯ": 2094,
      "ደ": 2095,
      "ዱ": 2096,
      "ዲ": 2097,
      "ዳ": 2098,
      "ዴ": 2099,
      "ድ": 2100,
      "ዶ": 2101,
      "ዷ": 2102,
      "ዺ": 2103,
      "ዻ": 2104,
      "ዽ": 2105,
      "ጀ": 2106,
      "ጁ": 2107,
      "ጂ": 2108,
      "ጃ": 2109,
      "ጄ": 2110,
      "ጅ": 2111,
      "ጆ": 2112,
      "ጇ": 2113,
      "ገ": 2114,
      "ጉ": 2115,
      "ጊ": 2116,
      "ጋ": 2117,
      "ጌ": 2118,
      "ግ": 2119,
      "ጎ": 2120,
      "ጐ": 2121,
      "ጒ": 2122,
      "ጓ": 2123,
      "ጔ": 2124,
      "ጛ": 2125,
      "ጠ": 2126,
      "ጡ": 2127,
      "ጢ": 2128,
      "ጣ": 2129,
      "ጤ": 2130,
      "ጥ": 2131,
      "ጦ": 2132,
      "ጧ": 2133,
      "ጨ": 2134,
      "ጩ": 2135,
      "ጪ": 2136,
      "ጫ": 2137,
      "ጬ": 2138,
      "ጭ": 2139,
      "ጮ": 2140,
      "ጰ": 2141,
      "ጲ": 2142,
      "ጳ": 2143,
      "ጴ": 2144,
      "ጵ": 2145,
      "ጶ": 2146,
      "ጸ": 2147,
      "ጹ": 2148,
      "ጺ": 2149,
      "ጻ": 2150,
      "ጼ": 2151,
      "ጽ": 2152,
      "ጾ": 2153,
      "ጿ": 2154,
      "ፀ": 2155,
      "ፁ": 2156,
      "ፂ": 2157,
      "ፃ": 2158,
      "ፄ": 2159,
      "ፅ": 2160,
      "ፆ": 2161,
      "ፇ": 2162,
      "ፈ": 2163,
      "ፉ": 2164,
      "ፊ": 2165,
      "ፋ": 2166,
      "ፌ": 2167,
      "ፍ": 2168,
      "ፎ": 2169,
      "ፏ": 2170,
      "ፐ": 2171,
      "ፑ": 2172,
      "ፒ": 2173,
      "ፓ": 2174,
      "ፔ": 2175,
      "ፕ": 2176,
      "ፖ": 2177,
      "፡": 2178,
      "።": 2179,
      "፣": 2180,
      "፤": 2181,
      "፥": 2182,
      "፦": 2183,
      "፧": 2184,
      "፨": 2185,
      "፩": 2186,
      "፪": 2187,
      "፫": 2188,
      "፬": 2189,
      "፭": 2190,
      "፮": 2191,
      "፯": 2192,
      "፰": 2193,
      "፱": 2194,
      "፲": 2195,
      "፳": 2196,
      "፴": 2197,
      "፵": 2198,
      "፶": 2199,
      "፷": 2200,
      "፸": 2201,
      "፹": 2202,
      "፺": 2203,
      "፻": 2204,
      "፼": 2205,
      "᎓": 2206,
      "Ꭰ": 2207,
      "Ꭲ": 2208,
      "Ꭹ": 2209,
      "Ꭺ": 2210,
      "Ꭼ": 2211,
      "Ꮃ": 2212,
      "Ꮇ": 2213,
      "Ꮋ": 2214,
      "Ꮢ": 2215,
      "Ꮤ": 2216,
      "Ꮪ": 2217,
      "Ꮯ": 2218,
      "Ꮳ": 2219,
      "ᐃ": 2220,
      "ᐅ": 2221,
      "ᐉ": 2222,
      "ᐍ": 2223,
      "ᐏ": 2224,
      "ᐣ": 2225,
      "ᐦ": 2226,
      "ᐯ": 2227,
      "ᑌ": 2228,
      "ᑎ": 2229,
      "ᑐ": 2230,
      "ᑕ": 2231,
      "ᑦ": 2232,
      "ᑫ": 2233,
      "ᑭ": 2234,
      "ᒃ": 2235,
      "ᒍ": 2236,
      "ᒪ": 2237,
      "ᓀ": 2238,
      "ᓄ": 2239,
      "ᔕ": 2240,
      "ᔭ": 2241,
      "ᕼ": 2242,
      "ᖇ": 2243,
      "ᖴ": 2244,
      "ᗩ": 2245,
      "ᗪ": 2246,
      "ᗯ": 2247,
      "ᗰ": 2248,
      "ᗴ": 2249,
      "ᗷ": 2250,
      "ᘔ": 2251,
      "ᘜ": 2252,
      "᙭": 2253,
      "ᚧ": 2254,
      "ក": 2255,
      "ខ": 2256,
      "គ": 2257,
      "ឃ": 2258,
      "ង": 2259,
      "ច": 2260,
      "ឆ": 2261,
      "ជ": 2262,
      "ឈ": 2263,
      "ញ": 2264,
      "ដ": 2265,
      "ឋ": 2266,
      "ឌ": 2267,
      "ណ": 2268,
      "ត": 2269,
      "ថ": 2270,
      "ទ": 2271,
      "ធ": 2272,
      "ន": 2273,
      "ប": 2274,
      "ផ": 2275,
      "ព": 2276,
      "ភ": 2277,
      "ម": 2278,
      "យ": 2279,
      "រ": 2280,
      "ល": 2281,
      "វ": 2282,
      "ស": 2283,
      "ហ": 2284,
      "ឡ": 2285,
      "អ": 2286,
      "ឥ": 2287,
      "ឬ": 2288,
      "ឱ": 2289,
      "ា": 2290,
      "ិ": 2291,
      "ី": 2292,
      "ឹ": 2293,
      "ឺ": 2294,
      "ុ": 2295,
      "ូ": 2296,
      "ួ": 2297,
      "ើ": 2298,
      "ឿ": 2299,
      "ៀ": 2300,
      "េ": 2301,
      "ែ": 2302,
      "ៃ": 2303,
      "ោ": 2304,
      "ៅ": 2305,
      "ំ": 2306,
      "ះ": 2307,
      "ៈ": 2308,
      "៉": 2309,
      "៊": 2310,
      "់": 2311,
      "៍": 2312,
      "៏": 2313,
      "័": 2314,
      "្": 2315,
      "។": 2316,
      "៛": 2317,
      "២": 2318,
      "ᠡ": 2319,
      "ᠢ": 2320,
      "ᠣ": 2321,
      "ᠨ": 2322,
      "ᠪ": 2323,
      "ᠭ": 2324,
      "ᠰ": 2325,
      "ᠲ": 2326,
      "ᥙ": 2327,
      "ᥱ": 2328,
      "᧐": 2329,
      "ᨁ": 2330,
      "ᨅ": 2331,
      "ᨔ": 2332,
      "ᨕ": 2333,
      "ᨗ": 2334,
      "ᨘ": 2335,
      "Მ": 2336,
      "ᴀ": 2337,
      "ᴄ": 2338,
      "ᴅ": 2339,
      "ᴇ": 2340,
      "ᴊ": 2341,
      "ᴋ": 2342,
      "ᴍ": 2343,
      "ᴎ": 2344,
      "ᴏ": 2345,
      "ᴖ": 2346,
      "ᴘ": 2347,
      "ᴙ": 2348,
      "ᴛ": 2349,
      "ᴜ": 2350,
      "ᴠ": 2351,
      "ᴡ": 2352,
      "ᴢ": 2353,
      "ᴥ": 2354,
      "ᴬ": 2355,
      "ᴰ": 2356,
      "ᴴ": 2357,
      "ᴹ": 2358,
      "ᴿ": 2359,
      "ᵀ": 2360,
      "ᵈ": 2361,
      "ᵍ": 2362,
      "ᵞ": 2363,
      "ᶜ": 2364,
      "ᶠ": 2365,
      "ᶤ": 2366,
      "ᶻ": 2367,
      "ḇ": 2368,
      "ḋ": 2369,
      "Ḍ": 2370,
      "ḍ": 2371,
      "Ḏ": 2372,
      "ḏ": 2373,
      "Ḑ": 2374,
      "ḕ": 2375,
      "ḗ": 2376,
      "ḝ": 2377,
      "ḡ": 2378,
      "Ḣ": 2379,
      "ḣ": 2380,
      "Ḥ": 2381,
      "ḥ": 2382,
      "ḫ": 2383,
      "ḱ": 2384,
      "ḵ": 2385,
      "ḷ": 2386,
      "ḻ": 2387,
      "Ḽ": 2388,
      "ḽ": 2389,
      "ḿ": 2390,
      "ṁ": 2391,
      "ṃ": 2392,
      "Ṅ": 2393,
      "ṅ": 2394,
      "ṇ": 2395,
      "ṉ": 2396,
      "ṏ": 2397,
      "Ṕ": 2398,
      "ṕ": 2399,
      "Ṗ": 2400,
      "ṗ": 2401,
      "ṛ": 2402,
      "ṝ": 2403,
      "Ṡ": 2404,
      "ṡ": 2405,
      "Ṣ": 2406,
      "ṣ": 2407,
      "Ṧ": 2408,
      "ṧ": 2409,
      "Ṫ": 2410,
      "ṫ": 2411,
      "Ṭ": 2412,
      "ṭ": 2413,
      "Ṯ": 2414,
      "ṯ": 2415,
      "ṳ": 2416,
      "ẑ": 2417,
      "Ẓ": 2418,
      "ẓ": 2419,
      "ẖ": 2420,
      "ẚ": 2421,
      "Ạ": 2422,
      "ạ": 2423,
      "Ả": 2424,
      "ả": 2425,
      "Ấ": 2426,
      "ấ": 2427,
      "Ầ": 2428,
      "ầ": 2429,
      "ẩ": 2430,
      "Ẫ": 2431,
      "ẫ": 2432,
      "Ậ": 2433,
      "ậ": 2434,
      "ắ": 2435,
      "Ằ": 2436,
      "ằ": 2437,
      "Ẳ": 2438,
      "ẳ": 2439,
      "ẵ": 2440,
      "ặ": 2441,
      "Ẹ": 2442,
      "ẹ": 2443,
      "ẻ": 2444,
      "ẽ": 2445,
      "Ế": 2446,
      "ế": 2447,
      "ề": 2448,
      "ể": 2449,
      "ễ": 2450,
      "Ệ": 2451,
      "ệ": 2452,
      "ỉ": 2453,
      "Ị": 2454,
      "ị": 2455,
      "Ọ": 2456,
      "ọ": 2457,
      "ỏ": 2458,
      "ố": 2459,
      "Ồ": 2460,
      "ồ": 2461,
      "Ổ": 2462,
      "ổ": 2463,
      "ỗ": 2464,
      "Ộ": 2465,
      "ộ": 2466,
      "Ớ": 2467,
      "ớ": 2468,
      "Ờ": 2469,
      "ờ": 2470,
      "ở": 2471,
      "ỡ": 2472,
      "Ợ": 2473,
      "ợ": 2474,
      "Ụ": 2475,
      "ụ": 2476,
      "ủ": 2477,
      "ứ": 2478,
      "ừ": 2479,
      "ử": 2480,
      "Ữ": 2481,
      "ữ": 2482,
      "Ự": 2483,
      "ự": 2484,
      "Ỳ": 2485,
      "ỳ": 2486,
      "Ỵ": 2487,
      "ỵ": 2488,
      "ỷ": 2489,
      "ỹ": 2490,
      "ἀ": 2491,
      "ἄ": 2492,
      "Ἁ": 2493,
      "Ἄ": 2494,
      "ἐ": 2495,
      "ἑ": 2496,
      "ἔ": 2497,
      "Ἐ": 2498,
      "ἰ": 2499,
      "ἶ": 2500,
      "Ἰ": 2501,
      "Ἱ": 2502,
      "ὐ": 2503,
      "ὑ": 2504,
      "Ὕ": 2505,
      "ὰ": 2506,
      "ὴ": 2507,
      "ᾶ": 2508,
      "ῆ": 2509,
      "ῦ": 2510,
      "῰": 2511,
      "ῶ": 2512,
      "῾": 2513,
      "‎": 2514,
      "‏": 2515,
      "‐": 2516,
      "‑": 2517,
      "‒": 2518,
      "–": 2519,
      "—": 2520,
      "―": 2521,
      "‖": 2522,
      "‗": 2523,
      "‘": 2524,
      "’": 2525,
      "‚": 2526,
      "‛": 2527,
      "“": 2528,
      "”": 2529,
      "„": 2530,
      "‟": 2531,
      "†": 2532,
      "‡": 2533,
      "•": 2534,
      "‣": 2535,
      "․": 2536,
      "…": 2537,
      "‧": 2538,
      "‰": 2539,
      "′": 2540,
      "″": 2541,
      "‵": 2542,
      "‹": 2543,
      "›": 2544,
      "※": 2545,
      "‼": 2546,
      "‾": 2547,
      "‿": 2548,
      "⁂": 2549,
      "⁃": 2550,
      "⁄": 2551,
      "⁇": 2552,
      "⁈": 2553,
      "⁉": 2554,
      "⁍": 2555,
      "⁎": 2556,
      "⁝": 2557,
      "⁠": 2558,
      "⁡": 2559,
      "⁣": 2560,
      "⁦": 2561,
      "⁩": 2562,
      "⁯": 2563,
      "⁰": 2564,
      "⁴": 2565,
      "⁵": 2566,
      "⁶": 2567,
      "⁷": 2568,
      "⁸": 2569,
      "⁹": 2570,
      "⁺": 2571,
      "⁻": 2572,
      "ⁿ": 2573,
      "₀": 2574,
      "₁": 2575,
      "₂": 2576,
      "₃": 2577,
      "₄": 2578,
      "₡": 2579,
      "₣": 2580,
      "₤": 2581,
      "₥": 2582,
      "₦": 2583,
      "₨": 2584,
      "₩": 2585,
      "₪": 2586,
      "₫": 2587,
      "€": 2588,
      "₭": 2589,
      "₮": 2590,
      "₯": 2591,
      "₰": 2592,
      "₱": 2593,
      "₲": 2594,
      "₳": 2595,
      "₴": 2596,
      "₵": 2597,
      "₸": 2598,
      "₹": 2599,
      "₺": 2600,
      "₽": 2601,
      "₾": 2602,
      "₿": 2603,
      "⃣": 2604,
      "ℂ": 2605,
      "℃": 2606,
      "℅": 2607,
      "℉": 2608,
      "ℊ": 2609,
      "ℋ": 2610,
      "ℍ": 2611,
      "ℎ": 2612,
      "ℐ": 2613,
      "ℒ": 2614,
      "ℓ": 2615,
      "ℕ": 2616,
      "№": 2617,
      "℗": 2618,
      "℘": 2619,
      "ℙ": 2620,
      "ℚ": 2621,
      "ℛ": 2622,
      "ℜ": 2623,
      "ℝ": 2624,
      "℠": 2625,
      "℡": 2626,
      "™": 2627,
      "ℤ": 2628,
      "ℬ": 2629,
      "℮": 2630,
      "ℯ": 2631,
      "ℰ": 2632,
      "ℱ": 2633,
      "ℴ": 2634,
      "ℹ": 2635,
      "⅓": 2636,
      "⅔": 2637,
      "⅘": 2638,
      "⅚": 2639,
      "⅛": 2640,
      "⅜": 2641,
      "⅞": 2642,
      "Ⅰ": 2643,
      "Ⅱ": 2644,
      "Ⅲ": 2645,
      "Ⅳ": 2646,
      "Ⅴ": 2647,
      "Ⅵ": 2648,
      "Ⅶ": 2649,
      "Ⅷ": 2650,
      "Ⅸ": 2651,
      "Ⅹ": 2652,
      "Ⅺ": 2653,
      "Ⅻ": 2654,
      "Ⅼ": 2655,
      "Ⅽ": 2656,
      "Ⅾ": 2657,
      "Ⅿ": 2658,
      "ⅼ": 2659,
      "ⅽ": 2660,
      "ⅾ": 2661,
      "←": 2662,
      "↑": 2663,
      "→": 2664,
      "↓": 2665,
      "↔": 2666,
      "↖": 2667,
      "↗": 2668,
      "↘": 2669,
      "↙": 2670,
      "↟": 2671,
      "↦": 2672,
      "↩": 2673,
      "↪": 2674,
      "↫": 2675,
      "↲": 2676,
      "↳": 2677,
      "↴": 2678,
      "↵": 2679,
      "⇄": 2680,
      "⇐": 2681,
      "⇑": 2682,
      "⇒": 2683,
      "⇓": 2684,
      "⇔": 2685,
      "⇚": 2686,
      "⇛": 2687,
      "⇠": 2688,
      "⇢": 2689,
      "⇧": 2690,
      "⇨": 2691,
      "⇰": 2692,
      "⇱": 2693,
      "⇾": 2694,
      "∀": 2695,
      "∂": 2696,
      "∃": 2697,
      "∅": 2698,
      "∆": 2699,
      "∇": 2700,
      "∈": 2701,
      "∉": 2702,
      "∎": 2703,
      "∏": 2704,
      "∑": 2705,
      "−": 2706,
      "∓": 2707,
      "∕": 2708,
      "∗": 2709,
      "∘": 2710,
      "∙": 2711,
      "√": 2712,
      "∞": 2713,
      "∟": 2714,
      "∠": 2715,
      "∣": 2716,
      "∥": 2717,
      "∧": 2718,
      "∨": 2719,
      "∩": 2720,
      "∪": 2721,
      "∫": 2722,
      "∮": 2723,
      "∴": 2724,
      "∵": 2725,
      "∶": 2726,
      "∼": 2727,
      "≅": 2728,
      "≈": 2729,
      "≔": 2730,
      "≠": 2731,
      "≡": 2732,
      "≤": 2733,
      "≥": 2734,
      "≦": 2735,
      "≧": 2736,
      "≪": 2737,
      "≫": 2738,
      "≺": 2739,
      "≻": 2740,
      "⊂": 2741,
      "⊃": 2742,
      "⊄": 2743,
      "⊆": 2744,
      "⊇": 2745,
      "⊕": 2746,
      "⊗": 2747,
      "⊙": 2748,
      "⊡": 2749,
      "⊥": 2750,
      "⊰": 2751,
      "⊱": 2752,
      "⊸": 2753,
      "⋅": 2754,
      "⋆": 2755,
      "⋮": 2756,
      "⋯": 2757,
      "⋱": 2758,
      "⌂": 2759,
      "⌈": 2760,
      "⌊": 2761,
      "⌋": 2762,
      "⌘": 2763,
      "⌚": 2764,
      "⌠": 2765,
      "⌢": 2766,
      "⌥": 2767,
      "⌨": 2768,
      "⌫": 2769,
      "⎮": 2770,
      "⏩": 2771,
      "⏪": 2772,
      "⏫": 2773,
      "⏬": 2774,
      "⏭": 2775,
      "⏰": 2776,
      "⏳": 2777,
      "␠": 2778,
      "①": 2779,
      "②": 2780,
      "③": 2781,
      "④": 2782,
      "⑤": 2783,
      "⑥": 2784,
      "⑦": 2785,
      "⑧": 2786,
      "⑨": 2787,
      "⑩": 2788,
      "⑪": 2789,
      "⑫": 2790,
      "⑴": 2791,
      "⑵": 2792,
      "⑶": 2793,
      "⑷": 2794,
      "⑸": 2795,
      "⒈": 2796,
      "⒉": 2797,
      "⒊": 2798,
      "Ⓐ": 2799,
      "Ⓒ": 2800,
      "Ⓔ": 2801,
      "Ⓘ": 2802,
      "Ⓚ": 2803,
      "Ⓛ": 2804,
      "Ⓜ": 2805,
      "Ⓞ": 2806,
      "Ⓡ": 2807,
      "Ⓢ": 2808,
      "Ⓦ": 2809,
      "ⓐ": 2810,
      "ⓒ": 2811,
      "ⓕ": 2812,
      "ⓗ": 2813,
      "ⓘ": 2814,
      "ⓜ": 2815,
      "ⓟ": 2816,
      "ⓢ": 2817,
      "ⓤ": 2818,
      "ⓦ": 2819,
      "ⓨ": 2820,
      "⓵": 2821,
      "⓶": 2822,
      "⓷": 2823,
      "⓸": 2824,
      "⓹": 2825,
      "⓺": 2826,
      "⓻": 2827,
      "⓼": 2828,
      "⓽": 2829,
      "⓾": 2830,
      "─": 2831,
      "━": 2832,
      "│": 2833,
      "┃": 2834,
      "┇": 2835,
      "┈": 2836,
      "┉": 2837,
      "┌": 2838,
      "┐": 2839,
      "└": 2840,
      "┘": 2841,
      "├": 2842,
      "┤": 2843,
      "┬": 2844,
      "┯": 2845,
      "┷": 2846,
      "┼": 2847,
      "┿": 2848,
      "═": 2849,
      "║": 2850,
      "╔": 2851,
      "╕": 2852,
      "╖": 2853,
      "╗": 2854,
      "╚": 2855,
      "╛": 2856,
      "╜": 2857,
      "╝": 2858,
      "╣": 2859,
      "╥": 2860,
      "╬": 2861,
      "╭": 2862,
      "╮": 2863,
      "╯": 2864,
      "╰": 2865,
      "▀": 2866,
      "▁": 2867,
      "▂": 2868,
      "▃": 2869,
      "▄": 2870,
      "▅": 2871,
      "▆": 2872,
      "▇": 2873,
      "█": 2874,
      "▋": 2875,
      "▌": 2876,
      "▐": 2877,
      "░": 2878,
      "▒": 2879,
      "▓": 2880,
      "▔": 2881,
      "▕": 2882,
      "■": 2883,
      "□": 2884,
      "▢": 2885,
      "▪": 2886,
      "▫": 2887,
      "▬": 2888,
      "▭": 2889,
      "▮": 2890,
      "▰": 2891,
      "▲": 2892,
      "△": 2893,
      "▶": 2894,
      "▷": 2895,
      "▸": 2896,
      "►": 2897,
      "▻": 2898,
      "▼": 2899,
      "▽": 2900,
      "▾": 2901,
      "◀": 2902,
      "◄": 2903,
      "◆": 2904,
      "◇": 2905,
      "◈": 2906,
      "◉": 2907,
      "◊": 2908,
      "○": 2909,
      "◎": 2910,
      "●": 2911,
      "◐": 2912,
      "◑": 2913,
      "◕": 2914,
      "◗": 2915,
      "◘": 2916,
      "◙": 2917,
      "◤": 2918,
      "◦": 2919,
      "◩": 2920,
      "◪": 2921,
      "◻": 2922,
      "◼": 2923,
      "◽": 2924,
      "◾": 2925,
      "☀": 2926,
      "☁": 2927,
      "☂": 2928,
      "☃": 2929,
      "☄": 2930,
      "★": 2931,
      "☆": 2932,
      "☈": 2933,
      "☎": 2934,
      "☏": 2935,
      "☐": 2936,
      "☑": 2937,
      "☕": 2938,
      "☘": 2939,
      "☛": 2940,
      "☜": 2941,
      "☝": 2942,
      "☞": 2943,
      "☠": 2944,
      "☡": 2945,
      "☥": 2946,
      "☪": 2947,
      "☬": 2948,
      "☭": 2949,
      "☮": 2950,
      "☯": 2951,
      "☰": 2952,
      "☸": 2953,
      "☹": 2954,
      "☺": 2955,
      "☻": 2956,
      "☼": 2957,
      "☾": 2958,
      "☿": 2959,
      "♀": 2960,
      "♂": 2961,
      "♄": 2962,
      "♆": 2963,
      "♈": 2964,
      "♉": 2965,
      "♋": 2966,
      "♌": 2967,
      "♍": 2968,
      "♎": 2969,
      "♏": 2970,
      "♐": 2971,
      "♑": 2972,
      "♒": 2973,
      "♓": 2974,
      "♔": 2975,
      "♕": 2976,
      "♖": 2977,
      "♗": 2978,
      "♚": 2979,
      "♛": 2980,
      "♞": 2981,
      "♟": 2982,
      "♠": 2983,
      "♡": 2984,
      "♢": 2985,
      "♣": 2986,
      "♤": 2987,
      "♥": 2988,
      "♦": 2989,
      "♧": 2990,
      "♨": 2991,
      "♩": 2992,
      "♪": 2993,
      "♫": 2994,
      "♬": 2995,
      "♭": 2996,
      "♮": 2997,
      "♻": 2998,
      "♾": 2999,
      "♿": 3000,
      "⚄": 3001,
      "⚊": 3002,
      "⚒": 3003,
      "⚓": 3004,
      "⚔": 3005,
      "⚕": 3006,
      "⚖": 3007,
      "⚘": 3008,
      "⚙": 3009,
      "⚜": 3010,
      "⚠": 3011,
      "⚡": 3012,
      "⚪": 3013,
      "⚫": 3014,
      "⚽": 3015,
      "⛅": 3016,
      "⛈": 3017,
      "⛓": 3018,
      "⛔": 3019,
      "⛟": 3020,
      "⛪": 3021,
      "⛵": 3022,
      "⛹": 3023,
      "⛽": 3024,
      "✂": 3025,
      "✅": 3026,
      "✆": 3027,
      "✈": 3028,
      "✉": 3029,
      "✊": 3030,
      "✋": 3031,
      "✌": 3032,
      "✍": 3033,
      "✎": 3034,
      "✏": 3035,
      "✐": 3036,
      "✑": 3037,
      "✒": 3038,
      "✓": 3039,
      "✔": 3040,
      "✕": 3041,
      "✖": 3042,
      "✗": 3043,
      "✘": 3044,
      "✚": 3045,
      "✝": 3046,
      "✞": 3047,
      "✡": 3048,
      "✦": 3049,
      "✧": 3050,
      "✨": 3051,
      "✩": 3052,
      "✪": 3053,
      "✫": 3054,
      "✬": 3055,
      "✭": 3056,
      "✮": 3057,
      "✯": 3058,
      "✰": 3059,
      "✲": 3060,
      "✳": 3061,
      "✴": 3062,
      "✷": 3063,
      "✸": 3064,
      "✹": 3065,
      "✽": 3066,
      "✿": 3067,
      "❀": 3068,
      "❁": 3069,
      "❂": 3070,
      "❄": 3071,
      "❇": 3072,
      "❈": 3073,
      "❋": 3074,
      "❌": 3075,
      "❍": 3076,
      "❎": 3077,
      "❒": 3078,
      "❓": 3079,
      "❔": 3080,
      "❖": 3081,
      "❗": 3082,
      "❘": 3083,
      "❛": 3084,
      "❜": 3085,
      "❝": 3086,
      "❞": 3087,
      "❡": 3088,
      "❣": 3089,
      "❤": 3090,
      "❥": 3091,
      "❨": 3092,
      "❩": 3093,
      "❯": 3094,
      "❱": 3095,
      "❲": 3096,
      "❳": 3097,
      "❶": 3098,
      "❷": 3099,
      "❸": 3100,
      "❹": 3101,
      "❺": 3102,
      "❻": 3103,
      "❼": 3104,
      "❽": 3105,
      "❾": 3106,
      "➀": 3107,
      "➁": 3108,
      "➂": 3109,
      "➄": 3110,
      "➊": 3111,
      "➋": 3112,
      "➌": 3113,
      "➔": 3114,
      "➕": 3115,
      "➖": 3116,
      "➙": 3117,
      "➜": 3118,
      "➝": 3119,
      "➞": 3120,
      "➟": 3121,
      "➠": 3122,
      "➡": 3123,
      "➢": 3124,
      "➤": 3125,
      "➥": 3126,
      "➦": 3127,
      "➧": 3128,
      "➨": 3129,
      "➪": 3130,
      "➮": 3131,
      "➰": 3132,
      "➱": 3133,
      "➲": 3134,
      "➳": 3135,
      "➴": 3136,
      "➵": 3137,
      "➶": 3138,
      "➹": 3139,
      "➻": 3140,
      "➽": 3141,
      "➿": 3142,
      "⟨": 3143,
      "⟩": 3144,
      "⟵": 3145,
      "⟶": 3146,
      "⠀": 3147,
      "⢠": 3148,
      "⤓": 3149,
      "⤵": 3150,
      "⦁": 3151,
      "⦠": 3152,
      "⦿": 3153,
      "⧼": 3154,
      "⧽": 3155,
      "⨯": 3156,
      "⫻": 3157,
      "⬀": 3158,
      "⬅": 3159,
      "⬆": 3160,
      "⬇": 3161,
      "⬜": 3162,
      "⭐": 3163,
      "⭕": 3164,
      "⮚": 3165,
      "⮮": 3166,
      "⮯": 3167,
      "Ⰱ": 3168,
      "Ⰲ": 3169,
      "Ⰸ": 3170,
      "Ⰽ": 3171,
      "Ⰾ": 3172,
      "Ⱀ": 3173,
      "Ⱁ": 3174,
      "Ⱄ": 3175,
      "Ⱏ": 3176,
      "Ⱐ": 3177,
      "Ⱑ": 3178,
      "ⰰ": 3179,
      "ⰳ": 3180,
      "ⰺ": 3181,
      "ⰾ": 3182,
      "ⰿ": 3183,
      "ⱀ": 3184,
      "ⱃ": 3185,
      "ⱏ": 3186,
      "ⱔ": 3187,
      "Ⱡ": 3188,
      "Ɽ": 3189,
      "Ⱨ": 3190,
      "Ⱬ": 3191,
      "ⲁ": 3192,
      "Ⲏ": 3193,
      "ⲏ": 3194,
      "Ⲛ": 3195,
      "ⲟ": 3196,
      "ⲣ": 3197,
      "Ⲩ": 3198,
      "ⲩ": 3199,
      "ⴰ": 3200,
      "ⴱ": 3201,
      "ⴳ": 3202,
      "ⴷ": 3203,
      "ⴻ": 3204,
      "ⴽ": 3205,
      "ⵉ": 3206,
      "ⵊ": 3207,
      "ⵍ": 3208,
      "ⵎ": 3209,
      "ⵏ": 3210,
      "ⵓ": 3211,
      "ⵔ": 3212,
      "ⵕ": 3213,
      "ⵖ": 3214,
      "ⵙ": 3215,
      "ⵜ": 3216,
      "ⵟ": 3217,
      "ⵢ": 3218,
      "ⵣ": 3219,
      "⸦": 3220,
      "⽂": 3221,
      "、": 3222,
      "。": 3223,
      "〃": 3224,
      "々": 3225,
      "〇": 3226,
      "〈": 3227,
      "〉": 3228,
      "《": 3229,
      "》": 3230,
      "「": 3231,
      "」": 3232,
      "『": 3233,
      "』": 3234,
      "【": 3235,
      "】": 3236,
      "〒": 3237,
      "〓": 3238,
      "〖": 3239,
      "〗": 3240,
      "〘": 3241,
      "〙": 3242,
      "〜": 3243,
      "〝": 3244,
      "〟": 3245,
      "〠": 3246,
      "〰": 3247,
      "ぁ": 3248,
      "あ": 3249,
      "ぃ": 3250,
      "い": 3251,
      "う": 3252,
      "ぇ": 3253,
      "え": 3254,
      "ぉ": 3255,
      "お": 3256,
      "か": 3257,
      "が": 3258,
      "き": 3259,
      "ぎ": 3260,
      "く": 3261,
      "ぐ": 3262,
      "け": 3263,
      "げ": 3264,
      "こ": 3265,
      "ご": 3266,
      "さ": 3267,
      "ざ": 3268,
      "し": 3269,
      "じ": 3270,
      "す": 3271,
      "ず": 3272,
      "せ": 3273,
      "そ": 3274,
      "ぞ": 3275,
      "た": 3276,
      "だ": 3277,
      "ち": 3278,
      "ぢ": 3279,
      "っ": 3280,
      "つ": 3281,
      "づ": 3282,
      "て": 3283,
      "で": 3284,
      "と": 3285,
      "ど": 3286,
      "な": 3287,
      "に": 3288,
      "ぬ": 3289,
      "ね": 3290,
      "の": 3291,
      "は": 3292,
      "ば": 3293,
      "ぱ": 3294,
      "ひ": 3295,
      "び": 3296,
      "ぴ": 3297,
      "ふ": 3298,
      "ぶ": 3299,
      "ぷ": 3300,
      "へ": 3301,
      "べ": 3302,
      "ほ": 3303,
      "ぼ": 3304,
      "ぽ": 3305,
      "ま": 3306,
      "み": 3307,
      "む": 3308,
      "め": 3309,
      "も": 3310,
      "ゃ": 3311,
      "や": 3312,
      "ゅ": 3313,
      "ゆ": 3314,
      "ょ": 3315,
      "よ": 3316,
      "ら": 3317,
      "り": 3318,
      "る": 3319,
      "れ": 3320,
      "ろ": 3321,
      "わ": 3322,
      "ゐ": 3323,
      "を": 3324,
      "ん": 3325,
      "゜": 3326,
      "ァ": 3327,
      "ア": 3328,
      "ィ": 3329,
      "イ": 3330,
      "ゥ": 3331,
      "ウ": 3332,
      "ェ": 3333,
      "エ": 3334,
      "ォ": 3335,
      "オ": 3336,
      "カ": 3337,
      "ガ": 3338,
      "キ": 3339,
      "ギ": 3340,
      "ク": 3341,
      "グ": 3342,
      "ケ": 3343,
      "ゲ": 3344,
      "コ": 3345,
      "ゴ": 3346,
      "サ": 3347,
      "ザ": 3348,
      "シ": 3349,
      "ジ": 3350,
      "ス": 3351,
      "ズ": 3352,
      "セ": 3353,
      "ゼ": 3354,
      "ソ": 3355,
      "ゾ": 3356,
      "タ": 3357,
      "ダ": 3358,
      "チ": 3359,
      "ッ": 3360,
      "ツ": 3361,
      "テ": 3362,
      "デ": 3363,
      "ト": 3364,
      "ド": 3365,
      "ナ": 3366,
      "ニ": 3367,
      "ヌ": 3368,
      "ネ": 3369,
      "ノ": 3370,
      "ハ": 3371,
      "バ": 3372,
      "パ": 3373,
      "ヒ": 3374,
      "ビ": 3375,
      "ピ": 3376,
      "フ": 3377,
      "ブ": 3378,
      "プ": 3379,
      "ヘ": 3380,
      "ベ": 3381,
      "ペ": 3382,
      "ホ": 3383,
      "ボ": 3384,
      "ポ": 3385,
      "マ": 3386,
      "ミ": 3387,
      "ム": 3388,
      "メ": 3389,
      "モ": 3390,
      "ャ": 3391,
      "ヤ": 3392,
      "ュ": 3393,
      "ユ": 3394,
      "ョ": 3395,
      "ヨ": 3396,
      "ラ": 3397,
      "リ": 3398,
      "ル": 3399,
      "レ": 3400,
      "ロ": 3401,
      "ワ": 3402,
      "ン": 3403,
      "ヴ": 3404,
      "ヶ": 3405,
      "・": 3406,
      "ー": 3407,
      "ㄚ": 3408,
      "ㄥ": 3409,
      "ㄩ": 3410,
      "ㄱ": 3411,
      "ㄲ": 3412,
      "ㄴ": 3413,
      "ㄶ": 3414,
      "ㄷ": 3415,
      "ㄸ": 3416,
      "ㄹ": 3417,
      "ㅂ": 3418,
      "ㅃ": 3419,
      "ㅅ": 3420,
      "ㅆ": 3421,
      "ㅇ": 3422,
      "ㅉ": 3423,
      "ㅊ": 3424,
      "ㅋ": 3425,
      "ㅍ": 3426,
      "ㅎ": 3427,
      "ㅏ": 3428,
      "ㅐ": 3429,
      "ㅒ": 3430,
      "ㅓ": 3431,
      "ㅔ": 3432,
      "ㅖ": 3433,
      "ㅗ": 3434,
      "ㅘ": 3435,
      "ㅚ": 3436,
      "ㅜ": 3437,
      "ㅝ": 3438,
      "ㅞ": 3439,
      "ㅟ": 3440,
      "ㅠ": 3441,
      "ㅡ": 3442,
      "ㅢ": 3443,
      "ㅤ": 3444,
      "㎏": 3445,
      "㎜": 3446,
      "㎡": 3447,
      "㤠": 3448,
      "㴀": 3449,
      "䤔": 3450,
      "一": 3451,
      "丁": 3452,
      "七": 3453,
      "万": 3454,
      "丈": 3455,
      "三": 3456,
      "上": 3457,
      "下": 3458,
      "丌": 3459,
      "不": 3460,
      "与": 3461,
      "丐": 3462,
      "专": 3463,
      "且": 3464,
      "丕": 3465,
      "世": 3466,
      "丘": 3467,
      "丙": 3468,
      "业": 3469,
      "东": 3470,
      "丝": 3471,
      "丞": 3472,
      "両": 3473,
      "两": 3474,
      "並": 3475,
      "丧": 3476,
      "丨": 3477,
      "个": 3478,
      "丫": 3479,
      "中": 3480,
      "丰": 3481,
      "串": 3482,
      "临": 3483,
      "丸": 3484,
      "丹": 3485,
      "为": 3486,
      "主": 3487,
      "丽": 3488,
      "举": 3489,
      "丿": 3490,
      "乂": 3491,
      "乃": 3492,
      "久": 3493,
      "乇": 3494,
      "么": 3495,
      "义": 3496,
      "之": 3497,
      "乌": 3498,
      "乐": 3499,
      "乔": 3500,
      "乗": 3501,
      "乙": 3502,
      "九": 3503,
      "乞": 3504,
      "也": 3505,
      "习": 3506,
      "乡": 3507,
      "书": 3508,
      "乩": 3509,
      "买": 3510,
      "乳": 3511,
      "乾": 3512,
      "亀": 3513,
      "亂": 3514,
      "了": 3515,
      "予": 3516,
      "事": 3517,
      "二": 3518,
      "于": 3519,
      "云": 3520,
      "互": 3521,
      "五": 3522,
      "井": 3523,
      "亘": 3524,
      "亚": 3525,
      "些": 3526,
      "亜": 3527,
      "亞": 3528,
      "亡": 3529,
      "交": 3530,
      "亦": 3531,
      "产": 3532,
      "享": 3533,
      "京": 3534,
      "亭": 3535,
      "亮": 3536,
      "亲": 3537,
      "亴": 3538,
      "亵": 3539,
      "亶": 3540,
      "人": 3541,
      "亼": 3542,
      "亿": 3543,
      "什": 3544,
      "仁": 3545,
      "仅": 3546,
      "仈": 3547,
      "今": 3548,
      "介": 3549,
      "从": 3550,
      "仏": 3551,
      "仑": 3552,
      "仕": 3553,
      "他": 3554,
      "付": 3555,
      "代": 3556,
      "令": 3557,
      "以": 3558,
      "仧": 3559,
      "们": 3560,
      "仮": 3561,
      "仯": 3562,
      "仱": 3563,
      "仲": 3564,
      "件": 3565,
      "价": 3566,
      "任": 3567,
      "份": 3568,
      "企": 3569,
      "伄": 3570,
      "伊": 3571,
      "伎": 3572,
      "伏": 3573,
      "休": 3574,
      "众": 3575,
      "优": 3576,
      "会": 3577,
      "伝": 3578,
      "伟": 3579,
      "传": 3580,
      "伦": 3581,
      "伪": 3582,
      "伯": 3583,
      "伴": 3584,
      "伸": 3585,
      "似": 3586,
      "但": 3587,
      "位": 3588,
      "低": 3589,
      "住": 3590,
      "佐": 3591,
      "体": 3592,
      "何": 3593,
      "余": 3594,
      "佛": 3595,
      "作": 3596,
      "佟": 3597,
      "你": 3598,
      "佩": 3599,
      "佳": 3600,
      "併": 3601,
      "使": 3602,
      "來": 3603,
      "例": 3604,
      "侍": 3605,
      "侘": 3606,
      "供": 3607,
      "依": 3608,
      "価": 3609,
      "侧": 3610,
      "侵": 3611,
      "便": 3612,
      "係": 3613,
      "促": 3614,
      "俄": 3615,
      "俗": 3616,
      "保": 3617,
      "信": 3618,
      "俣": 3619,
      "修": 3620,
      "俺": 3621,
      "個": 3622,
      "倍": 3623,
      "們": 3624,
      "倒": 3625,
      "候": 3626,
      "倞": 3627,
      "借": 3628,
      "値": 3629,
      "倩": 3630,
      "倰": 3631,
      "倶": 3632,
      "值": 3633,
      "偂": 3634,
      "偄": 3635,
      "偅": 3636,
      "偆": 3637,
      "假": 3638,
      "偉": 3639,
      "偊": 3640,
      "偍": 3641,
      "偏": 3642,
      "偒": 3643,
      "偓": 3644,
      "偔": 3645,
      "偗": 3646,
      "偘": 3647,
      "做": 3648,
      "停": 3649,
      "偝": 3650,
      "偡": 3651,
      "偣": 3652,
      "偤": 3653,
      "健": 3654,
      "偦": 3655,
      "偨": 3656,
      "偪": 3657,
      "側": 3658,
      "偶": 3659,
      "偽": 3660,
      "備": 3661,
      "傚": 3662,
      "傞": 3663,
      "傢": 3664,
      "储": 3665,
      "催": 3666,
      "傳": 3667,
      "傷": 3668,
      "働": 3669,
      "像": 3670,
      "儀": 3671,
      "儉": 3672,
      "儍": 3673,
      "儎": 3674,
      "儑": 3675,
      "儓": 3676,
      "儔": 3677,
      "儕": 3678,
      "儖": 3679,
      "儛": 3680,
      "儞": 3681,
      "償": 3682,
      "儠": 3683,
      "儢": 3684,
      "儣": 3685,
      "儥": 3686,
      "優": 3687,
      "儫": 3688,
      "儯": 3689,
      "儱": 3690,
      "儳": 3691,
      "儵": 3692,
      "儶": 3693,
      "儷": 3694,
      "儸": 3695,
      "儹": 3696,
      "儻": 3697,
      "儿": 3698,
      "兀": 3699,
      "兂": 3700,
      "元": 3701,
      "兄": 3702,
      "充": 3703,
      "兆": 3704,
      "先": 3705,
      "光": 3706,
      "克": 3707,
      "免": 3708,
      "児": 3709,
      "兒": 3710,
      "兗": 3711,
      "党": 3712,
      "兜": 3713,
      "入": 3714,
      "內": 3715,
      "全": 3716,
      "兩": 3717,
      "八": 3718,
      "公": 3719,
      "六": 3720,
      "兰": 3721,
      "共": 3722,
      "关": 3723,
      "兴": 3724,
      "兵": 3725,
      "其": 3726,
      "具": 3727,
      "典": 3728,
      "兹": 3729,
      "养": 3730,
      "兼": 3731,
      "内": 3732,
      "円": 3733,
      "冈": 3734,
      "冊": 3735,
      "册": 3736,
      "再": 3737,
      "冑": 3738,
      "冒": 3739,
      "写": 3740,
      "农": 3741,
      "冠": 3742,
      "冤": 3743,
      "冥": 3744,
      "冦": 3745,
      "冬": 3746,
      "冰": 3747,
      "决": 3748,
      "冶": 3749,
      "冷": 3750,
      "冻": 3751,
      "冽": 3752,
      "净": 3753,
      "准": 3754,
      "凋": 3755,
      "凌": 3756,
      "凍": 3757,
      "凝": 3758,
      "几": 3759,
      "凡": 3760,
      "処": 3761,
      "凯": 3762,
      "凳": 3763,
      "凹": 3764,
      "出": 3765,
      "函": 3766,
      "刀": 3767,
      "分": 3768,
      "切": 3769,
      "刈": 3770,
      "刊": 3771,
      "刑": 3772,
      "划": 3773,
      "列": 3774,
      "则": 3775,
      "创": 3776,
      "初": 3777,
      "删": 3778,
      "判": 3779,
      "別": 3780,
      "刨": 3781,
      "利": 3782,
      "别": 3783,
      "到": 3784,
      "制": 3785,
      "刷": 3786,
      "刹": 3787,
      "刺": 3788,
      "刻": 3789,
      "則": 3790,
      "削": 3791,
      "前": 3792,
      "剎": 3793,
      "剑": 3794,
      "剔": 3795,
      "剛": 3796,
      "剣": 3797,
      "剥": 3798,
      "剧": 3799,
      "副": 3800,
      "割": 3801,
      "創": 3802,
      "劇": 3803,
      "劑": 3804,
      "力": 3805,
      "办": 3806,
      "功": 3807,
      "加": 3808,
      "务": 3809,
      "劣": 3810,
      "动": 3811,
      "助": 3812,
      "努": 3813,
      "励": 3814,
      "劲": 3815,
      "劳": 3816,
      "労": 3817,
      "効": 3818,
      "势": 3819,
      "勉": 3820,
      "勐": 3821,
      "勒": 3822,
      "動": 3823,
      "勗": 3824,
      "勘": 3825,
      "務": 3826,
      "勝": 3827,
      "勞": 3828,
      "募": 3829,
      "勢": 3830,
      "勤": 3831,
      "勧": 3832,
      "勩": 3833,
      "勵": 3834,
      "勾": 3835,
      "包": 3836,
      "匕": 3837,
      "化": 3838,
      "北": 3839,
      "匯": 3840,
      "区": 3841,
      "医": 3842,
      "匿": 3843,
      "區": 3844,
      "十": 3845,
      "卂": 3846,
      "千": 3847,
      "卄": 3848,
      "卅": 3849,
      "升": 3850,
      "午": 3851,
      "半": 3852,
      "卍": 3853,
      "华": 3854,
      "协": 3855,
      "卒": 3856,
      "卓": 3857,
      "单": 3858,
      "南": 3859,
      "単": 3860,
      "博": 3861,
      "卜": 3862,
      "占": 3863,
      "卡": 3864,
      "卢": 3865,
      "卫": 3866,
      "卮": 3867,
      "印": 3868,
      "危": 3869,
      "即": 3870,
      "卵": 3871,
      "卸": 3872,
      "卻": 3873,
      "厂": 3874,
      "历": 3875,
      "压": 3876,
      "厕": 3877,
      "厚": 3878,
      "原": 3879,
      "厦": 3880,
      "厳": 3881,
      "去": 3882,
      "县": 3883,
      "参": 3884,
      "又": 3885,
      "及": 3886,
      "友": 3887,
      "双": 3888,
      "反": 3889,
      "収": 3890,
      "发": 3891,
      "取": 3892,
      "受": 3893,
      "变": 3894,
      "叡": 3895,
      "口": 3896,
      "古": 3897,
      "句": 3898,
      "另": 3899,
      "只": 3900,
      "叫": 3901,
      "召": 3902,
      "可": 3903,
      "台": 3904,
      "史": 3905,
      "右": 3906,
      "叶": 3907,
      "号": 3908,
      "司": 3909,
      "吃": 3910,
      "各": 3911,
      "合": 3912,
      "吉": 3913,
      "同": 3914,
      "名": 3915,
      "后": 3916,
      "吐": 3917,
      "向": 3918,
      "吕": 3919,
      "吗": 3920,
      "君": 3921,
      "否": 3922,
      "吧": 3923,
      "含": 3924,
      "听": 3925,
      "启": 3926,
      "吳": 3927,
      "吴": 3928,
      "吸": 3929,
      "呂": 3930,
      "呆": 3931,
      "呉": 3932,
      "告": 3933,
      "员": 3934,
      "呢": 3935,
      "周": 3936,
      "味": 3937,
      "呵": 3938,
      "呼": 3939,
      "命": 3940,
      "和": 3941,
      "咔": 3942,
      "咖": 3943,
      "咧": 3944,
      "咩": 3945,
      "咲": 3946,
      "咸": 3947,
      "咻": 3948,
      "哀": 3949,
      "品": 3950,
      "哇": 3951,
      "哈": 3952,
      "哉": 3953,
      "員": 3954,
      "哥": 3955,
      "哦": 3956,
      "哪": 3957,
      "哭": 3958,
      "哲": 3959,
      "唇": 3960,
      "唉": 3961,
      "唐": 3962,
      "唔": 3963,
      "唯": 3964,
      "唱": 3965,
      "唾": 3966,
      "商": 3967,
      "啊": 3968,
      "問": 3969,
      "啟": 3970,
      "啡": 3971,
      "啣": 3972,
      "啦": 3973,
      "啪": 3974,
      "喀": 3975,
      "喂": 3976,
      "善": 3977,
      "喇": 3978,
      "喉": 3979,
      "喋": 3980,
      "喚": 3981,
      "喜": 3982,
      "喬": 3983,
      "單": 3984,
      "営": 3985,
      "喷": 3986,
      "喻": 3987,
      "嗎": 3988,
      "嗯": 3989,
      "嘆": 3990,
      "嘉": 3991,
      "嘎": 3992,
      "嘛": 3993,
      "嘟": 3994,
      "嘱": 3995,
      "嘴": 3996,
      "嘿": 3997,
      "噛": 3998,
      "噢": 3999,
      "器": 4000,
      "噩": 4001,
      "噪": 4002,
      "噴": 4003,
      "噹": 4004,
      "嚇": 4005,
      "嚴": 4006,
      "囉": 4007,
      "囊": 4008,
      "四": 4009,
      "回": 4010,
      "囟": 4011,
      "因": 4012,
      "囡": 4013,
      "团": 4014,
      "団": 4015,
      "囥": 4016,
      "园": 4017,
      "困": 4018,
      "囲": 4019,
      "図": 4020,
      "围": 4021,
      "固": 4022,
      "国": 4023,
      "图": 4024,
      "圆": 4025,
      "圈": 4026,
      "國": 4027,
      "圍": 4028,
      "圏": 4029,
      "園": 4030,
      "圖": 4031,
      "團": 4032,
      "土": 4033,
      "圣": 4034,
      "圧": 4035,
      "在": 4036,
      "地": 4037,
      "圳": 4038,
      "场": 4039,
      "圾": 4040,
      "址": 4041,
      "坂": 4042,
      "均": 4043,
      "坊": 4044,
      "坎": 4045,
      "坏": 4046,
      "坐": 4047,
      "坚": 4048,
      "坛": 4049,
      "坝": 4050,
      "坞": 4051,
      "坡": 4052,
      "坤": 4053,
      "坦": 4054,
      "垂": 4055,
      "垃": 4056,
      "型": 4057,
      "垒": 4058,
      "垢": 4059,
      "垣": 4060,
      "埃": 4061,
      "埋": 4062,
      "城": 4063,
      "域": 4064,
      "執": 4065,
      "培": 4066,
      "基": 4067,
      "堀": 4068,
      "堂": 4069,
      "堅": 4070,
      "堆": 4071,
      "堕": 4072,
      "堛": 4073,
      "堜": 4074,
      "堡": 4075,
      "堤": 4076,
      "報": 4077,
      "場": 4078,
      "堺": 4079,
      "塑": 4080,
      "塔": 4081,
      "塗": 4082,
      "塘": 4083,
      "塞": 4084,
      "塵": 4085,
      "塾": 4086,
      "境": 4087,
      "増": 4088,
      "墙": 4089,
      "增": 4090,
      "墨": 4091,
      "墳": 4092,
      "壇": 4093,
      "壊": 4094,
      "壓": 4095,
      "壩": 4096,
      "士": 4097,
      "声": 4098,
      "売": 4099,
      "处": 4100,
      "备": 4101,
      "夈": 4102,
      "変": 4103,
      "夊": 4104,
      "复": 4105,
      "夏": 4106,
      "夕": 4107,
      "外": 4108,
      "多": 4109,
      "夛": 4110,
      "夜": 4111,
      "夠": 4112,
      "夢": 4113,
      "大": 4114,
      "天": 4115,
      "太": 4116,
      "夫": 4117,
      "夭": 4118,
      "失": 4119,
      "头": 4120,
      "夷": 4121,
      "奇": 4122,
      "奈": 4123,
      "奎": 4124,
      "契": 4125,
      "奔": 4126,
      "奖": 4127,
      "套": 4128,
      "奥": 4129,
      "奧": 4130,
      "奪": 4131,
      "女": 4132,
      "奴": 4133,
      "奶": 4134,
      "她": 4135,
      "好": 4136,
      "如": 4137,
      "妄": 4138,
      "妆": 4139,
      "妇": 4140,
      "妈": 4141,
      "妍": 4142,
      "妖": 4143,
      "妝": 4144,
      "妤": 4145,
      "妥": 4146,
      "妬": 4147,
      "妮": 4148,
      "妳": 4149,
      "妹": 4150,
      "妻": 4151,
      "姆": 4152,
      "始": 4153,
      "姐": 4154,
      "委": 4155,
      "姘": 4156,
      "姚": 4157,
      "姫": 4158,
      "姬": 4159,
      "姿": 4160,
      "威": 4161,
      "娅": 4162,
      "娇": 4163,
      "娘": 4164,
      "娛": 4165,
      "娜": 4166,
      "娱": 4167,
      "婂": 4168,
      "婅": 4169,
      "婇": 4170,
      "婚": 4171,
      "婦": 4172,
      "婵": 4173,
      "婷": 4174,
      "媒": 4175,
      "媚": 4176,
      "媛": 4177,
      "媽": 4178,
      "嫁": 4179,
      "嫗": 4180,
      "嫩": 4181,
      "嬉": 4182,
      "嬝": 4183,
      "嬨": 4184,
      "嬪": 4185,
      "嬭": 4186,
      "嬰": 4187,
      "嬲": 4188,
      "子": 4189,
      "孔": 4190,
      "字": 4191,
      "存": 4192,
      "孙": 4193,
      "孜": 4194,
      "孝": 4195,
      "孟": 4196,
      "季": 4197,
      "孤": 4198,
      "学": 4199,
      "孩": 4200,
      "孰": 4201,
      "學": 4202,
      "宁": 4203,
      "它": 4204,
      "宅": 4205,
      "宇": 4206,
      "守": 4207,
      "安": 4208,
      "宋": 4209,
      "完": 4210,
      "宕": 4211,
      "宗": 4212,
      "官": 4213,
      "定": 4214,
      "宛": 4215,
      "宜": 4216,
      "宝": 4217,
      "实": 4218,
      "実": 4219,
      "审": 4220,
      "客": 4221,
      "宣": 4222,
      "室": 4223,
      "宫": 4224,
      "宮": 4225,
      "宰": 4226,
      "害": 4227,
      "宴": 4228,
      "家": 4229,
      "宸": 4230,
      "容": 4231,
      "宽": 4232,
      "宾": 4233,
      "宿": 4234,
      "寂": 4235,
      "寄": 4236,
      "密": 4237,
      "富": 4238,
      "寒": 4239,
      "寝": 4240,
      "寞": 4241,
      "察": 4242,
      "實": 4243,
      "寧": 4244,
      "寨": 4245,
      "審": 4246,
      "寫": 4247,
      "寵": 4248,
      "寶": 4249,
      "寸": 4250,
      "对": 4251,
      "寺": 4252,
      "寻": 4253,
      "导": 4254,
      "対": 4255,
      "寿": 4256,
      "封": 4257,
      "専": 4258,
      "射": 4259,
      "将": 4260,
      "將": 4261,
      "專": 4262,
      "尉": 4263,
      "尊": 4264,
      "尋": 4265,
      "對": 4266,
      "導": 4267,
      "小": 4268,
      "少": 4269,
      "尔": 4270,
      "尖": 4271,
      "尘": 4272,
      "尚": 4273,
      "尤": 4274,
      "尧": 4275,
      "就": 4276,
      "尺": 4277,
      "尻": 4278,
      "尼": 4279,
      "尽": 4280,
      "尾": 4281,
      "尿": 4282,
      "局": 4283,
      "居": 4284,
      "屋": 4285,
      "屍": 4286,
      "屏": 4287,
      "屑": 4288,
      "展": 4289,
      "属": 4290,
      "層": 4291,
      "屬": 4292,
      "山": 4293,
      "屻": 4294,
      "岁": 4295,
      "岐": 4296,
      "岚": 4297,
      "岛": 4298,
      "岡": 4299,
      "岩": 4300,
      "岭": 4301,
      "岳": 4302,
      "岸": 4303,
      "峡": 4304,
      "峨": 4305,
      "峯": 4306,
      "峰": 4307,
      "島": 4308,
      "峽": 4309,
      "崂": 4310,
      "崇": 4311,
      "崎": 4312,
      "崖": 4313,
      "崩": 4314,
      "嵊": 4315,
      "嵐": 4316,
      "嵩": 4317,
      "嶃": 4318,
      "嶽": 4319,
      "川": 4320,
      "州": 4321,
      "巡": 4322,
      "工": 4323,
      "左": 4324,
      "巨": 4325,
      "巫": 4326,
      "差": 4327,
      "己": 4328,
      "已": 4329,
      "巴": 4330,
      "巷": 4331,
      "巻": 4332,
      "巽": 4333,
      "币": 4334,
      "市": 4335,
      "布": 4336,
      "帆": 4337,
      "师": 4338,
      "希": 4339,
      "帐": 4340,
      "帕": 4341,
      "帖": 4342,
      "帝": 4343,
      "帥": 4344,
      "带": 4345,
      "師": 4346,
      "席": 4347,
      "帮": 4348,
      "帯": 4349,
      "帰": 4350,
      "帶": 4351,
      "常": 4352,
      "帽": 4353,
      "幅": 4354,
      "幕": 4355,
      "干": 4356,
      "平": 4357,
      "年": 4358,
      "并": 4359,
      "幸": 4360,
      "幻": 4361,
      "幼": 4362,
      "幽": 4363,
      "幾": 4364,
      "广": 4365,
      "広": 4366,
      "庆": 4367,
      "床": 4368,
      "序": 4369,
      "库": 4370,
      "应": 4371,
      "底": 4372,
      "店": 4373,
      "府": 4374,
      "庞": 4375,
      "度": 4376,
      "座": 4377,
      "庫": 4378,
      "庭": 4379,
      "康": 4380,
      "廃": 4381,
      "廉": 4382,
      "廊": 4383,
      "廓": 4384,
      "廖": 4385,
      "廠": 4386,
      "廣": 4387,
      "延": 4388,
      "廷": 4389,
      "建": 4390,
      "廿": 4391,
      "开": 4392,
      "弁": 4393,
      "异": 4394,
      "弃": 4395,
      "弈": 4396,
      "弊": 4397,
      "弍": 4398,
      "式": 4399,
      "弓": 4400,
      "引": 4401,
      "弗": 4402,
      "弘": 4403,
      "弛": 4404,
      "弟": 4405,
      "张": 4406,
      "弥": 4407,
      "弦": 4408,
      "弱": 4409,
      "張": 4410,
      "強": 4411,
      "弹": 4412,
      "强": 4413,
      "弾": 4414,
      "彈": 4415,
      "归": 4416,
      "当": 4417,
      "录": 4418,
      "彗": 4419,
      "彡": 4420,
      "形": 4421,
      "彦": 4422,
      "彩": 4423,
      "彫": 4424,
      "彭": 4425,
      "影": 4426,
      "彷": 4427,
      "役": 4428,
      "彼": 4429,
      "彿": 4430,
      "往": 4431,
      "征": 4432,
      "径": 4433,
      "待": 4434,
      "很": 4435,
      "律": 4436,
      "後": 4437,
      "徐": 4438,
      "徑": 4439,
      "徒": 4440,
      "従": 4441,
      "得": 4442,
      "從": 4443,
      "御": 4444,
      "復": 4445,
      "循": 4446,
      "微": 4447,
      "徳": 4448,
      "徴": 4449,
      "德": 4450,
      "徹": 4451,
      "徽": 4452,
      "心": 4453,
      "必": 4454,
      "忆": 4455,
      "忋": 4456,
      "忍": 4457,
      "志": 4458,
      "忘": 4459,
      "忙": 4460,
      "応": 4461,
      "忠": 4462,
      "快": 4463,
      "念": 4464,
      "态": 4465,
      "怎": 4466,
      "怒": 4467,
      "怕": 4468,
      "怖": 4469,
      "思": 4470,
      "急": 4471,
      "性": 4472,
      "怪": 4473,
      "总": 4474,
      "恆": 4475,
      "恋": 4476,
      "恐": 4477,
      "恒": 4478,
      "恢": 4479,
      "恥": 4480,
      "恩": 4481,
      "息": 4482,
      "恰": 4483,
      "恵": 4484,
      "恶": 4485,
      "悅": 4486,
      "悔": 4487,
      "悟": 4488,
      "悠": 4489,
      "患": 4490,
      "您": 4491,
      "悩": 4492,
      "悪": 4493,
      "悲": 4494,
      "情": 4495,
      "惊": 4496,
      "惚": 4497,
      "惜": 4498,
      "惠": 4499,
      "惱": 4500,
      "想": 4501,
      "愈": 4502,
      "愉": 4503,
      "意": 4504,
      "愛": 4505,
      "感": 4506,
      "愩": 4507,
      "愿": 4508,
      "慈": 4509,
      "態": 4510,
      "慕": 4511,
      "慢": 4512,
      "慣": 4513,
      "慧": 4514,
      "慮": 4515,
      "慰": 4516,
      "慱": 4517,
      "慶": 4518,
      "慹": 4519,
      "慾": 4520,
      "憍": 4521,
      "憑": 4522,
      "憡": 4523,
      "憩": 4524,
      "憪": 4525,
      "憭": 4526,
      "憾": 4527,
      "懇": 4528,
      "懈": 4529,
      "應": 4530,
      "懐": 4531,
      "懦": 4532,
      "懸": 4533,
      "懿": 4534,
      "戀": 4535,
      "戈": 4536,
      "戏": 4537,
      "成": 4538,
      "我": 4539,
      "戒": 4540,
      "或": 4541,
      "战": 4542,
      "戙": 4543,
      "戝": 4544,
      "戦": 4545,
      "截": 4546,
      "戰": 4547,
      "戲": 4548,
      "戳": 4549,
      "戴": 4550,
      "戶": 4551,
      "户": 4552,
      "戸": 4553,
      "戻": 4554,
      "房": 4555,
      "所": 4556,
      "扇": 4557,
      "手": 4558,
      "才": 4559,
      "扎": 4560,
      "打": 4561,
      "払": 4562,
      "托": 4563,
      "扣": 4564,
      "执": 4565,
      "扫": 4566,
      "扬": 4567,
      "扭": 4568,
      "扮": 4569,
      "扱": 4570,
      "扶": 4571,
      "找": 4572,
      "承": 4573,
      "技": 4574,
      "抄": 4575,
      "把": 4576,
      "抑": 4577,
      "抓": 4578,
      "投": 4579,
      "抗": 4580,
      "折": 4581,
      "抜": 4582,
      "択": 4583,
      "护": 4584,
      "报": 4585,
      "披": 4586,
      "抯": 4587,
      "抰": 4588,
      "抱": 4589,
      "抵": 4590,
      "抹": 4591,
      "押": 4592,
      "抽": 4593,
      "拉": 4594,
      "拍": 4595,
      "拐": 4596,
      "拒": 4597,
      "拔": 4598,
      "招": 4599,
      "拜": 4600,
      "拝": 4601,
      "拟": 4602,
      "拠": 4603,
      "拡": 4604,
      "拥": 4605,
      "拧": 4606,
      "择": 4607,
      "括": 4608,
      "拭": 4609,
      "拶": 4610,
      "拽": 4611,
      "拾": 4612,
      "拿": 4613,
      "持": 4614,
      "挂": 4615,
      "指": 4616,
      "按": 4617,
      "挑": 4618,
      "挨": 4619,
      "振": 4620,
      "挺": 4621,
      "挽": 4622,
      "挿": 4623,
      "捕": 4624,
      "捜": 4625,
      "损": 4626,
      "换": 4627,
      "捧": 4628,
      "据": 4629,
      "捷": 4630,
      "掌": 4631,
      "掍": 4632,
      "排": 4633,
      "掛": 4634,
      "探": 4635,
      "接": 4636,
      "控": 4637,
      "推": 4638,
      "措": 4639,
      "掲": 4640,
      "掳": 4641,
      "揀": 4642,
      "揃": 4643,
      "提": 4644,
      "插": 4645,
      "換": 4646,
      "握": 4647,
      "揭": 4648,
      "揮": 4649,
      "援": 4650,
      "搂": 4651,
      "搃": 4652,
      "搏": 4653,
      "搜": 4654,
      "搞": 4655,
      "搧": 4656,
      "搬": 4657,
      "搭": 4658,
      "搴": 4659,
      "携": 4660,
      "摂": 4661,
      "摒": 4662,
      "摘": 4663,
      "摨": 4664,
      "摩": 4665,
      "摺": 4666,
      "撃": 4667,
      "撒": 4668,
      "撗": 4669,
      "撞": 4670,
      "撫": 4671,
      "播": 4672,
      "撮": 4673,
      "撱": 4674,
      "撲": 4675,
      "撳": 4676,
      "撼": 4677,
      "擁": 4678,
      "擅": 4679,
      "擊": 4680,
      "操": 4681,
      "據": 4682,
      "擢": 4683,
      "擬": 4684,
      "擴": 4685,
      "攝": 4686,
      "支": 4687,
      "收": 4688,
      "改": 4689,
      "攻": 4690,
      "放": 4691,
      "政": 4692,
      "故": 4693,
      "效": 4694,
      "敏": 4695,
      "救": 4696,
      "敕": 4697,
      "敗": 4698,
      "教": 4699,
      "散": 4700,
      "敦": 4701,
      "敬": 4702,
      "敯": 4703,
      "数": 4704,
      "整": 4705,
      "敵": 4706,
      "敶": 4707,
      "敷": 4708,
      "數": 4709,
      "文": 4710,
      "斋": 4711,
      "斌": 4712,
      "斎": 4713,
      "斐": 4714,
      "料": 4715,
      "斜": 4716,
      "断": 4717,
      "斯": 4718,
      "新": 4719,
      "斷": 4720,
      "方": 4721,
      "斻": 4722,
      "於": 4723,
      "施": 4724,
      "旅": 4725,
      "旌": 4726,
      "族": 4727,
      "旗": 4728,
      "无": 4729,
      "既": 4730,
      "日": 4731,
      "旦": 4732,
      "旧": 4733,
      "旨": 4734,
      "早": 4735,
      "旬": 4736,
      "旭": 4737,
      "旱": 4738,
      "时": 4739,
      "旼": 4740,
      "昂": 4741,
      "昆": 4742,
      "昇": 4743,
      "昌": 4744,
      "明": 4745,
      "易": 4746,
      "昔": 4747,
      "星": 4748,
      "映": 4749,
      "春": 4750,
      "昧": 4751,
      "昨": 4752,
      "昭": 4753,
      "是": 4754,
      "昼": 4755,
      "显": 4756,
      "時": 4757,
      "晋": 4758,
      "晓": 4759,
      "晚": 4760,
      "普": 4761,
      "景": 4762,
      "晴": 4763,
      "晶": 4764,
      "智": 4765,
      "暑": 4766,
      "暖": 4767,
      "暗": 4768,
      "暦": 4769,
      "暨": 4770,
      "暫": 4771,
      "暮": 4772,
      "暴": 4773,
      "曉": 4774,
      "曘": 4775,
      "曜": 4776,
      "曬": 4777,
      "曰": 4778,
      "曲": 4779,
      "更": 4780,
      "書": 4781,
      "曼": 4782,
      "曾": 4783,
      "替": 4784,
      "最": 4785,
      "會": 4786,
      "朅": 4787,
      "月": 4788,
      "有": 4789,
      "朋": 4790,
      "服": 4791,
      "朗": 4792,
      "望": 4793,
      "朝": 4794,
      "期": 4795,
      "木": 4796,
      "未": 4797,
      "末": 4798,
      "本": 4799,
      "札": 4800,
      "术": 4801,
      "朱": 4802,
      "朴": 4803,
      "机": 4804,
      "朽": 4805,
      "杂": 4806,
      "权": 4807,
      "杉": 4808,
      "李": 4809,
      "材": 4810,
      "村": 4811,
      "杜": 4812,
      "杞": 4813,
      "束": 4814,
      "条": 4815,
      "来": 4816,
      "杭": 4817,
      "杯": 4818,
      "杰": 4819,
      "東": 4820,
      "杷": 4821,
      "松": 4822,
      "板": 4823,
      "极": 4824,
      "构": 4825,
      "枇": 4826,
      "析": 4827,
      "枕": 4828,
      "林": 4829,
      "枚": 4830,
      "果": 4831,
      "枝": 4832,
      "枫": 4833,
      "架": 4834,
      "枸": 4835,
      "柄": 4836,
      "柏": 4837,
      "柑": 4838,
      "染": 4839,
      "柔": 4840,
      "柞": 4841,
      "查": 4842,
      "柱": 4843,
      "柳": 4844,
      "査": 4845,
      "栄": 4846,
      "标": 4847,
      "树": 4848,
      "校": 4849,
      "栥": 4850,
      "株": 4851,
      "样": 4852,
      "核": 4853,
      "根": 4854,
      "格": 4855,
      "栾": 4856,
      "桂": 4857,
      "桃": 4858,
      "案": 4859,
      "桑": 4860,
      "桓": 4861,
      "桜": 4862,
      "档": 4863,
      "桥": 4864,
      "桿": 4865,
      "梁": 4866,
      "梅": 4867,
      "梓": 4868,
      "條": 4869,
      "梨": 4870,
      "械": 4871,
      "棋": 4872,
      "棒": 4873,
      "棕": 4874,
      "棚": 4875,
      "棠": 4876,
      "棣": 4877,
      "森": 4878,
      "椅": 4879,
      "植": 4880,
      "検": 4881,
      "椰": 4882,
      "椼": 4883,
      "楁": 4884,
      "楊": 4885,
      "楔": 4886,
      "楚": 4887,
      "業": 4888,
      "極": 4889,
      "楼": 4890,
      "楽": 4891,
      "楾": 4892,
      "概": 4893,
      "榆": 4894,
      "榕": 4895,
      "榮": 4896,
      "構": 4897,
      "槍": 4898,
      "槑": 4899,
      "様": 4900,
      "槦": 4901,
      "槳": 4902,
      "槻": 4903,
      "槽": 4904,
      "樂": 4905,
      "樓": 4906,
      "標": 4907,
      "模": 4908,
      "樣": 4909,
      "権": 4910,
      "横": 4911,
      "樸": 4912,
      "樹": 4913,
      "橋": 4914,
      "橘": 4915,
      "機": 4916,
      "橡": 4917,
      "橧": 4918,
      "檃": 4919,
      "檈": 4920,
      "檌": 4921,
      "檔": 4922,
      "檜": 4923,
      "檡": 4924,
      "檬": 4925,
      "檸": 4926,
      "櫞": 4927,
      "櫨": 4928,
      "櫻": 4929,
      "次": 4930,
      "欢": 4931,
      "欣": 4932,
      "欧": 4933,
      "欲": 4934,
      "款": 4935,
      "歇": 4936,
      "歉": 4937,
      "歌": 4938,
      "歐": 4939,
      "歓": 4940,
      "歡": 4941,
      "止": 4942,
      "正": 4943,
      "此": 4944,
      "步": 4945,
      "武": 4946,
      "歩": 4947,
      "歲": 4948,
      "歳": 4949,
      "歴": 4950,
      "歷": 4951,
      "死": 4952,
      "殊": 4953,
      "残": 4954,
      "殖": 4955,
      "殩": 4956,
      "段": 4957,
      "殷": 4958,
      "殺": 4959,
      "殿": 4960,
      "毀": 4961,
      "母": 4962,
      "毎": 4963,
      "每": 4964,
      "毒": 4965,
      "毓": 4966,
      "比": 4967,
      "毗": 4968,
      "毛": 4969,
      "毫": 4970,
      "氐": 4971,
      "民": 4972,
      "氓": 4973,
      "气": 4974,
      "気": 4975,
      "氛": 4976,
      "氢": 4977,
      "氣": 4978,
      "氥": 4979,
      "氧": 4980,
      "氨": 4981,
      "氮": 4982,
      "氳": 4983,
      "水": 4984,
      "永": 4985,
      "氾": 4986,
      "汁": 4987,
      "求": 4988,
      "汇": 4989,
      "汉": 4990,
      "汕": 4991,
      "汚": 4992,
      "汝": 4993,
      "江": 4994,
      "池": 4995,
      "汤": 4996,
      "汲": 4997,
      "決": 4998,
      "汽": 4999,
      "汾": 5000,
      "沁": 5001,
      "沃": 5002,
      "沈": 5003,
      "沉": 5004,
      "沐": 5005,
      "沒": 5006,
      "沖": 5007,
      "沙": 5008,
      "沟": 5009,
      "没": 5010,
      "沢": 5011,
      "沦": 5012,
      "沪": 5013,
      "沫": 5014,
      "河": 5015,
      "沸": 5016,
      "油": 5017,
      "治": 5018,
      "沼": 5019,
      "沾": 5020,
      "沿": 5021,
      "況": 5022,
      "泄": 5023,
      "泉": 5024,
      "泊": 5025,
      "泌": 5026,
      "法": 5027,
      "泗": 5028,
      "泛": 5029,
      "泡": 5030,
      "波": 5031,
      "泣": 5032,
      "泥": 5033,
      "注": 5034,
      "泰": 5035,
      "泳": 5036,
      "泵": 5037,
      "泻": 5038,
      "泽": 5039,
      "洁": 5040,
      "洋": 5041,
      "洒": 5042,
      "洗": 5043,
      "洙": 5044,
      "洛": 5045,
      "洞": 5046,
      "津": 5047,
      "洪": 5048,
      "洮": 5049,
      "洱": 5050,
      "洲": 5051,
      "活": 5052,
      "派": 5053,
      "流": 5054,
      "浅": 5055,
      "测": 5056,
      "济": 5057,
      "浏": 5058,
      "浗": 5059,
      "浙": 5060,
      "浜": 5061,
      "浠": 5062,
      "浣": 5063,
      "浦": 5064,
      "浪": 5065,
      "浮": 5066,
      "浴": 5067,
      "海": 5068,
      "浼": 5069,
      "消": 5070,
      "涌": 5071,
      "涓": 5072,
      "涖": 5073,
      "涙": 5074,
      "涡": 5075,
      "涧": 5076,
      "涨": 5077,
      "涩": 5078,
      "涯": 5079,
      "液": 5080,
      "淇": 5081,
      "淏": 5082,
      "淒": 5083,
      "淚": 5084,
      "淜": 5085,
      "淡": 5086,
      "淢": 5087,
      "淨": 5088,
      "淪": 5089,
      "淫": 5090,
      "淬": 5091,
      "淮": 5092,
      "深": 5093,
      "淳": 5094,
      "淵": 5095,
      "混": 5096,
      "淹": 5097,
      "添": 5098,
      "清": 5099,
      "済": 5100,
      "渋": 5101,
      "渑": 5102,
      "渒": 5103,
      "減": 5104,
      "渝": 5105,
      "渡": 5106,
      "渣": 5107,
      "温": 5108,
      "測": 5109,
      "渭": 5110,
      "港": 5111,
      "游": 5112,
      "湊": 5113,
      "湖": 5114,
      "湘": 5115,
      "湯": 5116,
      "湴": 5117,
      "湾": 5118,
      "満": 5119,
      "源": 5120,
      "準": 5121,
      "溪": 5122,
      "溫": 5123,
      "溶": 5124,
      "溺": 5125,
      "溿": 5126,
      "滄": 5127,
      "滅": 5128,
      "滋": 5129,
      "滑": 5130,
      "滚": 5131,
      "滝": 5132,
      "滞": 5133,
      "满": 5134,
      "滩": 5135,
      "滲": 5136,
      "滴": 5137,
      "滿": 5138,
      "漏": 5139,
      "演": 5140,
      "漠": 5141,
      "漢": 5142,
      "漫": 5143,
      "漱": 5144,
      "漸": 5145,
      "漾": 5146,
      "潃": 5147,
      "潔": 5148,
      "潘": 5149,
      "潛": 5150,
      "潞": 5151,
      "潤": 5152,
      "潭": 5153,
      "潮": 5154,
      "潼": 5155,
      "澈": 5156,
      "澤": 5157,
      "澳": 5158,
      "澶": 5159,
      "激": 5160,
      "濂": 5161,
      "濃": 5162,
      "濕": 5163,
      "濤": 5164,
      "濫": 5165,
      "瀧": 5166,
      "瀬": 5167,
      "瀹": 5168,
      "灏": 5169,
      "灘": 5170,
      "灣": 5171,
      "火": 5172,
      "灭": 5173,
      "灯": 5174,
      "灵": 5175,
      "災": 5176,
      "灾": 5177,
      "炎": 5178,
      "炪": 5179,
      "炫": 5180,
      "炭": 5181,
      "点": 5182,
      "為": 5183,
      "炽": 5184,
      "烈": 5185,
      "烏": 5186,
      "烘": 5187,
      "烤": 5188,
      "烧": 5189,
      "烨": 5190,
      "热": 5191,
      "烯": 5192,
      "烷": 5193,
      "無": 5194,
      "焦": 5195,
      "然": 5196,
      "焼": 5197,
      "煉": 5198,
      "煙": 5199,
      "煤": 5200,
      "煥": 5201,
      "照": 5202,
      "煮": 5203,
      "煲": 5204,
      "熊": 5205,
      "熟": 5206,
      "熱": 5207,
      "熹": 5208,
      "燃": 5209,
      "燈": 5210,
      "燒": 5211,
      "燕": 5212,
      "營": 5213,
      "燦": 5214,
      "燮": 5215,
      "爆": 5216,
      "爪": 5217,
      "爱": 5218,
      "爵": 5219,
      "父": 5220,
      "爷": 5221,
      "爸": 5222,
      "爻": 5223,
      "爽": 5224,
      "爾": 5225,
      "片": 5226,
      "版": 5227,
      "牌": 5228,
      "牙": 5229,
      "牛": 5230,
      "牡": 5231,
      "物": 5232,
      "牬": 5233,
      "特": 5234,
      "犀": 5235,
      "犬": 5236,
      "犮": 5237,
      "犯": 5238,
      "状": 5239,
      "犹": 5240,
      "狀": 5241,
      "狂": 5242,
      "狄": 5243,
      "狐": 5244,
      "狗": 5245,
      "狙": 5246,
      "狞": 5247,
      "狩": 5248,
      "独": 5249,
      "狭": 5250,
      "狮": 5251,
      "狱": 5252,
      "狼": 5253,
      "猜": 5254,
      "猫": 5255,
      "獄": 5256,
      "獎": 5257,
      "獨": 5258,
      "獲": 5259,
      "獸": 5260,
      "率": 5261,
      "玉": 5262,
      "王": 5263,
      "玖": 5264,
      "玛": 5265,
      "玩": 5266,
      "玫": 5267,
      "环": 5268,
      "现": 5269,
      "玲": 5270,
      "玻": 5271,
      "珈": 5272,
      "珍": 5273,
      "珞": 5274,
      "珠": 5275,
      "班": 5276,
      "現": 5277,
      "球": 5278,
      "理": 5279,
      "琰": 5280,
      "琲": 5281,
      "琳": 5282,
      "琵": 5283,
      "琶": 5284,
      "琼": 5285,
      "瑕": 5286,
      "瑞": 5287,
      "瑟": 5288,
      "瑣": 5289,
      "瑩": 5290,
      "瑪": 5291,
      "瑰": 5292,
      "瑹": 5293,
      "璉": 5294,
      "璧": 5295,
      "璨": 5296,
      "環": 5297,
      "瓒": 5298,
      "瓙": 5299,
      "瓜": 5300,
      "瓦": 5301,
      "瓶": 5302,
      "瓷": 5303,
      "甕": 5304,
      "甘": 5305,
      "甚": 5306,
      "甜": 5307,
      "生": 5308,
      "產": 5309,
      "産": 5310,
      "用": 5311,
      "甩": 5312,
      "甯": 5313,
      "田": 5314,
      "由": 5315,
      "甲": 5316,
      "申": 5317,
      "电": 5318,
      "男": 5319,
      "甸": 5320,
      "町": 5321,
      "画": 5322,
      "畅": 5323,
      "界": 5324,
      "畏": 5325,
      "畔": 5326,
      "留": 5327,
      "畜": 5328,
      "略": 5329,
      "番": 5330,
      "畫": 5331,
      "異": 5332,
      "畳": 5333,
      "畴": 5334,
      "當": 5335,
      "疑": 5336,
      "疗": 5337,
      "疟": 5338,
      "疣": 5339,
      "疤": 5340,
      "疫": 5341,
      "疾": 5342,
      "病": 5343,
      "症": 5344,
      "痕": 5345,
      "痘": 5346,
      "痛": 5347,
      "痞": 5348,
      "痣": 5349,
      "痩": 5350,
      "痴": 5351,
      "痺": 5352,
      "瘋": 5353,
      "瘓": 5354,
      "瘣": 5355,
      "瘤": 5356,
      "療": 5357,
      "癌": 5358,
      "癒": 5359,
      "癱": 5360,
      "発": 5361,
      "登": 5362,
      "發": 5363,
      "白": 5364,
      "百": 5365,
      "皂": 5366,
      "的": 5367,
      "皆": 5368,
      "皇": 5369,
      "皋": 5370,
      "皮": 5371,
      "皺": 5372,
      "盆": 5373,
      "益": 5374,
      "盐": 5375,
      "盒": 5376,
      "盖": 5377,
      "盘": 5378,
      "盛": 5379,
      "盟": 5380,
      "盡": 5381,
      "監": 5382,
      "盤": 5383,
      "目": 5384,
      "盲": 5385,
      "直": 5386,
      "相": 5387,
      "盼": 5388,
      "省": 5389,
      "眉": 5390,
      "看": 5391,
      "県": 5392,
      "眞": 5393,
      "真": 5394,
      "眠": 5395,
      "眼": 5396,
      "眾": 5397,
      "着": 5398,
      "睇": 5399,
      "睛": 5400,
      "睡": 5401,
      "督": 5402,
      "睦": 5403,
      "睨": 5404,
      "睫": 5405,
      "瞉": 5406,
      "瞬": 5407,
      "矢": 5408,
      "知": 5409,
      "短": 5410,
      "石": 5411,
      "矶": 5412,
      "码": 5413,
      "砂": 5414,
      "研": 5415,
      "砖": 5416,
      "砲": 5417,
      "破": 5418,
      "硅": 5419,
      "硕": 5420,
      "硫": 5421,
      "硬": 5422,
      "确": 5423,
      "硯": 5424,
      "硼": 5425,
      "碌": 5426,
      "碎": 5427,
      "碑": 5428,
      "碧": 5429,
      "碳": 5430,
      "確": 5431,
      "碼": 5432,
      "磁": 5433,
      "磇": 5434,
      "磐": 5435,
      "磗": 5436,
      "磺": 5437,
      "礎": 5438,
      "礦": 5439,
      "示": 5440,
      "礼": 5441,
      "社": 5442,
      "祈": 5443,
      "祓": 5444,
      "祖": 5445,
      "祛": 5446,
      "祜": 5447,
      "祝": 5448,
      "神": 5449,
      "祥": 5450,
      "票": 5451,
      "祭": 5452,
      "祷": 5453,
      "禁": 5454,
      "禄": 5455,
      "禅": 5456,
      "福": 5457,
      "禮": 5458,
      "禺": 5459,
      "秀": 5460,
      "私": 5461,
      "秉": 5462,
      "秋": 5463,
      "种": 5464,
      "科": 5465,
      "秒": 5466,
      "秘": 5467,
      "租": 5468,
      "秦": 5469,
      "秭": 5470,
      "称": 5471,
      "移": 5472,
      "稅": 5473,
      "程": 5474,
      "税": 5475,
      "稚": 5476,
      "稣": 5477,
      "種": 5478,
      "稱": 5479,
      "稲": 5480,
      "稳": 5481,
      "稼": 5482,
      "稿": 5483,
      "穂": 5484,
      "穆": 5485,
      "穩": 5486,
      "究": 5487,
      "空": 5488,
      "穿": 5489,
      "突": 5490,
      "窒": 5491,
      "窓": 5492,
      "窗": 5493,
      "窝": 5494,
      "立": 5495,
      "站": 5496,
      "章": 5497,
      "竣": 5498,
      "童": 5499,
      "端": 5500,
      "竴": 5501,
      "競": 5502,
      "竷": 5503,
      "竹": 5504,
      "笀": 5505,
      "笑": 5506,
      "笔": 5507,
      "笛": 5508,
      "符": 5509,
      "第": 5510,
      "笺": 5511,
      "筆": 5512,
      "等": 5513,
      "筋": 5514,
      "答": 5515,
      "策": 5516,
      "签": 5517,
      "简": 5518,
      "算": 5519,
      "管": 5520,
      "箭": 5521,
      "箱": 5522,
      "節": 5523,
      "範": 5524,
      "篇": 5525,
      "築": 5526,
      "篠": 5527,
      "簡": 5528,
      "簧": 5529,
      "簵": 5530,
      "籤": 5531,
      "米": 5532,
      "类": 5533,
      "籽": 5534,
      "粉": 5535,
      "粋": 5536,
      "粒": 5537,
      "粕": 5538,
      "粗": 5539,
      "粤": 5540,
      "粧": 5541,
      "粱": 5542,
      "粵": 5543,
      "粹": 5544,
      "粽": 5545,
      "精": 5546,
      "糎": 5547,
      "糖": 5548,
      "糞": 5549,
      "糯": 5550,
      "系": 5551,
      "紀": 5552,
      "約": 5553,
      "紅": 5554,
      "紋": 5555,
      "納": 5556,
      "純": 5557,
      "紗": 5558,
      "紙": 5559,
      "級": 5560,
      "素": 5561,
      "紡": 5562,
      "索": 5563,
      "紫": 5564,
      "細": 5565,
      "紳": 5566,
      "紹": 5567,
      "終": 5568,
      "組": 5569,
      "経": 5570,
      "結": 5571,
      "絕": 5572,
      "絡": 5573,
      "給": 5574,
      "統": 5575,
      "絲": 5576,
      "絵": 5577,
      "絶": 5578,
      "綁": 5579,
      "經": 5580,
      "継": 5581,
      "続": 5582,
      "綜": 5583,
      "綠": 5584,
      "綫": 5585,
      "維": 5586,
      "網": 5587,
      "綺": 5588,
      "綾": 5589,
      "綿": 5590,
      "緊": 5591,
      "総": 5592,
      "緑": 5593,
      "緒": 5594,
      "線": 5595,
      "締": 5596,
      "編": 5597,
      "緩": 5598,
      "練": 5599,
      "緻": 5600,
      "縄": 5601,
      "縣": 5602,
      "縦": 5603,
      "縫": 5604,
      "縮": 5605,
      "績": 5606,
      "繁": 5607,
      "繕": 5608,
      "繩": 5609,
      "繫": 5610,
      "繼": 5611,
      "續": 5612,
      "纖": 5613,
      "红": 5614,
      "约": 5615,
      "级": 5616,
      "纬": 5617,
      "纯": 5618,
      "纳": 5619,
      "纺": 5620,
      "纽": 5621,
      "线": 5622,
      "组": 5623,
      "细": 5624,
      "织": 5625,
      "绌": 5626,
      "绍": 5627,
      "经": 5628,
      "结": 5629,
      "给": 5630,
      "绛": 5631,
      "络": 5632,
      "统": 5633,
      "继": 5634,
      "绫": 5635,
      "续": 5636,
      "维": 5637,
      "绵": 5638,
      "绿": 5639,
      "缅": 5640,
      "编": 5641,
      "缙": 5642,
      "缩": 5643,
      "缺": 5644,
      "网": 5645,
      "罕": 5646,
      "罗": 5647,
      "罚": 5648,
      "罪": 5649,
      "置": 5650,
      "署": 5651,
      "羅": 5652,
      "羊": 5653,
      "美": 5654,
      "羡": 5655,
      "群": 5656,
      "羨": 5657,
      "義": 5658,
      "羲": 5659,
      "羽": 5660,
      "翅": 5661,
      "習": 5662,
      "翻": 5663,
      "翼": 5664,
      "耀": 5665,
      "老": 5666,
      "考": 5667,
      "者": 5668,
      "而": 5669,
      "耍": 5670,
      "耐": 5671,
      "耗": 5672,
      "耦": 5673,
      "耶": 5674,
      "耿": 5675,
      "聊": 5676,
      "职": 5677,
      "联": 5678,
      "聖": 5679,
      "聚": 5680,
      "聞": 5681,
      "聪": 5682,
      "聯": 5683,
      "職": 5684,
      "聽": 5685,
      "肃": 5686,
      "肉": 5687,
      "肌": 5688,
      "肖": 5689,
      "肛": 5690,
      "股": 5691,
      "肥": 5692,
      "肩": 5693,
      "肪": 5694,
      "肯": 5695,
      "育": 5696,
      "肺": 5697,
      "肽": 5698,
      "肿": 5699,
      "胁": 5700,
      "胃": 5701,
      "背": 5702,
      "胎": 5703,
      "胜": 5704,
      "胞": 5705,
      "胡": 5706,
      "胤": 5707,
      "胶": 5708,
      "胸": 5709,
      "胺": 5710,
      "能": 5711,
      "脂": 5712,
      "脆": 5713,
      "脈": 5714,
      "脊": 5715,
      "脑": 5716,
      "脱": 5717,
      "脳": 5718,
      "脽": 5719,
      "腊": 5720,
      "腑": 5721,
      "腕": 5722,
      "腦": 5723,
      "腫": 5724,
      "腰": 5725,
      "腳": 5726,
      "腹": 5727,
      "腺": 5728,
      "腾": 5729,
      "腿": 5730,
      "膀": 5731,
      "膏": 5732,
      "膚": 5733,
      "膜": 5734,
      "膠": 5735,
      "膨": 5736,
      "膩": 5737,
      "膬": 5738,
      "膮": 5739,
      "膰": 5740,
      "膵": 5741,
      "膷": 5742,
      "膽": 5743,
      "臉": 5744,
      "臋": 5745,
      "臎": 5746,
      "臘": 5747,
      "臣": 5748,
      "臨": 5749,
      "自": 5750,
      "至": 5751,
      "致": 5752,
      "臺": 5753,
      "與": 5754,
      "興": 5755,
      "舉": 5756,
      "舒": 5757,
      "舗": 5758,
      "舞": 5759,
      "舟": 5760,
      "航": 5761,
      "般": 5762,
      "舰": 5763,
      "船": 5764,
      "艂": 5765,
      "艌": 5766,
      "艖": 5767,
      "艡": 5768,
      "艧": 5769,
      "良": 5770,
      "色": 5771,
      "艺": 5772,
      "艾": 5773,
      "节": 5774,
      "芒": 5775,
      "芜": 5776,
      "芝": 5777,
      "芦": 5778,
      "芬": 5779,
      "芭": 5780,
      "芮": 5781,
      "芯": 5782,
      "花": 5783,
      "芳": 5784,
      "芸": 5785,
      "苇": 5786,
      "苍": 5787,
      "苏": 5788,
      "苗": 5789,
      "苡": 5790,
      "若": 5791,
      "苦": 5792,
      "英": 5793,
      "茂": 5794,
      "范": 5795,
      "茅": 5796,
      "茨": 5797,
      "茫": 5798,
      "茴": 5799,
      "茶": 5800,
      "草": 5801,
      "荐": 5802,
      "荘": 5803,
      "荞": 5804,
      "荣": 5805,
      "荫": 5806,
      "荷": 5807,
      "莉": 5808,
      "莎": 5809,
      "莓": 5810,
      "莘": 5811,
      "莞": 5812,
      "莫": 5813,
      "莱": 5814,
      "获": 5815,
      "莽": 5816,
      "菅": 5817,
      "菊": 5818,
      "菌": 5819,
      "菏": 5820,
      "菜": 5821,
      "華": 5822,
      "菲": 5823,
      "萄": 5824,
      "萊": 5825,
      "萌": 5826,
      "萎": 5827,
      "营": 5828,
      "萨": 5829,
      "萩": 5830,
      "萬": 5831,
      "萱": 5832,
      "落": 5833,
      "葉": 5834,
      "著": 5835,
      "葛": 5836,
      "葡": 5837,
      "葬": 5838,
      "葯": 5839,
      "蒂": 5840,
      "蒙": 5841,
      "蒲": 5842,
      "蒼": 5843,
      "蓄": 5844,
      "蓋": 5845,
      "蓝": 5846,
      "蓟": 5847,
      "蓬": 5848,
      "蔚": 5849,
      "蔡": 5850,
      "蔦": 5851,
      "蔵": 5852,
      "蔺": 5853,
      "蔻": 5854,
      "蕃": 5855,
      "蕙": 5856,
      "蕲": 5857,
      "蕴": 5858,
      "薄": 5859,
      "薇": 5860,
      "薈": 5861,
      "薦": 5862,
      "薩": 5863,
      "薪": 5864,
      "薫": 5865,
      "薬": 5866,
      "藉": 5867,
      "藍": 5868,
      "藏": 5869,
      "藝": 5870,
      "藤": 5871,
      "藥": 5872,
      "藩": 5873,
      "蘇": 5874,
      "蘊": 5875,
      "蘋": 5876,
      "蘭": 5877,
      "虎": 5878,
      "虔": 5879,
      "處": 5880,
      "虚": 5881,
      "虞": 5882,
      "號": 5883,
      "虫": 5884,
      "虹": 5885,
      "蚤": 5886,
      "蛇": 5887,
      "蛋": 5888,
      "蛰": 5889,
      "蜜": 5890,
      "蜡": 5891,
      "蝎": 5892,
      "蝏": 5893,
      "蝦": 5894,
      "蝬": 5895,
      "蝸": 5896,
      "融": 5897,
      "螺": 5898,
      "蟹": 5899,
      "蟺": 5900,
      "蟻": 5901,
      "蟼": 5902,
      "蟽": 5903,
      "蟿": 5904,
      "蠀": 5905,
      "蠁": 5906,
      "蠂": 5907,
      "蠅": 5908,
      "蠈": 5909,
      "蠉": 5910,
      "蠋": 5911,
      "蠟": 5912,
      "蠡": 5913,
      "蠣": 5914,
      "蠶": 5915,
      "蠻": 5916,
      "血": 5917,
      "衆": 5918,
      "行": 5919,
      "術": 5920,
      "街": 5921,
      "衝": 5922,
      "衡": 5923,
      "衣": 5924,
      "表": 5925,
      "衰": 5926,
      "衷": 5927,
      "袈": 5928,
      "袋": 5929,
      "袖": 5930,
      "袗": 5931,
      "袙": 5932,
      "袛": 5933,
      "袝": 5934,
      "袞": 5935,
      "袟": 5936,
      "袠": 5937,
      "袡": 5938,
      "袣": 5939,
      "袥": 5940,
      "袧": 5941,
      "袨": 5942,
      "袩": 5943,
      "袪": 5944,
      "被": 5945,
      "裁": 5946,
      "裂": 5947,
      "装": 5948,
      "裏": 5949,
      "裔": 5950,
      "裕": 5951,
      "補": 5952,
      "裝": 5953,
      "裟": 5954,
      "裡": 5955,
      "裤": 5956,
      "裺": 5957,
      "製": 5958,
      "複": 5959,
      "褉": 5960,
      "褋": 5961,
      "褌": 5962,
      "褍": 5963,
      "褎": 5964,
      "褏": 5965,
      "褐": 5966,
      "褑": 5967,
      "褔": 5968,
      "褕": 5969,
      "褖": 5970,
      "褘": 5971,
      "褜": 5972,
      "褞": 5973,
      "褟": 5974,
      "褢": 5975,
      "褲": 5976,
      "襟": 5977,
      "西": 5978,
      "要": 5979,
      "覃": 5980,
      "覆": 5981,
      "見": 5982,
      "規": 5983,
      "視": 5984,
      "覚": 5985,
      "覧": 5986,
      "親": 5987,
      "観": 5988,
      "覺": 5989,
      "覽": 5990,
      "觀": 5991,
      "见": 5992,
      "观": 5993,
      "规": 5994,
      "视": 5995,
      "览": 5996,
      "角": 5997,
      "解": 5998,
      "觸": 5999,
      "言": 6000,
      "訂": 6001,
      "計": 6002,
      "訊": 6003,
      "討": 6004,
      "記": 6005,
      "訥": 6006,
      "訪": 6007,
      "設": 6008,
      "許": 6009,
      "訳": 6010,
      "訴": 6011,
      "診": 6012,
      "註": 6013,
      "証": 6014,
      "評": 6015,
      "詞": 6016,
      "詠": 6017,
      "詢": 6018,
      "試": 6019,
      "詩": 6020,
      "詭": 6021,
      "話": 6022,
      "該": 6023,
      "詳": 6024,
      "詹": 6025,
      "認": 6026,
      "誓": 6027,
      "誕": 6028,
      "誘": 6029,
      "語": 6030,
      "誤": 6031,
      "說": 6032,
      "説": 6033,
      "読": 6034,
      "誰": 6035,
      "課": 6036,
      "調": 6037,
      "談": 6038,
      "請": 6039,
      "論": 6040,
      "諦": 6041,
      "諸": 6042,
      "講": 6043,
      "謝": 6044,
      "謬": 6045,
      "謾": 6046,
      "證": 6047,
      "識": 6048,
      "譚": 6049,
      "警": 6050,
      "議": 6051,
      "護": 6052,
      "讀": 6053,
      "變": 6054,
      "讓": 6055,
      "讗": 6056,
      "讘": 6057,
      "讙": 6058,
      "讚": 6059,
      "讛": 6060,
      "讜": 6061,
      "讞": 6062,
      "讟": 6063,
      "计": 6064,
      "订": 6065,
      "认": 6066,
      "讨": 6067,
      "让": 6068,
      "讬": 6069,
      "议": 6070,
      "讯": 6071,
      "记": 6072,
      "讲": 6073,
      "许": 6074,
      "论": 6075,
      "讻": 6076,
      "设": 6077,
      "访": 6078,
      "证": 6079,
      "评": 6080,
      "识": 6081,
      "诇": 6082,
      "词": 6083,
      "诏": 6084,
      "诐": 6085,
      "译": 6086,
      "试": 6087,
      "诗": 6088,
      "话": 6089,
      "诞": 6090,
      "询": 6091,
      "该": 6092,
      "诪": 6093,
      "语": 6094,
      "误": 6095,
      "说": 6096,
      "诵": 6097,
      "请": 6098,
      "诺": 6099,
      "读": 6100,
      "课": 6101,
      "谁": 6102,
      "调": 6103,
      "谈": 6104,
      "谉": 6105,
      "谋": 6106,
      "谐": 6107,
      "谓": 6108,
      "谞": 6109,
      "谢": 6110,
      "谩": 6111,
      "谷": 6112,
      "豆": 6113,
      "豊": 6114,
      "豐": 6115,
      "豔": 6116,
      "豚": 6117,
      "象": 6118,
      "豢": 6119,
      "豪": 6120,
      "豹": 6121,
      "貓": 6122,
      "貝": 6123,
      "貞": 6124,
      "負": 6125,
      "財": 6126,
      "貧": 6127,
      "貨": 6128,
      "販": 6129,
      "責": 6130,
      "貯": 6131,
      "貳": 6132,
      "貴": 6133,
      "買": 6134,
      "貸": 6135,
      "費": 6136,
      "貼": 6137,
      "賀": 6138,
      "賂": 6139,
      "賃": 6140,
      "賄": 6141,
      "資": 6142,
      "賑": 6143,
      "賛": 6144,
      "賠": 6145,
      "賢": 6146,
      "賣": 6147,
      "賦": 6148,
      "質": 6149,
      "賮": 6150,
      "賯": 6151,
      "賰": 6152,
      "賱": 6153,
      "賲": 6154,
      "賳": 6155,
      "賴": 6156,
      "賵": 6157,
      "賶": 6158,
      "賷": 6159,
      "購": 6160,
      "贈": 6161,
      "贊": 6162,
      "贛": 6163,
      "贝": 6164,
      "贡": 6165,
      "责": 6166,
      "贤": 6167,
      "败": 6168,
      "账": 6169,
      "货": 6170,
      "质": 6171,
      "购": 6172,
      "贰": 6173,
      "贴": 6174,
      "贵": 6175,
      "贸": 6176,
      "费": 6177,
      "贺": 6178,
      "贼": 6179,
      "贾": 6180,
      "资": 6181,
      "赋": 6182,
      "赌": 6183,
      "赎": 6184,
      "赏": 6185,
      "赚": 6186,
      "赛": 6187,
      "赞": 6188,
      "赠": 6189,
      "赢": 6190,
      "赤": 6191,
      "赫": 6192,
      "走": 6193,
      "赵": 6194,
      "赶": 6195,
      "起": 6196,
      "超": 6197,
      "越": 6198,
      "趋": 6199,
      "趣": 6200,
      "足": 6201,
      "趾": 6202,
      "跑": 6203,
      "距": 6204,
      "跟": 6205,
      "跡": 6206,
      "跨": 6207,
      "路": 6208,
      "跳": 6209,
      "踏": 6210,
      "踵": 6211,
      "蹅": 6212,
      "蹟": 6213,
      "蹤": 6214,
      "躁": 6215,
      "躍": 6216,
      "身": 6217,
      "躲": 6218,
      "車": 6219,
      "軍": 6220,
      "軟": 6221,
      "転": 6222,
      "軽": 6223,
      "較": 6224,
      "載": 6225,
      "輕": 6226,
      "輝": 6227,
      "輦": 6228,
      "輪": 6229,
      "輸": 6230,
      "轉": 6231,
      "轍": 6232,
      "车": 6233,
      "轨": 6234,
      "轩": 6235,
      "转": 6236,
      "轮": 6237,
      "软": 6238,
      "轴": 6239,
      "轻": 6240,
      "载": 6241,
      "较": 6242,
      "辆": 6243,
      "辉": 6244,
      "辐": 6245,
      "辑": 6246,
      "辛": 6247,
      "辞": 6248,
      "辣": 6249,
      "辦": 6250,
      "農": 6251,
      "辺": 6252,
      "込": 6253,
      "辽": 6254,
      "达": 6255,
      "过": 6256,
      "迈": 6257,
      "迎": 6258,
      "运": 6259,
      "近": 6260,
      "返": 6261,
      "还": 6262,
      "这": 6263,
      "进": 6264,
      "远": 6265,
      "连": 6266,
      "迟": 6267,
      "迦": 6268,
      "迪": 6269,
      "述": 6270,
      "迴": 6271,
      "迷": 6272,
      "追": 6273,
      "退": 6274,
      "送": 6275,
      "适": 6276,
      "逆": 6277,
      "选": 6278,
      "逊": 6279,
      "透": 6280,
      "逐": 6281,
      "递": 6282,
      "途": 6283,
      "這": 6284,
      "通": 6285,
      "逛": 6286,
      "逝": 6287,
      "速": 6288,
      "造": 6289,
      "逢": 6290,
      "連": 6291,
      "週": 6292,
      "進": 6293,
      "逸": 6294,
      "遂": 6295,
      "遅": 6296,
      "遊": 6297,
      "運": 6298,
      "遍": 6299,
      "過": 6300,
      "道": 6301,
      "達": 6302,
      "違": 6303,
      "遗": 6304,
      "遞": 6305,
      "遠": 6306,
      "遣": 6307,
      "適": 6308,
      "遮": 6309,
      "遵": 6310,
      "選": 6311,
      "遺": 6312,
      "避": 6313,
      "還": 6314,
      "邊": 6315,
      "邑": 6316,
      "那": 6317,
      "邦": 6318,
      "邪": 6319,
      "邮": 6320,
      "邵": 6321,
      "郁": 6322,
      "郊": 6323,
      "郎": 6324,
      "郑": 6325,
      "郓": 6326,
      "部": 6327,
      "郫": 6328,
      "郭": 6329,
      "郴": 6330,
      "郵": 6331,
      "都": 6332,
      "鄂": 6333,
      "鄉": 6334,
      "鄞": 6335,
      "鄭": 6336,
      "配": 6337,
      "酒": 6338,
      "酪": 6339,
      "酰": 6340,
      "酶": 6341,
      "酷": 6342,
      "酸": 6343,
      "醇": 6344,
      "醉": 6345,
      "醍": 6346,
      "醐": 6347,
      "醒": 6348,
      "醫": 6349,
      "采": 6350,
      "釈": 6351,
      "释": 6352,
      "釋": 6353,
      "里": 6354,
      "重": 6355,
      "野": 6356,
      "量": 6357,
      "金": 6358,
      "釗": 6359,
      "針": 6360,
      "鈔": 6361,
      "鈥": 6362,
      "鈧": 6363,
      "鈩": 6364,
      "鉛": 6365,
      "鉢": 6366,
      "鉱": 6367,
      "銀": 6368,
      "銇": 6369,
      "銈": 6370,
      "銉": 6371,
      "銘": 6372,
      "銴": 6373,
      "銷": 6374,
      "鋪": 6375,
      "鋳": 6376,
      "錄": 6377,
      "錦": 6378,
      "錯": 6379,
      "録": 6380,
      "鍋": 6381,
      "鍏": 6382,
      "鍐": 6383,
      "鍗": 6384,
      "鍙": 6385,
      "鍵": 6386,
      "鍾": 6387,
      "鎮": 6388,
      "鎵": 6389,
      "鎶": 6390,
      "鎺": 6391,
      "鏂": 6392,
      "鏃": 6393,
      "鏈": 6394,
      "鏋": 6395,
      "鏗": 6396,
      "鏡": 6397,
      "鐒": 6398,
      "鐘": 6399,
      "鐫": 6400,
      "鐳": 6401,
      "鐵": 6402,
      "鑑": 6403,
      "鑔": 6404,
      "鑰": 6405,
      "针": 6406,
      "钉": 6407,
      "钛": 6408,
      "钟": 6409,
      "钢": 6410,
      "钱": 6411,
      "钻": 6412,
      "钾": 6413,
      "铁": 6414,
      "铅": 6415,
      "铆": 6416,
      "铜": 6417,
      "铝": 6418,
      "铬": 6419,
      "铵": 6420,
      "银": 6421,
      "链": 6422,
      "销": 6423,
      "锌": 6424,
      "锐": 6425,
      "错": 6426,
      "锝": 6427,
      "锡": 6428,
      "锦": 6429,
      "键": 6430,
      "锯": 6431,
      "锵": 6432,
      "镁": 6433,
      "镇": 6434,
      "镖": 6435,
      "镜": 6436,
      "長": 6437,
      "长": 6438,
      "門": 6439,
      "閃": 6440,
      "閉": 6441,
      "開": 6442,
      "間": 6443,
      "関": 6444,
      "閣": 6445,
      "閫": 6446,
      "閱": 6447,
      "閳": 6448,
      "閼": 6449,
      "闃": 6450,
      "闊": 6451,
      "闍": 6452,
      "闘": 6453,
      "關": 6454,
      "门": 6455,
      "闭": 6456,
      "问": 6457,
      "间": 6458,
      "闻": 6459,
      "阀": 6460,
      "阅": 6461,
      "阔": 6462,
      "阜": 6463,
      "队": 6464,
      "阪": 6465,
      "防": 6466,
      "阳": 6467,
      "阴": 6468,
      "阻": 6469,
      "阿": 6470,
      "陀": 6471,
      "附": 6472,
      "际": 6473,
      "陆": 6474,
      "陈": 6475,
      "陌": 6476,
      "降": 6477,
      "限": 6478,
      "陕": 6479,
      "陛": 6480,
      "院": 6481,
      "陣": 6482,
      "除": 6483,
      "陰": 6484,
      "陳": 6485,
      "陵": 6486,
      "陶": 6487,
      "陷": 6488,
      "陸": 6489,
      "険": 6490,
      "陽": 6491,
      "隆": 6492,
      "隊": 6493,
      "階": 6494,
      "随": 6495,
      "隐": 6496,
      "隔": 6497,
      "隙": 6498,
      "際": 6499,
      "隞": 6500,
      "隠": 6501,
      "隣": 6502,
      "隨": 6503,
      "險": 6504,
      "隰": 6505,
      "隱": 6506,
      "难": 6507,
      "雄": 6508,
      "雅": 6509,
      "集": 6510,
      "雇": 6511,
      "雎": 6512,
      "雑": 6513,
      "雖": 6514,
      "雙": 6515,
      "雛": 6516,
      "雞": 6517,
      "離": 6518,
      "難": 6519,
      "雨": 6520,
      "雯": 6521,
      "雲": 6522,
      "零": 6523,
      "雷": 6524,
      "電": 6525,
      "雿": 6526,
      "需": 6527,
      "霄": 6528,
      "震": 6529,
      "霊": 6530,
      "霍": 6531,
      "霜": 6532,
      "霞": 6533,
      "霧": 6534,
      "露": 6535,
      "霸": 6536,
      "靈": 6537,
      "青": 6538,
      "静": 6539,
      "靚": 6540,
      "非": 6541,
      "靠": 6542,
      "面": 6543,
      "革": 6544,
      "靴": 6545,
      "鞋": 6546,
      "鞍": 6547,
      "韌": 6548,
      "韓": 6549,
      "韦": 6550,
      "韧": 6551,
      "音": 6552,
      "韵": 6553,
      "韶": 6554,
      "韻": 6555,
      "響": 6556,
      "頁": 6557,
      "頂": 6558,
      "頃": 6559,
      "項": 6560,
      "順": 6561,
      "須": 6562,
      "預": 6563,
      "頓": 6564,
      "頝": 6565,
      "頭": 6566,
      "頸": 6567,
      "頻": 6568,
      "顆": 6569,
      "題": 6570,
      "額": 6571,
      "顏": 6572,
      "顔": 6573,
      "願": 6574,
      "類": 6575,
      "顯": 6576,
      "页": 6577,
      "顶": 6578,
      "项": 6579,
      "顺": 6580,
      "顾": 6581,
      "顿": 6582,
      "颁": 6583,
      "颂": 6584,
      "预": 6585,
      "领": 6586,
      "颌": 6587,
      "颐": 6588,
      "频": 6589,
      "题": 6590,
      "颚": 6591,
      "颜": 6592,
      "额": 6593,
      "風": 6594,
      "飄": 6595,
      "风": 6596,
      "飛": 6597,
      "飞": 6598,
      "食": 6599,
      "飲": 6600,
      "飴": 6601,
      "飼": 6602,
      "餅": 6603,
      "養": 6604,
      "餐": 6605,
      "餘": 6606,
      "館": 6607,
      "饮": 6608,
      "饰": 6609,
      "饶": 6610,
      "饼": 6611,
      "馃": 6612,
      "馆": 6613,
      "首": 6614,
      "馗": 6615,
      "香": 6616,
      "馬": 6617,
      "馳": 6618,
      "駅": 6619,
      "駆": 6620,
      "騎": 6621,
      "験": 6622,
      "騙": 6623,
      "騷": 6624,
      "驗": 6625,
      "驚": 6626,
      "马": 6627,
      "驰": 6628,
      "驻": 6629,
      "验": 6630,
      "骥": 6631,
      "骨": 6632,
      "骸": 6633,
      "髓": 6634,
      "體": 6635,
      "高": 6636,
      "髪": 6637,
      "髮": 6638,
      "鬆": 6639,
      "鬥": 6640,
      "鬱": 6641,
      "鬼": 6642,
      "魂": 6643,
      "魅": 6644,
      "魏": 6645,
      "魔": 6646,
      "魚": 6647,
      "鮮": 6648,
      "鰐": 6649,
      "鱼": 6650,
      "鲁": 6651,
      "鳕": 6652,
      "鳥": 6653,
      "鴨": 6654,
      "鶏": 6655,
      "鶴": 6656,
      "鷹": 6657,
      "鸟": 6658,
      "鸡": 6659,
      "鸭": 6660,
      "鹏": 6661,
      "鹤": 6662,
      "鹼": 6663,
      "鹿": 6664,
      "麗": 6665,
      "麝": 6666,
      "麥": 6667,
      "麦": 6668,
      "麵": 6669,
      "麺": 6670,
      "麻": 6671,
      "麼": 6672,
      "麽": 6673,
      "黃": 6674,
      "黄": 6675,
      "黎": 6676,
      "黏": 6677,
      "黑": 6678,
      "黒": 6679,
      "默": 6680,
      "黛": 6681,
      "點": 6682,
      "黟": 6683,
      "鼻": 6684,
      "齁": 6685,
      "齊": 6686,
      "齐": 6687,
      "齡": 6688,
      "齢": 6689,
      "龄": 6690,
      "龍": 6691,
      "龙": 6692,
      "ꆇ": 6693,
      "ꉙ": 6694,
      "ꊜ": 6695,
      "ꌗ": 6696,
      "ꍏ": 6697,
      "꒪": 6698,
      "꒳": 6699,
      "ꙁ": 6700,
      "ꙗ": 6701,
      "꙳": 6702,
      "ꜜ": 6703,
      "ꜣ": 6704,
      "ꞌ": 6705,
      "ꦗ": 6706,
      "ꦧ": 6707,
      "ꦮ": 6708,
      "ꦱ": 6709,
      "꧁": 6710,
      "꧂": 6711,
      "꧋": 6712,
      "가": 6713,
      "각": 6714,
      "간": 6715,
      "갈": 6716,
      "감": 6717,
      "갓": 6718,
      "강": 6719,
      "같": 6720,
      "개": 6721,
      "갤": 6722,
      "거": 6723,
      "건": 6724,
      "걸": 6725,
      "검": 6726,
      "것": 6727,
      "게": 6728,
      "겔": 6729,
      "겠": 6730,
      "겨": 6731,
      "격": 6732,
      "견": 6733,
      "결": 6734,
      "겸": 6735,
      "겹": 6736,
      "경": 6737,
      "계": 6738,
      "고": 6739,
      "곡": 6740,
      "곤": 6741,
      "골": 6742,
      "곱": 6743,
      "곳": 6744,
      "공": 6745,
      "과": 6746,
      "관": 6747,
      "광": 6748,
      "괜": 6749,
      "교": 6750,
      "굘": 6751,
      "구": 6752,
      "국": 6753,
      "군": 6754,
      "굴": 6755,
      "궁": 6756,
      "권": 6757,
      "귀": 6758,
      "규": 6759,
      "균": 6760,
      "그": 6761,
      "극": 6762,
      "근": 6763,
      "글": 6764,
      "금": 6765,
      "급": 6766,
      "기": 6767,
      "긴": 6768,
      "길": 6769,
      "김": 6770,
      "깅": 6771,
      "까": 6772,
      "깨": 6773,
      "꺾": 6774,
      "께": 6775,
      "꼬": 6776,
      "꼴": 6777,
      "꽁": 6778,
      "꽃": 6779,
      "꾀": 6780,
      "끈": 6781,
      "끝": 6782,
      "나": 6783,
      "낙": 6784,
      "난": 6785,
      "날": 6786,
      "낤": 6787,
      "남": 6788,
      "납": 6789,
      "났": 6790,
      "낭": 6791,
      "내": 6792,
      "낼": 6793,
      "냈": 6794,
      "냉": 6795,
      "냎": 6796,
      "냐": 6797,
      "너": 6798,
      "널": 6799,
      "네": 6800,
      "넬": 6801,
      "넷": 6802,
      "녀": 6803,
      "년": 6804,
      "녕": 6805,
      "노": 6806,
      "녹": 6807,
      "논": 6808,
      "놀": 6809,
      "높": 6810,
      "놨": 6811,
      "누": 6812,
      "눈": 6813,
      "뉴": 6814,
      "느": 6815,
      "늑": 6816,
      "는": 6817,
      "늘": 6818,
      "능": 6819,
      "늦": 6820,
      "늪": 6821,
      "니": 6822,
      "닌": 6823,
      "님": 6824,
      "닝": 6825,
      "다": 6826,
      "단": 6827,
      "달": 6828,
      "닮": 6829,
      "담": 6830,
      "답": 6831,
      "닷": 6832,
      "당": 6833,
      "대": 6834,
      "댓": 6835,
      "더": 6836,
      "덕": 6837,
      "덜": 6838,
      "덤": 6839,
      "덧": 6840,
      "데": 6841,
      "덱": 6842,
      "덴": 6843,
      "델": 6844,
      "도": 6845,
      "독": 6846,
      "돈": 6847,
      "돌": 6848,
      "동": 6849,
      "돠": 6850,
      "됐": 6851,
      "되": 6852,
      "된": 6853,
      "될": 6854,
      "됨": 6855,
      "됩": 6856,
      "두": 6857,
      "둑": 6858,
      "둘": 6859,
      "듀": 6860,
      "듈": 6861,
      "드": 6862,
      "득": 6863,
      "든": 6864,
      "들": 6865,
      "등": 6866,
      "디": 6867,
      "딘": 6868,
      "딜": 6869,
      "딥": 6870,
      "딧": 6871,
      "딩": 6872,
      "따": 6873,
      "딱": 6874,
      "딸": 6875,
      "때": 6876,
      "또": 6877,
      "뜬": 6878,
      "뜸": 6879,
      "뜻": 6880,
      "띠": 6881,
      "라": 6882,
      "락": 6883,
      "란": 6884,
      "람": 6885,
      "랍": 6886,
      "랐": 6887,
      "랑": 6888,
      "래": 6889,
      "랙": 6890,
      "랜": 6891,
      "램": 6892,
      "랫": 6893,
      "략": 6894,
      "량": 6895,
      "러": 6896,
      "런": 6897,
      "럿": 6898,
      "렇": 6899,
      "레": 6900,
      "렌": 6901,
      "렐": 6902,
      "렛": 6903,
      "려": 6904,
      "력": 6905,
      "련": 6906,
      "렬": 6907,
      "렴": 6908,
      "령": 6909,
      "례": 6910,
      "로": 6911,
      "록": 6912,
      "론": 6913,
      "롤": 6914,
      "롯": 6915,
      "료": 6916,
      "루": 6917,
      "룩": 6918,
      "룰": 6919,
      "룹": 6920,
      "뤵": 6921,
      "류": 6922,
      "르": 6923,
      "른": 6924,
      "를": 6925,
      "름": 6926,
      "릉": 6927,
      "리": 6928,
      "릭": 6929,
      "린": 6930,
      "릴": 6931,
      "림": 6932,
      "립": 6933,
      "릿": 6934,
      "링": 6935,
      "마": 6936,
      "막": 6937,
      "만": 6938,
      "많": 6939,
      "말": 6940,
      "맛": 6941,
      "망": 6942,
      "맞": 6943,
      "매": 6944,
      "맥": 6945,
      "맨": 6946,
      "머": 6947,
      "먹": 6948,
      "멀": 6949,
      "멋": 6950,
      "멍": 6951,
      "메": 6952,
      "멘": 6953,
      "멜": 6954,
      "멤": 6955,
      "며": 6956,
      "면": 6957,
      "명": 6958,
      "모": 6959,
      "목": 6960,
      "몬": 6961,
      "몰": 6962,
      "몸": 6963,
      "몽": 6964,
      "묘": 6965,
      "무": 6966,
      "문": 6967,
      "물": 6968,
      "뭉": 6969,
      "뭐": 6970,
      "뭘": 6971,
      "뮤": 6972,
      "미": 6973,
      "민": 6974,
      "밀": 6975,
      "밍": 6976,
      "및": 6977,
      "바": 6978,
      "박": 6979,
      "반": 6980,
      "받": 6981,
      "발": 6982,
      "밝": 6983,
      "밤": 6984,
      "방": 6985,
      "배": 6986,
      "백": 6987,
      "밸": 6988,
      "버": 6989,
      "벅": 6990,
      "번": 6991,
      "벌": 6992,
      "범": 6993,
      "법": 6994,
      "베": 6995,
      "벤": 6996,
      "벨": 6997,
      "벳": 6998,
      "벼": 6999,
      "벽": 7000,
      "변": 7001,
      "별": 7002,
      "병": 7003,
      "보": 7004,
      "복": 7005,
      "본": 7006,
      "볼": 7007,
      "봄": 7008,
      "봇": 7009,
      "부": 7010,
      "북": 7011,
      "분": 7012,
      "불": 7013,
      "붐": 7014,
      "붕": 7015,
      "뷔": 7016,
      "뷰": 7017,
      "브": 7018,
      "븐": 7019,
      "블": 7020,
      "비": 7021,
      "빅": 7022,
      "빈": 7023,
      "빌": 7024,
      "빙": 7025,
      "빠": 7026,
      "빡": 7027,
      "빨": 7028,
      "빵": 7029,
      "뽐": 7030,
      "뽑": 7031,
      "쁘": 7032,
      "쁜": 7033,
      "쁨": 7034,
      "사": 7035,
      "삭": 7036,
      "산": 7037,
      "살": 7038,
      "샀": 7039,
      "상": 7040,
      "새": 7041,
      "색": 7042,
      "샌": 7043,
      "샘": 7044,
      "생": 7045,
      "샤": 7046,
      "샵": 7047,
      "샷": 7048,
      "샾": 7049,
      "서": 7050,
      "석": 7051,
      "선": 7052,
      "설": 7053,
      "섬": 7054,
      "섯": 7055,
      "성": 7056,
      "섳": 7057,
      "세": 7058,
      "섹": 7059,
      "셀": 7060,
      "션": 7061,
      "셜": 7062,
      "셰": 7063,
      "소": 7064,
      "속": 7065,
      "손": 7066,
      "솔": 7067,
      "송": 7068,
      "쇼": 7069,
      "수": 7070,
      "숙": 7071,
      "순": 7072,
      "술": 7073,
      "숭": 7074,
      "쉬": 7075,
      "쉰": 7076,
      "쉽": 7077,
      "슈": 7078,
      "스": 7079,
      "슨": 7080,
      "슬": 7081,
      "습": 7082,
      "승": 7083,
      "시": 7084,
      "식": 7085,
      "신": 7086,
      "실": 7087,
      "심": 7088,
      "십": 7089,
      "싱": 7090,
      "싶": 7091,
      "싸": 7092,
      "싼": 7093,
      "쌍": 7094,
      "써": 7095,
      "썸": 7096,
      "쎈": 7097,
      "쏢": 7098,
      "쓰": 7099,
      "씨": 7100,
      "아": 7101,
      "악": 7102,
      "안": 7103,
      "않": 7104,
      "알": 7105,
      "암": 7106,
      "압": 7107,
      "았": 7108,
      "앙": 7109,
      "애": 7110,
      "액": 7111,
      "앰": 7112,
      "앱": 7113,
      "야": 7114,
      "약": 7115,
      "얀": 7116,
      "얇": 7117,
      "양": 7118,
      "어": 7119,
      "억": 7120,
      "언": 7121,
      "얻": 7122,
      "얼": 7123,
      "엄": 7124,
      "업": 7125,
      "없": 7126,
      "었": 7127,
      "에": 7128,
      "엑": 7129,
      "엔": 7130,
      "엘": 7131,
      "엠": 7132,
      "여": 7133,
      "역": 7134,
      "연": 7135,
      "열": 7136,
      "염": 7137,
      "였": 7138,
      "영": 7139,
      "예": 7140,
      "오": 7141,
      "옥": 7142,
      "온": 7143,
      "올": 7144,
      "옵": 7145,
      "옹": 7146,
      "와": 7147,
      "왁": 7148,
      "완": 7149,
      "왈": 7150,
      "왔": 7151,
      "왕": 7152,
      "외": 7153,
      "요": 7154,
      "욕": 7155,
      "용": 7156,
      "우": 7157,
      "운": 7158,
      "울": 7159,
      "웃": 7160,
      "워": 7161,
      "원": 7162,
      "월": 7163,
      "웨": 7164,
      "웰": 7165,
      "웹": 7166,
      "위": 7167,
      "윅": 7168,
      "윈": 7169,
      "윗": 7170,
      "유": 7171,
      "육": 7172,
      "윤": 7173,
      "율": 7174,
      "융": 7175,
      "으": 7176,
      "은": 7177,
      "을": 7178,
      "음": 7179,
      "응": 7180,
      "의": 7181,
      "이": 7182,
      "익": 7183,
      "인": 7184,
      "일": 7185,
      "읽": 7186,
      "임": 7187,
      "입": 7188,
      "있": 7189,
      "잉": 7190,
      "자": 7191,
      "작": 7192,
      "잔": 7193,
      "잘": 7194,
      "잡": 7195,
      "장": 7196,
      "재": 7197,
      "잭": 7198,
      "쟁": 7199,
      "저": 7200,
      "적": 7201,
      "전": 7202,
      "절": 7203,
      "점": 7204,
      "접": 7205,
      "정": 7206,
      "제": 7207,
      "젝": 7208,
      "젠": 7209,
      "져": 7210,
      "졌": 7211,
      "조": 7212,
      "족": 7213,
      "존": 7214,
      "좀": 7215,
      "종": 7216,
      "좋": 7217,
      "죄": 7218,
      "주": 7219,
      "준": 7220,
      "줄": 7221,
      "중": 7222,
      "줘": 7223,
      "즈": 7224,
      "즘": 7225,
      "증": 7226,
      "지": 7227,
      "직": 7228,
      "진": 7229,
      "질": 7230,
      "짊": 7231,
      "집": 7232,
      "짜": 7233,
      "짧": 7234,
      "짱": 7235,
      "째": 7236,
      "짹": 7237,
      "쩜": 7238,
      "쯔": 7239,
      "찍": 7240,
      "차": 7241,
      "찬": 7242,
      "찮": 7243,
      "찰": 7244,
      "참": 7245,
      "창": 7246,
      "찾": 7247,
      "채": 7248,
      "책": 7249,
      "처": 7250,
      "천": 7251,
      "철": 7252,
      "첫": 7253,
      "청": 7254,
      "체": 7255,
      "쳨": 7256,
      "초": 7257,
      "총": 7258,
      "촬": 7259,
      "최": 7260,
      "추": 7261,
      "축": 7262,
      "춘": 7263,
      "출": 7264,
      "충": 7265,
      "취": 7266,
      "츄": 7267,
      "츛": 7268,
      "츠": 7269,
      "측": 7270,
      "층": 7271,
      "치": 7272,
      "칙": 7273,
      "친": 7274,
      "칠": 7275,
      "침": 7276,
      "칭": 7277,
      "카": 7278,
      "칸": 7279,
      "칼": 7280,
      "캐": 7281,
      "캔": 7282,
      "캘": 7283,
      "캠": 7284,
      "캣": 7285,
      "커": 7286,
      "컨": 7287,
      "컴": 7288,
      "케": 7289,
      "켈": 7290,
      "켓": 7291,
      "코": 7292,
      "콘": 7293,
      "콜": 7294,
      "쿠": 7295,
      "쿨": 7296,
      "퀸": 7297,
      "크": 7298,
      "클": 7299,
      "키": 7300,
      "킨": 7301,
      "킬": 7302,
      "킹": 7303,
      "타": 7304,
      "탁": 7305,
      "탄": 7306,
      "탈": 7307,
      "탕": 7308,
      "태": 7309,
      "택": 7310,
      "터": 7311,
      "텀": 7312,
      "테": 7313,
      "텍": 7314,
      "텐": 7315,
      "텔": 7316,
      "템": 7317,
      "토": 7318,
      "톡": 7319,
      "톤": 7320,
      "톰": 7321,
      "톱": 7322,
      "통": 7323,
      "투": 7324,
      "툰": 7325,
      "툴": 7326,
      "튀": 7327,
      "튜": 7328,
      "트": 7329,
      "특": 7330,
      "튼": 7331,
      "틈": 7332,
      "티": 7333,
      "틴": 7334,
      "틸": 7335,
      "팀": 7336,
      "팅": 7337,
      "파": 7338,
      "판": 7339,
      "팔": 7340,
      "패": 7341,
      "팩": 7342,
      "팬": 7343,
      "퍼": 7344,
      "펑": 7345,
      "페": 7346,
      "펙": 7347,
      "펜": 7348,
      "편": 7349,
      "평": 7350,
      "폐": 7351,
      "포": 7352,
      "폭": 7353,
      "폰": 7354,
      "폴": 7355,
      "폼": 7356,
      "표": 7357,
      "푸": 7358,
      "품": 7359,
      "퓨": 7360,
      "프": 7361,
      "플": 7362,
      "픔": 7363,
      "피": 7364,
      "픽": 7365,
      "핀": 7366,
      "필": 7367,
      "핑": 7368,
      "하": 7369,
      "학": 7370,
      "한": 7371,
      "할": 7372,
      "함": 7373,
      "합": 7374,
      "핫": 7375,
      "항": 7376,
      "해": 7377,
      "핸": 7378,
      "햄": 7379,
      "했": 7380,
      "행": 7381,
      "햐": 7382,
      "향": 7383,
      "허": 7384,
      "험": 7385,
      "헤": 7386,
      "헥": 7387,
      "헨": 7388,
      "헬": 7389,
      "혁": 7390,
      "현": 7391,
      "혈": 7392,
      "협": 7393,
      "형": 7394,
      "혜": 7395,
      "호": 7396,
      "혼": 7397,
      "혽": 7398,
      "혾": 7399,
      "혿": 7400,
      "홀": 7401,
      "홃": 7402,
      "홄": 7403,
      "홆": 7404,
      "홇": 7405,
      "홈": 7406,
      "홉": 7407,
      "홊": 7408,
      "홍": 7409,
      "홎": 7410,
      "화": 7411,
      "확": 7412,
      "환": 7413,
      "활": 7414,
      "황": 7415,
      "회": 7416,
      "획": 7417,
      "효": 7418,
      "후": 7419,
      "휘": 7420,
      "휴": 7421,
      "흐": 7422,
      "흘": 7423,
      "흙": 7424,
      "희": 7425,
      "히": 7426,
      "힌": 7427,
      "힐": 7428,
      "힘": 7429,
      "힛": 7430,
      "": 7431,
      "": 7432,
      "": 7433,
      "": 7434,
      "": 7435,
      "": 7436,
      "": 7437,
      "": 7438,
      "": 7439,
      "": 7440,
      "": 7441,
      "": 7442,
      "": 7443,
      "": 7444,
      "": 7445,
      "": 7446,
      "": 7447,
      "": 7448,
      "": 7449,
      "": 7450,
      "": 7451,
      "": 7452,
      "": 7453,
      "": 7454,
      "": 7455,
      "": 7456,
      "": 7457,
      "": 7458,
      "": 7459,
      "": 7460,
      "": 7461,
      "": 7462,
      "": 7463,
      "": 7464,
      "": 7465,
      "": 7466,
      "": 7467,
      "": 7468,
      "": 7469,
      "": 7470,
      "": 7471,
      "": 7472,
      "": 7473,
      "": 7474,
      "": 7475,
      "": 7476,
      "": 7477,
      "": 7478,
      "": 7479,
      "": 7480,
      "": 7481,
      "": 7482,
      "": 7483,
      "": 7484,
      "": 7485,
      "": 7486,
      "": 7487,
      "": 7488,
      "": 7489,
      "": 7490,
      "": 7491,
      "": 7492,
      "": 7493,
      "": 7494,
      "": 7495,
      "": 7496,
      "": 7497,
      "": 7498,
      "": 7499,
      "": 7500,
      "": 7501,
      "": 7502,
      "": 7503,
      "": 7504,
      "": 7505,
      "": 7506,
      "": 7507,
      "": 7508,
      "": 7509,
      "": 7510,
      "": 7511,
      "": 7512,
      "": 7513,
      "": 7514,
      "": 7515,
      "": 7516,
      "": 7517,
      "": 7518,
      "": 7519,
      "": 7520,
      "": 7521,
      "": 7522,
      "": 7523,
      "": 7524,
      "": 7525,
      "": 7526,
      "": 7527,
      "": 7528,
      "": 7529,
      "": 7530,
      "": 7531,
      "": 7532,
      "": 7533,
      "": 7534,
      "": 7535,
      "": 7536,
      "": 7537,
      "": 7538,
      "": 7539,
      "": 7540,
      "": 7541,
      "": 7542,
      "": 7543,
      "": 7544,
      "": 7545,
      "": 7546,
      "": 7547,
      "": 7548,
      "": 7549,
      "": 7550,
      "": 7551,
      "": 7552,
      "": 7553,
      "": 7554,
      "": 7555,
      "": 7556,
      "": 7557,
      "": 7558,
      "": 7559,
      "": 7560,
      "": 7561,
      "": 7562,
      "": 7563,
      "": 7564,
      "": 7565,
      "": 7566,
      "": 7567,
      "": 7568,
      "": 7569,
      "": 7570,
      "": 7571,
      "": 7572,
      "": 7573,
      "": 7574,
      "": 7575,
      "": 7576,
      "": 7577,
      "": 7578,
      "": 7579,
      "": 7580,
      "": 7581,
      "": 7582,
      "": 7583,
      "": 7584,
      "": 7585,
      "": 7586,
      "": 7587,
      "": 7588,
      "": 7589,
      "": 7590,
      "": 7591,
      "": 7592,
      "": 7593,
      "": 7594,
      "": 7595,
      "": 7596,
      "": 7597,
      "": 7598,
      "": 7599,
      "": 7600,
      "": 7601,
      "": 7602,
      "": 7603,
      "": 7604,
      "": 7605,
      "": 7606,
      "": 7607,
      "": 7608,
      "": 7609,
      "": 7610,
      "": 7611,
      "": 7612,
      "": 7613,
      "": 7614,
      "": 7615,
      "": 7616,
      "": 7617,
      "": 7618,
      "": 7619,
      "": 7620,
      "": 7621,
      "": 7622,
      "": 7623,
      "": 7624,
      "": 7625,
      "": 7626,
      "": 7627,
      "": 7628,
      "": 7629,
      "": 7630,
      "": 7631,
      "": 7632,
      "": 7633,
      "": 7634,
      "": 7635,
      "": 7636,
      "": 7637,
      "": 7638,
      "": 7639,
      "": 7640,
      "": 7641,
      "": 7642,
      "": 7643,
      "": 7644,
      "": 7645,
      "": 7646,
      "": 7647,
      "": 7648,
      "": 7649,
      "": 7650,
      "": 7651,
      "": 7652,
      "": 7653,
      "": 7654,
      "": 7655,
      "": 7656,
      "": 7657,
      "": 7658,
      "": 7659,
      "": 7660,
      "": 7661,
      "": 7662,
      "": 7663,
      "": 7664,
      "": 7665,
      "": 7666,
      "": 7667,
      "": 7668,
      "": 7669,
      "": 7670,
      "": 7671,
      "": 7672,
      "": 7673,
      "": 7674,
      "": 7675,
      "": 7676,
      "": 7677,
      "": 7678,
      "": 7679,
      "": 7680,
      "": 7681,
      "": 7682,
      "": 7683,
      "": 7684,
      "": 7685,
      "": 7686,
      "": 7687,
      "": 7688,
      "": 7689,
      "": 7690,
      "": 7691,
      "": 7692,
      "": 7693,
      "ﬀ": 7694,
      "ﬁ": 7695,
      "ﬂ": 7696,
      "ﬃ": 7697,
      "ﬄ": 7698,
      "ﭐ": 7699,
      "ﭑ": 7700,
      "ﭒ": 7701,
      "ﭓ": 7702,
      "ﭔ": 7703,
      "ﭕ": 7704,
      "ﭖ": 7705,
      "ﭗ": 7706,
      "ﭘ": 7707,
      "ﭙ": 7708,
      "ﭚ": 7709,
      "ﭛ": 7710,
      "ﭜ": 7711,
      "ﭝ": 7712,
      "ﭞ": 7713,
      "ﭟ": 7714,
      "ﭠ": 7715,
      "ﭡ": 7716,
      "ﭢ": 7717,
      "ﭣ": 7718,
      "ﭤ": 7719,
      "ﭥ": 7720,
      "ﭦ": 7721,
      "ﭧ": 7722,
      "ﭨ": 7723,
      "ﭩ": 7724,
      "ﭪ": 7725,
      "ﭫ": 7726,
      "ﭬ": 7727,
      "ﭭ": 7728,
      "ﭮ": 7729,
      "ﭯ": 7730,
      "ﭰ": 7731,
      "ﭱ": 7732,
      "ﭲ": 7733,
      "ﭳ": 7734,
      "ﭴ": 7735,
      "ﭵ": 7736,
      "ﭶ": 7737,
      "ﭷ": 7738,
      "ﭸ": 7739,
      "ﭹ": 7740,
      "ﭺ": 7741,
      "ﭻ": 7742,
      "ﭼ": 7743,
      "ﭽ": 7744,
      "ﭾ": 7745,
      "ﭿ": 7746,
      "ﮀ": 7747,
      "ﮁ": 7748,
      "ﮂ": 7749,
      "ﮃ": 7750,
      "ﮄ": 7751,
      "ﮅ": 7752,
      "ﮆ": 7753,
      "ﮇ": 7754,
      "ﮈ": 7755,
      "ﮉ": 7756,
      "ﮊ": 7757,
      "ﮋ": 7758,
      "ﮌ": 7759,
      "ﮍ": 7760,
      "ﮎ": 7761,
      "ﮏ": 7762,
      "ﮐ": 7763,
      "ﮑ": 7764,
      "ﮒ": 7765,
      "ﮓ": 7766,
      "ﮔ": 7767,
      "ﮕ": 7768,
      "ﮖ": 7769,
      "ﮗ": 7770,
      "ﮘ": 7771,
      "ﮙ": 7772,
      "ﮚ": 7773,
      "ﮛ": 7774,
      "ﮜ": 7775,
      "ﮝ": 7776,
      "ﮞ": 7777,
      "ﮟ": 7778,
      "ﮠ": 7779,
      "ﮡ": 7780,
      "ﮢ": 7781,
      "ﮣ": 7782,
      "ﮤ": 7783,
      "ﮥ": 7784,
      "ﮦ": 7785,
      "ﮧ": 7786,
      "ﮨ": 7787,
      "ﮩ": 7788,
      "ﮪ": 7789,
      "ﮫ": 7790,
      "ﮬ": 7791,
      "ﮭ": 7792,
      "ﮮ": 7793,
      "ﮯ": 7794,
      "ﮰ": 7795,
      "ﮱ": 7796,
      "ﯓ": 7797,
      "ﯔ": 7798,
      "ﯕ": 7799,
      "ﯖ": 7800,
      "ﯗ": 7801,
      "ﯘ": 7802,
      "ﯙ": 7803,
      "ﯚ": 7804,
      "ﯛ": 7805,
      "ﯜ": 7806,
      "ﯝ": 7807,
      "ﯞ": 7808,
      "ﯟ": 7809,
      "ﯠ": 7810,
      "ﯡ": 7811,
      "ﯢ": 7812,
      "ﯣ": 7813,
      "ﯤ": 7814,
      "ﯥ": 7815,
      "ﯲ": 7816,
      "ﯳ": 7817,
      "ﯴ": 7818,
      "ﯵ": 7819,
      "ﯶ": 7820,
      "ﯷ": 7821,
      "ﯸ": 7822,
      "ﯹ": 7823,
      "ﯺ": 7824,
      "ﯼ": 7825,
      "ﯽ": 7826,
      "ﯾ": 7827,
      "ﯿ": 7828,
      "ﱠ": 7829,
      "ﱡ": 7830,
      "ﱢ": 7831,
      "ﱸ": 7832,
      "ﱹ": 7833,
      "ﲑ": 7834,
      "ﲪ": 7835,
      "ﳊ": 7836,
      "ﴼ": 7837,
      "﴾": 7838,
      "﴿": 7839,
      "﷫": 7840,
      "ﷲ": 7841,
      "ﷺ": 7842,
      "ﷻ": 7843,
      "﷼": 7844,
      "﷽": 7845,
      "︎": 7846,
      "️": 7847,
      "︷": 7848,
      "︸": 7849,
      "︺": 7850,
      "﹂": 7851,
      "﹝": 7852,
      "﹞": 7853,
      "﹢": 7854,
      "﹣": 7855,
      "﹪": 7856,
      "ﹰ": 7857,
      "ﺀ": 7858,
      "ﺁ": 7859,
      "ﺂ": 7860,
      "ﺃ": 7861,
      "ﺄ": 7862,
      "ﺅ": 7863,
      "ﺆ": 7864,
      "ﺇ": 7865,
      "ﺈ": 7866,
      "ﺊ": 7867,
      "ﺋ": 7868,
      "ﺌ": 7869,
      "ﺍ": 7870,
      "ﺎ": 7871,
      "ﺏ": 7872,
      "ﺐ": 7873,
      "ﺑ": 7874,
      "ﺒ": 7875,
      "ﺓ": 7876,
      "ﺔ": 7877,
      "ﺕ": 7878,
      "ﺖ": 7879,
      "ﺗ": 7880,
      "ﺘ": 7881,
      "ﺙ": 7882,
      "ﺚ": 7883,
      "ﺛ": 7884,
      "ﺜ": 7885,
      "ﺝ": 7886,
      "ﺞ": 7887,
      "ﺟ": 7888,
      "ﺠ": 7889,
      "ﺡ": 7890,
      "ﺢ": 7891,
      "ﺣ": 7892,
      "ﺤ": 7893,
      "ﺦ": 7894,
      "ﺧ": 7895,
      "ﺨ": 7896,
      "ﺩ": 7897,
      "ﺪ": 7898,
      "ﺫ": 7899,
      "ﺬ": 7900,
      "ﺭ": 7901,
      "ﺮ": 7902,
      "ﺯ": 7903,
      "ﺰ": 7904,
      "ﺱ": 7905,
      "ﺲ": 7906,
      "ﺳ": 7907,
      "ﺴ": 7908,
      "ﺶ": 7909,
      "ﺷ": 7910,
      "ﺸ": 7911,
      "ﺹ": 7912,
      "ﺺ": 7913,
      "ﺻ": 7914,
      "ﺼ": 7915,
      "ﺽ": 7916,
      "ﺾ": 7917,
      "ﺿ": 7918,
      "ﻀ": 7919,
      "ﻁ": 7920,
      "ﻂ": 7921,
      "ﻃ": 7922,
      "ﻄ": 7923,
      "ﻆ": 7924,
      "ﻇ": 7925,
      "ﻈ": 7926,
      "ﻉ": 7927,
      "ﻊ": 7928,
      "ﻋ": 7929,
      "ﻌ": 7930,
      "ﻎ": 7931,
      "ﻏ": 7932,
      "ﻐ": 7933,
      "ﻑ": 7934,
      "ﻒ": 7935,
      "ﻓ": 7936,
      "ﻔ": 7937,
      "ﻕ": 7938,
      "ﻖ": 7939,
      "ﻗ": 7940,
      "ﻘ": 7941,
      "ﻙ": 7942,
      "ﻚ": 7943,
      "ﻛ": 7944,
      "ﻜ": 7945,
      "ﻝ": 7946,
      "ﻞ": 7947,
      "ﻟ": 7948,
      "ﻠ": 7949,
      "ﻡ": 7950,
      "ﻢ": 7951,
      "ﻣ": 7952,
      "ﻤ": 7953,
      "ﻥ": 7954,
      "ﻦ": 7955,
      "ﻧ": 7956,
      "ﻨ": 7957,
      "ﻩ": 7958,
      "ﻪ": 7959,
      "ﻫ": 7960,
      "ﻬ": 7961,
      "ﻭ": 7962,
      "ﻮ": 7963,
      "ﻯ": 7964,
      "ﻰ": 7965,
      "ﻱ": 7966,
      "ﻲ": 7967,
      "ﻳ": 7968,
      "ﻴ": 7969,
      "ﻵ": 7970,
      "ﻷ": 7971,
      "ﻸ": 7972,
      "ﻹ": 7973,
      "ﻻ": 7974,
      "ﻼ": 7975,
      "！": 7976,
      "＂": 7977,
      "＃": 7978,
      "＄": 7979,
      "％": 7980,
      "＆": 7981,
      "＇": 7982,
      "（": 7983,
      "）": 7984,
      "＊": 7985,
      "＋": 7986,
      "，": 7987,
      "－": 7988,
      "．": 7989,
      "／": 7990,
      "０": 7991,
      "１": 7992,
      "２": 7993,
      "３": 7994,
      "４": 7995,
      "５": 7996,
      "６": 7997,
      "７": 7998,
      "８": 7999,
      "９": 8000,
      "：": 8001,
      "；": 8002,
      "＜": 8003,
      "＝": 8004,
      "＞": 8005,
      "？": 8006,
      "＠": 8007,
      "Ｂ": 8008,
      "Ｃ": 8009,
      "Ｄ": 8010,
      "Ｅ": 8011,
      "Ｇ": 8012,
      "Ｈ": 8013,
      "Ｉ": 8014,
      "Ｊ": 8015,
      "Ｋ": 8016,
      "Ｌ": 8017,
      "Ｍ": 8018,
      "Ｎ": 8019,
      "Ｏ": 8020,
      "Ｐ": 8021,
      "Ｒ": 8022,
      "Ｓ": 8023,
      "Ｔ": 8024,
      "Ｕ": 8025,
      "Ｗ": 8026,
      "Ｙ": 8027,
      "ａ": 8028,
      "ｂ": 8029,
      "ｃ": 8030,
      "ｄ": 8031,
      "ｅ": 8032,
      "ｇ": 8033,
      "ｈ": 8034,
      "ｉ": 8035,
      "ｊ": 8036,
      "ｋ": 8037,
      "ｌ": 8038,
      "ｍ": 8039,
      "ｎ": 8040,
      "ｏ": 8041,
      "ｐ": 8042,
      "ｒ": 8043,
      "ｓ": 8044,
      "ｔ": 8045,
      "ｕ": 8046,
      "ｖ": 8047,
      "ｙ": 8048,
      "ｚ": 8049,
      "｜": 8050,
      "～": 8051,
      "｡": 8052,
      "･": 8053,
      "ｪ": 8054,
      "ｯ": 8055,
      "ｵ": 8056,
      "ｸ": 8057,
      "ｺ": 8058,
      "ｻ": 8059,
      "ﾂ": 8060,
      "ﾊ": 8061,
      "ﾟ": 8062,
      "￠": 8063,
      "￡": 8064,
      "￥": 8065,
      "￭": 8066,
      "￻": 8067,
      "￼": 8068,
      "￾": 8069,
      "𐌲": 8070,
      "𐌹": 8071,
      "𐌺": 8072,
      "𐌿": 8073,
      "𐍃": 8074,
      "𐍄": 8075,
      "𐒀": 8076,
      "𐒈": 8077,
      "𐒋": 8078,
      "𐒑": 8079,
      "𐒒": 8080,
      "𐒕": 8081,
      "𐒘": 8082,
      "𐒛": 8083,
      "𐒠": 8084,
      "𐒡": 8085,
      "𐒢": 8086,
      "𐒣": 8087,
      "𐒤": 8088,
      "𐒥": 8089,
      "𐒦": 8090,
      "𐒧": 8091,
      "𐒨": 8092,
      "𐒩": 8093,
      "𝐀": 8094,
      "𝐁": 8095,
      "𝐂": 8096,
      "𝐃": 8097,
      "𝐄": 8098,
      "𝐅": 8099,
      "𝐆": 8100,
      "𝐇": 8101,
      "𝐈": 8102,
      "𝐉": 8103,
      "𝐊": 8104,
      "𝐋": 8105,
      "𝐌": 8106,
      "𝐍": 8107,
      "𝐎": 8108,
      "𝐏": 8109,
      "𝐐": 8110,
      "𝐑": 8111,
      "𝐒": 8112,
      "𝐓": 8113,
      "𝐔": 8114,
      "𝐕": 8115,
      "𝐖": 8116,
      "𝐗": 8117,
      "𝐚": 8118,
      "𝐛": 8119,
      "𝐜": 8120,
      "𝐝": 8121,
      "𝐞": 8122,
      "𝐟": 8123,
      "𝐠": 8124,
      "𝐡": 8125,
      "𝐢": 8126,
      "𝐣": 8127,
      "𝐤": 8128,
      "𝐥": 8129,
      "𝐦": 8130,
      "𝐧": 8131,
      "𝐨": 8132,
      "𝐩": 8133,
      "𝐪": 8134,
      "𝐫": 8135,
      "𝐬": 8136,
      "𝐭": 8137,
      "𝐮": 8138,
      "𝐰": 8139,
      "𝐱": 8140,
      "𝐲": 8141,
      "𝐳": 8142,
      "𝐵": 8143,
      "𝐸": 8144,
      "𝐹": 8145,
      "𝐻": 8146,
      "𝐼": 8147,
      "𝐿": 8148,
      "𝑀": 8149,
      "𝑅": 8150,
      "𝑎": 8151,
      "𝑏": 8152,
      "𝑒": 8153,
      "𝑔": 8154,
      "𝑖": 8155,
      "𝑙": 8156,
      "𝑛": 8157,
      "𝑜": 8158,
      "𝑥": 8159,
      "𝒜": 8160,
      "𝒞": 8161,
      "𝒟": 8162,
      "𝒢": 8163,
      "𝒥": 8164,
      "𝒦": 8165,
      "𝒩": 8166,
      "𝒪": 8167,
      "𝒫": 8168,
      "𝒬": 8169,
      "𝒮": 8170,
      "𝒯": 8171,
      "𝒰": 8172,
      "𝒱": 8173,
      "𝒲": 8174,
      "𝒳": 8175,
      "𝒴": 8176,
      "𝒵": 8177,
      "𝒶": 8178,
      "𝒷": 8179,
      "𝒸": 8180,
      "𝒹": 8181,
      "𝒻": 8182,
      "𝒽": 8183,
      "𝒾": 8184,
      "𝒿": 8185,
      "𝓀": 8186,
      "𝓁": 8187,
      "𝓂": 8188,
      "𝓃": 8189,
      "𝓅": 8190,
      "𝓆": 8191,
      "𝓇": 8192,
      "𝓈": 8193,
      "𝓉": 8194,
      "𝓊": 8195,
      "𝓋": 8196,
      "𝓌": 8197,
      "𝓍": 8198,
      "𝓎": 8199,
      "𝓏": 8200,
      "𝓐": 8201,
      "𝓑": 8202,
      "𝓓": 8203,
      "𝓔": 8204,
      "𝓝": 8205,
      "𝓞": 8206,
      "𝓧": 8207,
      "𝓪": 8208,
      "𝓫": 8209,
      "𝓬": 8210,
      "𝓮": 8211,
      "𝓯": 8212,
      "𝓲": 8213,
      "𝓷": 8214,
      "𝓸": 8215,
      "𝓻": 8216,
      "𝓼": 8217,
      "𝓽": 8218,
      "𝓾": 8219,
      "𝓿": 8220,
      "𝔡": 8221,
      "𝔤": 8222,
      "𝔩": 8223,
      "𝔫": 8224,
      "𝔰": 8225,
      "𝔸": 8226,
      "𝔹": 8227,
      "𝔻": 8228,
      "𝔼": 8229,
      "𝔽": 8230,
      "𝔾": 8231,
      "𝕀": 8232,
      "𝕁": 8233,
      "𝕂": 8234,
      "𝕃": 8235,
      "𝕄": 8236,
      "𝕆": 8237,
      "𝕊": 8238,
      "𝕋": 8239,
      "𝕌": 8240,
      "𝕍": 8241,
      "𝕎": 8242,
      "𝕏": 8243,
      "𝕐": 8244,
      "𝕒": 8245,
      "𝕓": 8246,
      "𝕔": 8247,
      "𝕕": 8248,
      "𝕖": 8249,
      "𝕗": 8250,
      "𝕘": 8251,
      "𝕙": 8252,
      "𝕚": 8253,
      "𝕛": 8254,
      "𝕜": 8255,
      "𝕝": 8256,
      "𝕞": 8257,
      "𝕟": 8258,
      "𝕠": 8259,
      "𝕡": 8260,
      "𝕢": 8261,
      "𝕣": 8262,
      "𝕤": 8263,
      "𝕥": 8264,
      "𝕦": 8265,
      "𝕧": 8266,
      "𝕨": 8267,
      "𝕩": 8268,
      "𝕪": 8269,
      "𝕫": 8270,
      "𝖆": 8271,
      "𝖇": 8272,
      "𝖈": 8273,
      "𝖉": 8274,
      "𝖊": 8275,
      "𝖋": 8276,
      "𝖌": 8277,
      "𝖍": 8278,
      "𝖎": 8279,
      "𝖏": 8280,
      "𝖐": 8281,
      "𝖑": 8282,
      "𝖒": 8283,
      "𝖓": 8284,
      "𝖔": 8285,
      "𝖕": 8286,
      "𝖖": 8287,
      "𝖗": 8288,
      "𝖘": 8289,
      "𝖙": 8290,
      "𝖚": 8291,
      "𝖛": 8292,
      "𝖜": 8293,
      "𝖝": 8294,
      "𝖞": 8295,
      "𝖟": 8296,
      "𝗔": 8297,
      "𝗕": 8298,
      "𝗖": 8299,
      "𝗗": 8300,
      "𝗘": 8301,
      "𝗙": 8302,
      "𝗚": 8303,
      "𝗛": 8304,
      "𝗜": 8305,
      "𝗝": 8306,
      "𝗞": 8307,
      "𝗟": 8308,
      "𝗠": 8309,
      "𝗡": 8310,
      "𝗢": 8311,
      "𝗤": 8312,
      "𝗥": 8313,
      "𝗦": 8314,
      "𝗧": 8315,
      "𝗨": 8316,
      "𝗩": 8317,
      "𝗪": 8318,
      "𝗫": 8319,
      "𝗬": 8320,
      "𝗮": 8321,
      "𝗯": 8322,
      "𝗰": 8323,
      "𝗱": 8324,
      "𝗲": 8325,
      "𝗳": 8326,
      "𝗴": 8327,
      "𝗵": 8328,
      "𝗶": 8329,
      "𝗷": 8330,
      "𝗸": 8331,
      "𝗹": 8332,
      "𝗺": 8333,
      "𝗻": 8334,
      "𝗼": 8335,
      "𝗾": 8336,
      "𝗿": 8337,
      "𝘀": 8338,
      "𝘁": 8339,
      "𝘂": 8340,
      "𝘃": 8341,
      "𝘄": 8342,
      "𝘅": 8343,
      "𝘆": 8344,
      "𝘈": 8345,
      "𝘊": 8346,
      "𝘎": 8347,
      "𝘐": 8348,
      "𝘔": 8349,
      "𝘕": 8350,
      "𝘖": 8351,
      "𝘟": 8352,
      "𝘢": 8353,
      "𝘣": 8354,
      "𝘤": 8355,
      "𝘥": 8356,
      "𝘦": 8357,
      "𝘧": 8358,
      "𝘨": 8359,
      "𝘩": 8360,
      "𝘪": 8361,
      "𝘫": 8362,
      "𝘬": 8363,
      "𝘭": 8364,
      "𝘮": 8365,
      "𝘯": 8366,
      "𝘰": 8367,
      "𝘱": 8368,
      "𝘲": 8369,
      "𝘳": 8370,
      "𝘴": 8371,
      "𝘵": 8372,
      "𝘶": 8373,
      "𝘸": 8374,
      "𝘹": 8375,
      "𝘺": 8376,
      "𝘼": 8377,
      "𝘽": 8378,
      "𝘾": 8379,
      "𝘿": 8380,
      "𝙀": 8381,
      "𝙁": 8382,
      "𝙂": 8383,
      "𝙃": 8384,
      "𝙄": 8385,
      "𝙅": 8386,
      "𝙆": 8387,
      "𝙇": 8388,
      "𝙈": 8389,
      "𝙉": 8390,
      "𝙊": 8391,
      "𝙋": 8392,
      "𝙌": 8393,
      "𝙍": 8394,
      "𝙎": 8395,
      "𝙏": 8396,
      "𝙐": 8397,
      "𝙑": 8398,
      "𝙒": 8399,
      "𝙓": 8400,
      "𝙔": 8401,
      "𝙕": 8402,
      "𝙖": 8403,
      "𝙗": 8404,
      "𝙘": 8405,
      "𝙙": 8406,
      "𝙚": 8407,
      "𝙛": 8408,
      "𝙜": 8409,
      "𝙝": 8410,
      "𝙞": 8411,
      "𝙟": 8412,
      "𝙠": 8413,
      "𝙡": 8414,
      "𝙢": 8415,
      "𝙣": 8416,
      "𝙤": 8417,
      "𝙥": 8418,
      "𝙦": 8419,
      "𝙧": 8420,
      "𝙨": 8421,
      "𝙩": 8422,
      "𝙪": 8423,
      "𝙫": 8424,
      "𝙬": 8425,
      "𝙭": 8426,
      "𝙮": 8427,
      "𝟎": 8428,
      "𝟏": 8429,
      "𝟐": 8430,
      "𝟑": 8431,
      "𝟒": 8432,
      "𝟖": 8433,
      "𝟗": 8434,
      "𝟘": 8435,
      "𝟙": 8436,
      "𝟚": 8437,
      "𝟛": 8438,
      "𝟜": 8439,
      "𝟝": 8440,
      "𝟞": 8441,
      "𝟟": 8442,
      "𝟠": 8443,
      "𝟡": 8444,
      "𝟢": 8445,
      "𝟣": 8446,
      "𝟤": 8447,
      "𝟥": 8448,
      "𝟦": 8449,
      "𝟧": 8450,
      "𝟨": 8451,
      "𝟩": 8452,
      "𝟪": 8453,
      "𝟫": 8454,
      "𝟬": 8455,
      "𝟮": 8456,
      "𝟰": 8457,
      "𝟱": 8458,
      "𝟳": 8459,
      "𝟴": 8460,
      "𝟵": 8461,
      "𞤀": 8462,
      "𞤁": 8463,
      "𞤂": 8464,
      "𞤃": 8465,
      "𞤄": 8466,
      "𞤅": 8467,
      "𞤆": 8468,
      "𞤇": 8469,
      "𞤈": 8470,
      "𞤉": 8471,
      "𞤊": 8472,
      "𞤋": 8473,
      "𞤌": 8474,
      "𞤍": 8475,
      "𞤏": 8476,
      "𞤐": 8477,
      "𞤑": 8478,
      "𞤒": 8479,
      "𞤓": 8480,
      "𞤔": 8481,
      "𞤕": 8482,
      "𞤖": 8483,
      "𞤘": 8484,
      "𞤚": 8485,
      "𞤛": 8486,
      "𞤢": 8487,
      "𞤣": 8488,
      "𞤤": 8489,
      "𞤥": 8490,
      "𞤦": 8491,
      "𞤧": 8492,
      "𞤨": 8493,
      "𞤩": 8494,
      "𞤪": 8495,
      "𞤫": 8496,
      "𞤬": 8497,
      "𞤭": 8498,
      "𞤮": 8499,
      "𞤯": 8500,
      "𞤰": 8501,
      "𞤱": 8502,
      "𞤲": 8503,
      "𞤳": 8504,
      "𞤴": 8505,
      "𞤵": 8506,
      "𞤶": 8507,
      "𞤷": 8508,
      "𞤸": 8509,
      "𞤺": 8510,
      "𞤻": 8511,
      "𞤼": 8512,
      "𞤽": 8513,
      "𞤾": 8514,
      "𞥄": 8515,
      "𞥅": 8516,
      "𞥆": 8517,
      "𞥐": 8518,
      "𞥑": 8519,
      "𞥒": 8520,
      "𞥓": 8521,
      "𞥖": 8522,
      "𞥗": 8523,
      "𞥘": 8524,
      "𞥙": 8525,
      "🀄": 8526,
      "🀧": 8527,
      "🀩": 8528,
      "🃏": 8529,
      "🅑": 8530,
      "🅔": 8531,
      "🅗": 8532,
      "🅛": 8533,
      "🅜": 8534,
      "🅞": 8535,
      "🅟": 8536,
      "🅡": 8537,
      "🅤": 8538,
      "🅰": 8539,
      "🅱": 8540,
      "🅾": 8541,
      "🆕": 8542,
      "🆗": 8543,
      "🆘": 8544,
      "🇦": 8545,
      "🇧": 8546,
      "🇨": 8547,
      "🇩": 8548,
      "🇪": 8549,
      "🇫": 8550,
      "🇬": 8551,
      "🇭": 8552,
      "🇮": 8553,
      "🇯": 8554,
      "🇰": 8555,
      "🇱": 8556,
      "🇲": 8557,
      "🇳": 8558,
      "🇴": 8559,
      "🇵": 8560,
      "🇶": 8561,
      "🇷": 8562,
      "🇸": 8563,
      "🇹": 8564,
      "🇺": 8565,
      "🇼": 8566,
      "🇽": 8567,
      "🇾": 8568,
      "🇿": 8569,
      "🈚": 8570,
      "🈶": 8571,
      "🈸": 8572,
      "🌂": 8573,
      "🌄": 8574,
      "🌅": 8575,
      "🌆": 8576,
      "🌈": 8577,
      "🌊": 8578,
      "🌌": 8579,
      "🌍": 8580,
      "🌎": 8581,
      "🌏": 8582,
      "🌐": 8583,
      "🌑": 8584,
      "🌒": 8585,
      "🌙": 8586,
      "🌛": 8587,
      "🌞": 8588,
      "🌟": 8589,
      "🌠": 8590,
      "🌨": 8591,
      "🌭": 8592,
      "🌱": 8593,
      "🌲": 8594,
      "🌳": 8595,
      "🌴": 8596,
      "🌵": 8597,
      "🌷": 8598,
      "🌸": 8599,
      "🌹": 8600,
      "🌺": 8601,
      "🌻": 8602,
      "🌼": 8603,
      "🌽": 8604,
      "🌿": 8605,
      "🍀": 8606,
      "🍁": 8607,
      "🍂": 8608,
      "🍃": 8609,
      "🍅": 8610,
      "🍇": 8611,
      "🍉": 8612,
      "🍊": 8613,
      "🍋": 8614,
      "🍌": 8615,
      "🍎": 8616,
      "🍒": 8617,
      "🍓": 8618,
      "🍔": 8619,
      "🍕": 8620,
      "🍟": 8621,
      "🍠": 8622,
      "🍤": 8623,
      "🍦": 8624,
      "🍩": 8625,
      "🍪": 8626,
      "🍫": 8627,
      "🍬": 8628,
      "🍰": 8629,
      "🍵": 8630,
      "🍷": 8631,
      "🍸": 8632,
      "🍹": 8633,
      "🍺": 8634,
      "🍻": 8635,
      "🍼": 8636,
      "🍽": 8637,
      "🍾": 8638,
      "🍿": 8639,
      "🎀": 8640,
      "🎁": 8641,
      "🎂": 8642,
      "🎆": 8643,
      "🎇": 8644,
      "🎈": 8645,
      "🎉": 8646,
      "🎊": 8647,
      "🎎": 8648,
      "🎏": 8649,
      "🎓": 8650,
      "🎖": 8651,
      "🎗": 8652,
      "🎙": 8653,
      "🎞": 8654,
      "🎟": 8655,
      "🎤": 8656,
      "🎥": 8657,
      "🎦": 8658,
      "🎧": 8659,
      "🎨": 8660,
      "🎩": 8661,
      "🎪": 8662,
      "🎬": 8663,
      "🎭": 8664,
      "🎮": 8665,
      "🎯": 8666,
      "🎰": 8667,
      "🎲": 8668,
      "🎳": 8669,
      "🎵": 8670,
      "🎶": 8671,
      "🎷": 8672,
      "🎸": 8673,
      "🎺": 8674,
      "🎻": 8675,
      "🎼": 8676,
      "🏁": 8677,
      "🏂": 8678,
      "🏃": 8679,
      "🏄": 8680,
      "🏅": 8681,
      "🏆": 8682,
      "🏊": 8683,
      "🏋": 8684,
      "🏕": 8685,
      "🏗": 8686,
      "🏘": 8687,
      "🏙": 8688,
      "🏜": 8689,
      "🏝": 8690,
      "🏟": 8691,
      "🏠": 8692,
      "🏡": 8693,
      "🏥": 8694,
      "🏧": 8695,
      "🏨": 8696,
      "🏩": 8697,
      "🏪": 8698,
      "🏬": 8699,
      "🏳": 8700,
      "🏴": 8701,
      "🏵": 8702,
      "🏷": 8703,
      "🏻": 8704,
      "🏼": 8705,
      "🏽": 8706,
      "🏾": 8707,
      "🏿": 8708,
      "🐀": 8709,
      "🐁": 8710,
      "🐂": 8711,
      "🐃": 8712,
      "🐊": 8713,
      "🐌": 8714,
      "🐍": 8715,
      "🐎": 8716,
      "🐏": 8717,
      "🐐": 8718,
      "🐑": 8719,
      "🐒": 8720,
      "🐓": 8721,
      "🐕": 8722,
      "🐖": 8723,
      "🐗": 8724,
      "🐘": 8725,
      "🐙": 8726,
      "🐛": 8727,
      "🐜": 8728,
      "🐝": 8729,
      "🐟": 8730,
      "🐠": 8731,
      "🐢": 8732,
      "🐣": 8733,
      "🐤": 8734,
      "🐥": 8735,
      "🐦": 8736,
      "🐧": 8737,
      "🐨": 8738,
      "🐩": 8739,
      "🐪": 8740,
      "🐫": 8741,
      "🐬": 8742,
      "🐭": 8743,
      "🐰": 8744,
      "🐱": 8745,
      "🐳": 8746,
      "🐴": 8747,
      "🐵": 8748,
      "🐶": 8749,
      "🐷": 8750,
      "🐸": 8751,
      "🐺": 8752,
      "🐻": 8753,
      "🐼": 8754,
      "🐽": 8755,
      "🐾": 8756,
      "👀": 8757,
      "👁": 8758,
      "👂": 8759,
      "👃": 8760,
      "👄": 8761,
      "👅": 8762,
      "👆": 8763,
      "👇": 8764,
      "👈": 8765,
      "👉": 8766,
      "👊": 8767,
      "👋": 8768,
      "👌": 8769,
      "👍": 8770,
      "👎": 8771,
      "👏": 8772,
      "👐": 8773,
      "👑": 8774,
      "👔": 8775,
      "👙": 8776,
      "👟": 8777,
      "👠": 8778,
      "👣": 8779,
      "👤": 8780,
      "👥": 8781,
      "👦": 8782,
      "👧": 8783,
      "👨": 8784,
      "👩": 8785,
      "👪": 8786,
      "👫": 8787,
      "👬": 8788,
      "👮": 8789,
      "👯": 8790,
      "👰": 8791,
      "👱": 8792,
      "👳": 8793,
      "👶": 8794,
      "👸": 8795,
      "👹": 8796,
      "👺": 8797,
      "👻": 8798,
      "👼": 8799,
      "👽": 8800,
      "👿": 8801,
      "💀": 8802,
      "💁": 8803,
      "💃": 8804,
      "💄": 8805,
      "💅": 8806,
      "💆": 8807,
      "💉": 8808,
      "💋": 8809,
      "💌": 8810,
      "💍": 8811,
      "💎": 8812,
      "💏": 8813,
      "💐": 8814,
      "💑": 8815,
      "💓": 8816,
      "💔": 8817,
      "💕": 8818,
      "💖": 8819,
      "💗": 8820,
      "💘": 8821,
      "💙": 8822,
      "💚": 8823,
      "💛": 8824,
      "💜": 8825,
      "💝": 8826,
      "💞": 8827,
      "💟": 8828,
      "💠": 8829,
      "💡": 8830,
      "💢": 8831,
      "💣": 8832,
      "💤": 8833,
      "💥": 8834,
      "💦": 8835,
      "💨": 8836,
      "💩": 8837,
      "💪": 8838,
      "💫": 8839,
      "💬": 8840,
      "💭": 8841,
      "💯": 8842,
      "💰": 8843,
      "💲": 8844,
      "💳": 8845,
      "💵": 8846,
      "💸": 8847,
      "💺": 8848,
      "💻": 8849,
      "💼": 8850,
      "📀": 8851,
      "📁": 8852,
      "📂": 8853,
      "📄": 8854,
      "📅": 8855,
      "📆": 8856,
      "📈": 8857,
      "📉": 8858,
      "📋": 8859,
      "📌": 8860,
      "📍": 8861,
      "📏": 8862,
      "📑": 8863,
      "📕": 8864,
      "📖": 8865,
      "📗": 8866,
      "📙": 8867,
      "📚": 8868,
      "📝": 8869,
      "📞": 8870,
      "📠": 8871,
      "📡": 8872,
      "📣": 8873,
      "📥": 8874,
      "📦": 8875,
      "📧": 8876,
      "📨": 8877,
      "📩": 8878,
      "📫": 8879,
      "📬": 8880,
      "📮": 8881,
      "📯": 8882,
      "📰": 8883,
      "📱": 8884,
      "📲": 8885,
      "📷": 8886,
      "📸": 8887,
      "📹": 8888,
      "📺": 8889,
      "📻": 8890,
      "📼": 8891,
      "📽": 8892,
      "📿": 8893,
      "🔃": 8894,
      "🔄": 8895,
      "🔅": 8896,
      "🔆": 8897,
      "🔊": 8898,
      "🔌": 8899,
      "🔍": 8900,
      "🔎": 8901,
      "🔐": 8902,
      "🔑": 8903,
      "🔒": 8904,
      "🔔": 8905,
      "🔗": 8906,
      "🔙": 8907,
      "🔛": 8908,
      "🔜": 8909,
      "🔝": 8910,
      "🔟": 8911,
      "🔢": 8912,
      "🔥": 8913,
      "🔦": 8914,
      "🔧": 8915,
      "🔨": 8916,
      "🔪": 8917,
      "🔫": 8918,
      "🔬": 8919,
      "🔭": 8920,
      "🔮": 8921,
      "🔰": 8922,
      "🔱": 8923,
      "🔴": 8924,
      "🔵": 8925,
      "🔹": 8926,
      "🔻": 8927,
      "🔼": 8928,
      "🔽": 8929,
      "🕇": 8930,
      "🕊": 8931,
      "🕋": 8932,
      "🕌": 8933,
      "🕐": 8934,
      "🕝": 8935,
      "🕯": 8936,
      "🕰": 8937,
      "🕵": 8938,
      "🕶": 8939,
      "🕷": 8940,
      "🕸": 8941,
      "🕹": 8942,
      "🕺": 8943,
      "🖊": 8944,
      "🖋": 8945,
      "🖍": 8946,
      "🖐": 8947,
      "🖑": 8948,
      "🖒": 8949,
      "🖕": 8950,
      "🖤": 8951,
      "🖥": 8952,
      "🖼": 8953,
      "🗓": 8954,
      "🗞": 8955,
      "🗣": 8956,
      "🗨": 8957,
      "🗳": 8958,
      "🗹": 8959,
      "🗺": 8960,
      "🗼": 8961,
      "😀": 8962,
      "😁": 8963,
      "😂": 8964,
      "😃": 8965,
      "😄": 8966,
      "😅": 8967,
      "😆": 8968,
      "😇": 8969,
      "😈": 8970,
      "😉": 8971,
      "😊": 8972,
      "😋": 8973,
      "😌": 8974,
      "😍": 8975,
      "😎": 8976,
      "😏": 8977,
      "😐": 8978,
      "😑": 8979,
      "😒": 8980,
      "😓": 8981,
      "😔": 8982,
      "😕": 8983,
      "😖": 8984,
      "😗": 8985,
      "😘": 8986,
      "😙": 8987,
      "😚": 8988,
      "😛": 8989,
      "😜": 8990,
      "😝": 8991,
      "😞": 8992,
      "😟": 8993,
      "😠": 8994,
      "😡": 8995,
      "😢": 8996,
      "😣": 8997,
      "😤": 8998,
      "😥": 8999,
      "😦": 9000,
      "😧": 9001,
      "😨": 9002,
      "😩": 9003,
      "😪": 9004,
      "😫": 9005,
      "😬": 9006,
      "😭": 9007,
      "😮": 9008,
      "😯": 9009,
      "😰": 9010,
      "😱": 9011,
      "😲": 9012,
      "😳": 9013,
      "😴": 9014,
      "😵": 9015,
      "😶": 9016,
      "😷": 9017,
      "😸": 9018,
      "😹": 9019,
      "😻": 9020,
      "😼": 9021,
      "😿": 9022,
      "🙀": 9023,
      "🙁": 9024,
      "🙂": 9025,
      "🙃": 9026,
      "🙄": 9027,
      "🙅": 9028,
      "🙆": 9029,
      "🙇": 9030,
      "🙈": 9031,
      "🙉": 9032,
      "🙊": 9033,
      "🙋": 9034,
      "🙌": 9035,
      "🙏": 9036,
      "🚀": 9037,
      "🚁": 9038,
      "🚆": 9039,
      "🚇": 9040,
      "🚉": 9041,
      "🚌": 9042,
      "🚑": 9043,
      "🚒": 9044,
      "🚔": 9045,
      "🚕": 9046,
      "🚖": 9047,
      "🚗": 9048,
      "🚘": 9049,
      "🚙": 9050,
      "🚚": 9051,
      "🚢": 9052,
      "🚧": 9053,
      "🚨": 9054,
      "🚩": 9055,
      "🚪": 9056,
      "🚫": 9057,
      "🚬": 9058,
      "🚴": 9059,
      "🚶": 9060,
      "🚷": 9061,
      "🚽": 9062,
      "🛌": 9063,
      "🛍": 9064,
      "🛎": 9065,
      "🛏": 9066,
      "🛑": 9067,
      "🛒": 9068,
      "🛠": 9069,
      "🛤": 9070,
      "🛩": 9071,
      "🛫": 9072,
      "🛬": 9073,
      "🛵": 9074,
      "🛷": 9075,
      "🟥": 9076,
      "🟦": 9077,
      "🟩": 9078,
      "🡻": 9079,
      "🤍": 9080,
      "🤐": 9081,
      "🤑": 9082,
      "🤒": 9083,
      "🤓": 9084,
      "🤔": 9085,
      "🤕": 9086,
      "🤖": 9087,
      "🤗": 9088,
      "🤘": 9089,
      "🤙": 9090,
      "🤚": 9091,
      "🤛": 9092,
      "🤜": 9093,
      "🤝": 9094,
      "🤞": 9095,
      "🤟": 9096,
      "🤠": 9097,
      "🤢": 9098,
      "🤣": 9099,
      "🤤": 9100,
      "🤥": 9101,
      "🤦": 9102,
      "🤧": 9103,
      "🤨": 9104,
      "🤩": 9105,
      "🤪": 9106,
      "🤫": 9107,
      "🤬": 9108,
      "🤭": 9109,
      "🤮": 9110,
      "🤯": 9111,
      "🤰": 9112,
      "🤱": 9113,
      "🤲": 9114,
      "🤴": 9115,
      "🤵": 9116,
      "🤷": 9117,
      "🤼": 9118,
      "🥀": 9119,
      "🥇": 9120,
      "🥈": 9121,
      "🥉": 9122,
      "🥋": 9123,
      "🥑": 9124,
      "🥕": 9125,
      "🥗": 9126,
      "🥝": 9127,
      "🥬": 9128,
      "🥭": 9129,
      "🥰": 9130,
      "🥱": 9131,
      "🥲": 9132,
      "🥳": 9133,
      "🥴": 9134,
      "🥶": 9135,
      "🥸": 9136,
      "🥺": 9137,
      "🥼": 9138,
      "🥾": 9139,
      "🦁": 9140,
      "🦂": 9141,
      "🦃": 9142,
      "🦄": 9143,
      "🦅": 9144,
      "🦆": 9145,
      "🦈": 9146,
      "🦉": 9147,
      "🦊": 9148,
      "🦋": 9149,
      "🦍": 9150,
      "🦎": 9151,
      "🦓": 9152,
      "🦔": 9153,
      "🦗": 9154,
      "🦜": 9155,
      "🦟": 9156,
      "🦠": 9157,
      "🦢": 9158,
      "🦰": 9159,
      "🦴": 9160,
      "🦷": 9161,
      "🧏": 9162,
      "🧐": 9163,
      "🧕": 9164,
      "🧖": 9165,
      "🧗": 9166,
      "🧚": 9167,
      "🧟": 9168,
      "🧠": 9169,
      "🧡": 9170,
      "🧤": 9171,
      "🧩": 9172,
      "🧱": 9173,
      "🧵": 9174,
      "🧷": 9175,
      "🩺": 9176,
      "🪁": 9177,
      "🪙": 9178,
      "🪡": 9179,
      "🪴": 9180,
      "󠁢": 9181,
      "󠁣": 9182,
      "󠁥": 9183,
      "󠁧": 9184,
      "󠁬": 9185,
      "󠁮": 9186,
      "󠁳": 9187,
      "󠁴": 9188,
      "󠁷": 9189,
      "󠁿": 9190,
      "󾌪": 9191,
      "󾌴": 9192,
      "󾌾": 9193,
      "󾍇": 9194,
      "󾟚": 9195,
      "󾭂": 9196,
      "󾰀": 9197,
      "􀁸": 9198,
      "􀂾": 9199,
      "aa": 9200,
      "ay": 9201,
      "ka": 9202,
      "oo": 9203,
      "da": 9204,
      "ee": 9205,
      "ha": 9206,
      "ii": 9207,
      "la": 9208,
      "ar": 9209,
      "in": 9210,
      "iy": 9211,
      "aan": 9212,
      "an": 9213,
      "uu": 9214,
      "ma": 9215,
      "ga": 9216,
      "ax": 9217,
      "ta": 9218,
      "ad": 9219,
      "ku": 9220,
      "ah": 9221,
      "ey": 9222,
      "ada": 9223,
      "is": 9224,
      "ir": 9225,
      "aad": 9226,
      "wax": 9227,
      "aal": 9228,
      "gu": 9229,
      "iyo": 9230,
      "id": 9231,
      "ab": 9232,
      "al": 9233,
      "sh": 9234,
      "aar": 9235,
      "dh": 9236,
      "si": 9237,
      "ayaa": 9238,
      "na": 9239,
      "sha": 9240,
      "or": 9241,
      "il": 9242,
      "soo": 9243,
      "dha": 9244,
      "een": 9245,
      "sa": 9246,
      "san": 9247,
      "kii": 9248,
      "ur": 9249,
      "le": 9250,
      "mar": 9251,
      "aab": 9252,
      "er": 9253,
      "lka": 9254,
      "iya": 9255,
      "as": 9256,
      "doo": 9257,
      "aas": 9258,
      "li": 9259,
      "di": 9260,
      "eeg": 9261,
      "eey": 9262,
      "maal": 9263,
      "ti": 9264,
      "ba": 9265,
      "lan": 9266,
      "iin": 9267,
      "eed": 9268,
      "to": 9269,
      "ow": 9270,
      "loo": 9271,
      "tay": 9272,
      "hay": 9273,
      "eer": 9274,
      "ed": 9275,
      "eyn": 9276,
      "mu": 9277,
      "aala": 9278,
      "mada": 9279,
      "waa": 9280,
      "am": 9281,
      "du": 9282,
      "el": 9283,
      "so": 9284,
      "Soo": 9285,
      "iga": 9286,
      "ag": 9287,
      "mid": 9288,
      "on": 9289,
      "dda": 9290,
      "ig": 9291,
      "un": 9292,
      "jir": 9293,
      "ugu": 9294,
      "dii": 9295,
      "ac": 9296,
      "lagu": 9297,
      "maan": 9298,
      "hor": 9299,
      "bada": 9300,
      "en": 9301,
      "Soomaal": 9302,
      "taa": 9303,
      "dan": 9304,
      "bo": 9305,
      "us": 9306,
      "20": 9307,
      "ul": 9308,
      "iir": 9309,
      "ahay": 9310,
      "no": 9311,
      "iis": 9312,
      "aha": 9313,
      "sheeg": 9314,
      "..": 9315,
      "adda": 9316,
      "inta": 9317,
      "yo": 9318,
      "inay": 9319,
      "ub": 9320,
      "maa": 9321,
      "go": 9322,
      "day": 9323,
      "kale": 9324,
      "land": 9325,
      "lay": 9326,
      "kar": 9327,
      "im": 9328,
      "Wax": 9329,
      "koo": 9330,
      "de": 9331,
      "waxaa": 9332,
      "aq": 9333,
      "uur": 9334,
      "So": 9335,
      "kh": 9336,
      "qo": 9337,
      "ib": 9338,
      "aam": 9339,
      "dad": 9340,
      "do": 9341,
      "war": 9342,
      "badan": 9343,
      "ho": 9344,
      "aw": 9345,
      "qab": 9346,
      "laga": 9347,
      "ih": 9348,
      "he": 9349,
      "aah": 9350,
      "ayn": 9351,
      "bar": 9352,
      "Mu": 9353,
      "mali": 9354,
      "kan": 9355,
      "had": 9356,
      "af": 9357,
      "201": 9358,
      "waxa": 9359,
      "it": 9360,
      "weyn": 9361,
      "waxay": 9362,
      "aaf": 9363,
      "oon": 9364,
      "aana": 9365,
      "aalada": 9366,
      "kaa": 9367,
      "sheegay": 9368,
      "ooy": 9369,
      "st": 9370,
      "Soomaaliya": 9371,
      "doon": 9372,
      "lo": 9373,
      "dar": 9374,
      "Somali": 9375,
      "dib": 9376,
      "Mada": 9377,
      "bi": 9378,
      "gaar": 9379,
      "ra": 9380,
      "gan": 9381,
      "ri": 9382,
      "Madax": 9383,
      "tii": 9384,
      "ux": 9385,
      "sid": 9386,
      "co": 9387,
      "Sh": 9388,
      "sii": 9389,
      "owla": 9390,
      "Max": 9391,
      "se": 9392,
      "wa": 9393,
      "aya": 9394,
      "Mar": 9395,
      "kala": 9396,
      "han": 9397,
      "dalka": 9398,
      "inka": 9399,
      "aanka": 9400,
      "War": 9401,
      "ama": 9402,
      "Sha": 9403,
      "tahay": 9404,
      "AA": 9405,
      "naha": 9406,
      "wada": 9407,
      "og": 9408,
      "shada": 9409,
      "um": 9410,
      "ida": 9411,
      "aac": 9412,
      "oob": 9413,
      "mag": 9414,
      "ex": 9415,
      "iyaar": 9416,
      "maha": 9417,
      "sam": 9418,
      "Was": 9419,
      "dhac": 9420,
      "uxuu": 9421,
      "ood": 9422,
      "yahay": 9423,
      "wey": 9424,
      "tir": 9425,
      "tan": 9426,
      "haa": 9427,
      "dis": 9428,
      "sida": 9429,
      "re": 9430,
      "aalka": 9431,
      "Go": 9432,
      "dhig": 9433,
      "ro": 9434,
      "mb": 9435,
      "ahaa": 9436,
      "hal": 9437,
      "gal": 9438,
      "iyay": 9439,
      "gac": 9440,
      "laha": 9441,
      "In": 9442,
      "...": 9443,
      "wan": 9444,
      "eeda": 9445,
      "ayo": 9446,
      "ic": 9447,
      "iida": 9448,
      "sad": 9449,
      "su": 9450,
      "laa": 9451,
      "Cab": 9452,
      "bad": 9453,
      "Al": 9454,
      "wal": 9455,
      "te": 9456,
      "qor": 9457,
      "oog": 9458,
      "baa": 9459,
      "lada": 9460,
      "wuxuu": 9461,
      "qaad": 9462,
      "qa": 9463,
      "sta": 9464,
      "yar": 9465,
      "qaa": 9466,
      "ud": 9467,
      "ban": 9468,
      "gar": 9469,
      "Oo": 9470,
      "uul": 9471,
      "saar": 9472,
      "ool": 9473,
      "bal": 9474,
      "dal": 9475,
      "shaq": 9476,
      "uun": 9477,
      "Maxam": 9478,
      "Somaliland": 9479,
      "uud": 9480,
      "Is": 9481,
      "ihiin": 9482,
      "mo": 9483,
      "eys": 9484,
      "may": 9485,
      "aaw": 9486,
      "deg": 9487,
      "bax": 9488,
      "eel": 9489,
      "leh": 9490,
      "Ku": 9491,
      "hii": 9492,
      "ni": 9493,
      "aasi": 9494,
      "iyad": 9495,
      "dhib": 9496,
      "qay": 9497,
      "uga": 9498,
      "markii": 9499,
      "xil": 9500,
      "qdis": 9501,
      "magaalada": 9502,
      "inuu": 9503,
      "yada": 9504,
      "at": 9505,
      "isku": 9506,
      "xda": 9507,
      "iyaha": 9508,
      "unt": 9509,
      "eeyay": 9510,
      "qdisho": 9511,
      "kaas": 9512,
      "dadka": 9513,
      "dhex": 9514,
      "bix": 9515,
      "far": 9516,
      "weynaha": 9517,
      "iyada": 9518,
      "Ka": 9519,
      "aag": 9520,
      "cab": 9521,
      "xir": 9522,
      "mac": 9523,
      "bil": 9524,
      "Muqdisho": 9525,
      "fur": 9526,
      "soc": 9527,
      "hi": 9528,
      "iska": 9529,
      "ya": 9530,
      "tar": 9531,
      "ayaan": 9532,
      "waxaan": 9533,
      "iinta": 9534,
      "wad": 9535,
      "ahaan": 9536,
      "ays": 9537,
      "dowla": 9538,
      "bolka": 9539,
      "kuu": 9540,
      "tic": 9541,
      "yihiin": 9542,
      "iyey": 9543,
      "hel": 9544,
      "dhan": 9545,
      "sar": 9546,
      "cad": 9547,
      "aga": 9548,
      "baab": 9549,
      "untland": 9550,
      "waxaana": 9551,
      "qof": 9552,
      "irka": 9553,
      "dag": 9554,
      "sho": 9555,
      "qar": 9556,
      "xu": 9557,
      "es": 9558,
      "marka": 9559,
      "Maxamed": 9560,
      "lin": 9561,
      "hore": 9562,
      "madax": 9563,
      "Dha": 9564,
      "Puntland": 9565,
      "was": 9566,
      "noq": 9567,
      "muu": 9568,
      "dhaq": 9569,
      "too": 9570,
      "naa": 9571,
      "Ar": 9572,
      "mi": 9573,
      "ca": 9574,
      "aadka": 9575,
      "goo": 9576,
      "Af": 9577,
      "ooyinka": 9578,
      "iyeed": 9579,
      "shar": 9580,
      "iirka": 9581,
      "arka": 9582,
      "weyne": 9583,
      "yee": 9584,
      "maanta": 9585,
      "siga": 9586,
      "we": 9587,
      "hoo": 9588,
      "man": 9589,
      "med": 9590,
      "doom": 9591,
      "eysa": 9592,
      "iidamada": 9593,
      "madda": 9594,
      "ali": 9595,
      "Bar": 9596,
      "ew": 9597,
      "lab": 9598,
      "shay": 9599,
      "daa": 9600,
      "adii": 9601,
      "De": 9602,
      "daha": 9603,
      "waan": 9604,
      "00": 9605,
      "maamu": 9606,
      "alka": 9607,
      "usub": 9608,
      "gud": 9609,
      "iil": 9610,
      "ihii": 9611,
      "mad": 9612,
      "kor": 9613,
      "isla": 9614,
      "Waxaa": 9615,
      "loogu": 9616,
      "noo": 9617,
      "me": 9618,
      "Dh": 9619,
      "anka": 9620,
      "dhin": 9621,
      "isb": 9622,
      "iiska": 9623,
      "damb": 9624,
      "kaasi": 9625,
      "lahaa": 9626,
      "ter": 9627,
      "Qar": 9628,
      "iye": 9629,
      "tu": 9630,
      "iib": 9631,
      "iyaas": 9632,
      "ayuu": 9633,
      "ees": 9634,
      "ko": 9635,
      "hadlay": 9636,
      "Madaxweynaha": 9637,
      "ayay": 9638,
      "tirsan": 9639,
      "Dowla": 9640,
      "dheer": 9641,
      "Ma": 9642,
      "abab": 9643,
      "dil": 9644,
      "mark": 9645,
      "dir": 9646,
      "Mag": 9647,
      "Ab": 9648,
      "tal": 9649,
      "Xa": 9650,
      "gel": 9651,
      "of": 9652,
      "cel": 9653,
      "ing": 9654,
      "kasta": 9655,
      "taan": 9656,
      "joog": 9657,
      "Ax": 9658,
      "ciyaar": 9659,
      "iid": 9660,
      "maanka": 9661,
      "hu": 9662,
      "adaha": 9663,
      "Waa": 9664,
      "keen": 9665,
      "taas": 9666,
      "looga": 9667,
      "hab": 9668,
      "fi": 9669,
      "kiisa": 9670,
      "eenka": 9671,
      "kiin": 9672,
      "magac": 9673,
      "arr": 9674,
      "qaar": 9675,
      "AD": 9676,
      "ix": 9677,
      "leey": 9678,
      "jira": 9679,
      "can": 9680,
      "Cali": 9681,
      "xa": 9682,
      "mal": 9683,
      "cusub": 9684,
      "deeg": 9685,
      "taag": 9686,
      "qey": 9687,
      "Far": 9688,
      "ews": 9689,
      "sidoo": 9690,
      "ayaasha": 9691,
      "mas": 9692,
      "dhis": 9693,
      "dham": 9694,
      "boo": 9695,
      "dhacay": 9696,
      "qayb": 9697,
      "th": 9698,
      "aysan": 9699,
      "dhow": 9700,
      "iyadoo": 9701,
      "je": 9702,
      "baar": 9703,
      "Gal": 9704,
      "Gud": 9705,
      "La": 9706,
      "eeyo": 9707,
      "url": 9708,
      "Wasaar": 9709,
      "Cabdi": 9710,
      "ch": 9711,
      "kaan": 9712,
      "way": 9713,
      "ug": 9714,
      "abad": 9715,
      "kulan": 9716,
      "cag": 9717,
      "KA": 9718,
      "Re": 9719,
      "jeed": 9720,
      "umar": 9721,
      "aanta": 9722,
      "ak": 9723,
      "ilaa": 9724,
      "Soomaaliyeed": 9725,
      "kuwa": 9726,
      "Axmed": 9727,
      "adka": 9728,
      "Co": 9729,
      "ent": 9730,
      "eeyey": 9731,
      "Ho": 9732,
      "saa": 9733,
      "cod": 9734,
      "diga": 9735,
      "Maa": 9736,
      "baah": 9737,
      "HA": 9738,
      "Gar": 9739,
      "duwan": 9740,
      "xar": 9741,
      "max": 9742,
      "imo": 9743,
      "haw": 9744,
      "sax": 9745,
      "lad": 9746,
      "gaad": 9747,
      "Xil": 9748,
      "iri": 9749,
      "Magaalada": 9750,
      "iidan": 9751,
      "Ken": 9752,
      "buu": 9753,
      "qaab": 9754,
      "19": 9755,
      "eeya": 9756,
      "xid": 9757,
      "OO": 9758,
      "kal": 9759,
      "galay": 9760,
      "daan": 9761,
      "dhibaan": 9762,
      "ina": 9763,
      "Ee": 9764,
      "aale": 9765,
      "yeen": 9766,
      "Gu": 9767,
      "iyaan": 9768,
      "bul": 9769,
      "tag": 9770,
      "ana": 9771,
      "Xasan": 9772,
      "ne": 9773,
      "jo": 9774,
      "Sid": 9775,
      "mee": 9776,
      "gobolka": 9777,
      "eder": 9778,
      "dul": 9779,
      "eerar": 9780,
      "aabo": 9781,
      "baad": 9782,
      "dowladda": 9783,
      "Waxaan": 9784,
      "Iyo": 9785,
      "II": 9786,
      "kuw": 9787,
      "AR": 9788,
      "nin": 9789,
      "iyadda": 9790,
      "doora": 9791,
      "Madaxweyne": 9792,
      "dug": 9793,
      "sal": 9794,
      "cabka": 9795,
      "Shee": 9796,
      "hada": 9797,
      "Har": 9798,
      "kadib": 9799,
      "bol": 9800,
      "qeyb": 9801,
      "rimaha": 9802,
      "ji": 9803,
      "daw": 9804,
      "har": 9805,
      "gii": 9806,
      "Xu": 9807,
      "ce": 9808,
      "diyaar": 9809,
      "ahan": 9810,
      "Tal": 9811,
      "hadda": 9812,
      "isay": 9813,
      "10": 9814,
      "the": 9815,
      "eedka": 9816,
      "unta": 9817,
      "doomiyaha": 9818,
      "xig": 9819,
      "adan": 9820,
      "fii": 9821,
      "sabab": 9822,
      "Kenya": 9823,
      "Mid": 9824,
      "fa": 9825,
      "eyso": 9826,
      "iso": 9827,
      "duu": 9828,
      "Ra": 9829,
      "haddii": 9830,
      "Ay": 9831,
      "hog": 9832,
      "ge": 9833,
      "bur": 9834,
      "Maamu": 9835,
      "doono": 9836,
      "tion": 9837,
      "shir": 9838,
      "Ah": 9839,
      "meel": 9840,
      "IS": 9841,
      "markaana": 9842,
      "kanka": 9843,
      "bee": 9844,
      "aalam": 9845,
      "kha": 9846,
      "wasaar": 9847,
      "ish": 9848,
      "yay": 9849,
      "tti": 9850,
      "reer": 9851,
      "karo": 9852,
      "Had": 9853,
      "siyaas": 9854,
      "dhinac": 9855,
      "lamaanka": 9856,
      "kula": 9857,
      "Gobolka": 9858,
      "istic": 9859,
      "io": 9860,
      "kooxda": 9861,
      "xaq": 9862,
      "aysa": 9863,
      "shirka": 9864,
      "uuq": 9865,
      "Waxa": 9866,
      "gaa": 9867,
      "maad": 9868,
      "ij": 9869,
      "kooda": 9870,
      "bara": 9871,
      "Wasiirka": 9872,
      "sidii": 9873,
      "teen": 9874,
      "yiri": 9875,
      "wanaag": 9876,
      "ciidamada": 9877,
      "koox": 9878,
      "kul": 9879,
      "halka": 9880,
      "fad": 9881,
      "ooyin": 9882,
      "Sheekh": 9883,
      "AN": 9884,
      "laah": 9885,
      "iyaa": 9886,
      "ooda": 9887,
      "Afri": 9888,
      "laakiin": 9889,
      "dagaal": 9890,
      "ci": 9891,
      "Somalia": 9892,
      "aalaha": 9893,
      "kasoo": 9894,
      "Shabaab": 9895,
      "noqon": 9896,
      "sare": 9897,
      "hesh": 9898,
      "adeeg": 9899,
      "ore": 9900,
      "ber": 9901,
      "ki": 9902,
      "lahay": 9903,
      "inaad": 9904,
      "gur": 9905,
      "be": 9906,
      "joo": 9907,
      "eysan": 9908,
      "agoo": 9909,
      "dhal": 9910,
      "qaaday": 9911,
      "xal": 9912,
      "eynta": 9913,
      "min": 9914,
      "lacag": 9915,
      "til": 9916,
      "oor": 9917,
      "tee": 9918,
      "nay": 9919,
      "EE": 9920,
      "dhaw": 9921,
      "It": 9922,
      "jiray": 9923,
      "gacan": 9924,
      "Mas": 9925,
      "ladda": 9926,
      "ederaalka": 9927,
      "inaan": 9928,
      "xi": 9929,
      "kay": 9930,
      "yaab": 9931,
      "ista": 9932,
      "Ban": 9933,
      "Dowladda": 9934,
      "Baar": 9935,
      "Wasiir": 9936,
      "car": 9937,
      "saab": 9938,
      "ddo": 9939,
      "Am": 9940,
      "ver": 9941,
      "qii": 9942,
      "imaad": 9943,
      "An": 9944,
      "ve": 9945,
      "taageer": 9946,
      "door": 9947,
      "weerar": 9948,
      "kaga": 9949,
      "saday": 9950,
      "ahayd": 9951,
      "isaga": 9952,
      "and": 9953,
      "iisa": 9954,
      "labada": 9955,
      "raa": 9956,
      "rab": 9957,
      "Deg": 9958,
      "yid": 9959,
      "shee": 9960,
      "hub": 9961,
      "baahan": 9962,
      "Koo": 9963,
      "baxay": 9964,
      "News": 9965,
      "socda": 9966,
      "dane": 9967,
      "laab": 9968,
      "Ciidamada": 9969,
      "xoo": 9970,
      "Harg": 9971,
      "hadal": 9972,
      "fil": 9973,
      "Mo": 9974,
      "AM": 9975,
      "AY": 9976,
      "yi": 9977,
      "aada": 9978,
      "maamulka": 9979,
      "xan": 9980,
      "guud": 9981,
      "isa": 9982,
      "aawo": 9983,
      "mber": 9984,
      "moo": 9985,
      "bay": 9986,
      "intii": 9987,
      "sanad": 9988,
      "isticmaal": 9989,
      "wanaagsan": 9990,
      "aqoon": 9991,
      "Sar": 9992,
      "iyeen": 9993,
      "ia": 9994,
      "naan": 9995,
      "iidanka": 9996,
      "aarii": 9997,
      "ska": 9998,
      "qan": 9999,
      "cid": 10000,
      "waq": 10001,
      "leeyahay": 10002,
      "weli": 10003,
      "Itoob": 10004,
      "Xildhibaan": 10005,
      "tt": 10006,
      "uunka": 10007,
      "aba": 10008,
      "tada": 10009,
      "isagoo": 10010,
      "Wararka": 10011,
      "eysay": 10012,
      "Si": 10013,
      "ayey": 10014,
      "bis": 10015,
      "ayso": 10016,
      "urka": 10017,
      "Golaha": 10018,
      "dhu": 10019,
      "saabsan": 10020,
      "iif": 10021,
      "qal": 10022,
      "12": 10023,
      "sano": 10024,
      "dhigay": 10025,
      "muhii": 10026,
      "cay": 10027,
      "kun": 10028,
      "xub": 10029,
      "ol": 10030,
      "guul": 10031,
      "aabay": 10032,
      "dee": 10033,
      "AL": 10034,
      "ke": 10035,
      "xiriir": 10036,
      "aay": 10037,
      "iro": 10038,
      "ala": 10039,
      "aado": 10040,
      "Car": 10041,
      "Hor": 10042,
      "balse": 10043,
      "No": 10044,
      "ticle": 10045,
      "isbiga": 10046,
      "Itoobiya": 10047,
      "baha": 10048,
      "xad": 10049,
      "Dalka": 10050,
      "bulshada": 10051,
      "if": 10052,
      "eyd": 10053,
      "doonaa": 10054,
      "op": 10055,
      "aash": 10056,
      "tilmaa": 10057,
      "kamid": 10058,
      "tiga": 10059,
      "Hal": 10060,
      "fiican": 10061,
      "ganac": 10062,
      "bab": 10063,
      "bka": 10064,
      "laba": 10065,
      "by": 10066,
      "11": 10067,
      "shacabka": 10068,
      "San": 10069,
      "Mad": 10070,
      "faa": 10071,
      "dhaaf": 10072,
      "Pre": 10073,
      "bixin": 10074,
      "dhibaa": 10075,
      "taasi": 10076,
      "IY": 10077,
      "jin": 10078,
      "Hargeysa": 10079,
      "ree": 10080,
      "wali": 10081,
      "waad": 10082,
      "maar": 10083,
      "Man": 10084,
      "siin": 10085,
      "goob": 10086,
      "arag": 10087,
      "how": 10088,
      "Maamulka": 10089,
      "Xukuu": 10090,
      "ixii": 10091,
      "article": 10092,
      "aamac": 10093,
      "fu": 10094,
      "Home": 10095,
      "aalo": 10096,
      ":-": 10097,
      "sug": 10098,
      "rid": 10099,
      "yaan": 10100,
      "guu": 10101,
      "heer": 10102,
      "hin": 10103,
      "Federaalka": 10104,
      "nool": 10105,
      "raad": 10106,
      "doonaan": 10107,
      "shan": 10108,
      "Qor": 10109,
      "wayn": 10110,
      "Shar": 10111,
      "aaladda": 10112,
      "ras": 10113,
      "gobol": 10114,
      "maajo": 10115,
      "naam": 10116,
      "pp": 10117,
      "karaa": 10118,
      "adeed": 10119,
      "kartaa": 10120,
      "qaban": 10121,
      "xilli": 10122,
      "OM": 10123,
      "laam": 10124,
      "degmada": 10125,
      "bed": 10126,
      "200": 10127,
      "jab": 10128,
      "br": 10129,
      "raac": 10130,
      "waxaad": 10131,
      "inayo": 10132,
      "ut": 10133,
      "Ugu": 10134,
      "muhiim": 10135,
      "15": 10136,
      "ruu": 10137,
      "walba": 10138,
      "xaqii": 10139,
      "lah": 10140,
      "Ad": 10141,
      "ment": 10142,
      "naamij": 10143,
      "aanu": 10144,
      "gol": 10145,
      "Se": 10146,
      "Maal": 10147,
      "Sal": 10148,
      "cas": 10149,
      "soomaal": 10150,
      "dhaaw": 10151,
      "Maxamuud": 10152,
      "yidhi": 10153,
      "qur": 10154,
      "Daw": 10155,
      "2018": 10156,
      "soco": 10157,
      "noqo": 10158,
      "2017": 10159,
      "niga": 10160,
      "wareeg": 10161,
      "jaw": 10162,
      "Farmaajo": 10163,
      "tid": 10164,
      "yey": 10165,
      "Xar": 10166,
      "Muu": 10167,
      "nu": 10168,
      "yahan": 10169,
      "hoos": 10170,
      "oonka": 10171,
      "ani": 10172,
      "yaa": 10173,
      "aynta": 10174,
      "IN": 10175,
      "Mac": 10176,
      "ID": 10177,
      "jiraan": 10178,
      "yaal": 10179,
      "xaf": 10180,
      "shabaab": 10181,
      "Marey": 10182,
      "Afrika": 10183,
      "uurta": 10184,
      "dhaawac": 10185,
      "xus": 10186,
      "caaf": 10187,
      "diisa": 10188,
      "Daawo": 10189,
      "for": 10190,
      "mudug": 10191,
      "aakii": 10192,
      "abuur": 10193,
      "nolo": 10194,
      "qabtay": 10195,
      "gudaha": 10196,
      "2012": 10197,
      "aj": 10198,
      "aariikh": 10199,
      "yan": 10200,
      "Waxay": 10201,
      "dhax": 10202,
      "xoog": 10203,
      "Doo": 10204,
      ").": 10205,
      "Po": 10206,
      "uhu": 10207,
      "ham": 10208,
      "aqaan": 10209,
      "gudb": 10210,
      "Du": 10211,
      "iyiinta": 10212,
      "deegaanka": 10213,
      "Le": 10214,
      "sheegtay": 10215,
      "Su": 10216,
      "caan": 10217,
      "maamul": 10218,
      "2016": 10219,
      "Shir": 10220,
      "tooy": 10221,
      "keeda": 10222,
      "nimo": 10223,
      "mur": 10224,
      "Tur": 10225,
      "Bo": 10226,
      "heshiis": 10227,
      "Sida": 10228,
      "line": 10229,
      "Cad": 10230,
      "Mudane": 10231,
      "waxayna": 10232,
      "Haw": 10233,
      "Baarlamaanka": 10234,
      "caalam": 10235,
      "laahi": 10236,
      "eena": 10237,
      "muuq": 10238,
      "linyar": 10239,
      "dex": 10240,
      "eedahay": 10241,
      "nad": 10242,
      "heli": 10243,
      "wadan": 10244,
      "ilaal": 10245,
      "ran": 10246,
      "eeyaan": 10247,
      "lalka": 10248,
      "ary": 10249,
      "iisul": 10250,
      "30": 10251,
      "xukuu": 10252,
      "ahayn": 10253,
      "kaal": 10254,
      "Saw": 10255,
      "ful": 10256,
      "maayo": 10257,
      "aaq": 10258,
      "adag": 10259,
      "jiro": 10260,
      "mil": 10261,
      "Hoo": 10262,
      "ash": 10263,
      "deegaan": 10264,
      "Oro": 10265,
      "Maanta": 10266,
      "jar": 10267,
      "18": 10268,
      "Galmudug": 10269,
      "aaday": 10270,
      "ula": 10271,
      "leedahay": 10272,
      "baahinta": 10273,
      "kaliya": 10274,
      "Jam": 10275,
      "kana": 10276,
      "doona": 10277,
      "wixii": 10278,
      "eeb": 10279,
      "aasha": 10280,
      "Jub": 10281,
      "maq": 10282,
      "saam": 10283,
      "Na": 10284,
      "Sidoo": 10285,
      "aadan": 10286,
      "der": 10287,
      "owga": 10288,
      "cal": 10289,
      "Mus": 10290,
      "dab": 10291,
      "Dag": 10292,
      "Mareykanka": 10293,
      "Jan": 10294,
      "arrimaha": 10295,
      "ly": 10296,
      "nabad": 10297,
      "ct": 10298,
      "aadir": 10299,
      "Haddii": 10300,
      "SA": 10301,
      "Cumar": 10302,
      "dhammaan": 10303,
      "suu": 10304,
      "kusoo": 10305,
      "idaam": 10306,
      "dhamaan": 10307,
      "deen": 10308,
      "saaray": 10309,
      "yaqaan": 10310,
      "faah": 10311,
      "muddo": 10312,
      "yad": 10313,
      "qaadan": 10314,
      "arrin": 10315,
      "uurka": 10316,
      "Marka": 10317,
      "Wasaaradda": 10318,
      "xigeenka": 10319,
      "14": 10320,
      "),": 10321,
      "aalad": 10322,
      "21": 10323,
      "muuj": 10324,
      "Soomaalida": 10325,
      "tey": 10326,
      "kada": 10327,
      "eg": 10328,
      "kaaga": 10329,
      "fadh": 10330,
      "dhanka": 10331,
      "May": 10332,
      "mash": 10333,
      "sugan": 10334,
      "nada": 10335,
      "horumar": 10336,
      "Shirka": 10337,
      "Hay": 10338,
      "xay": 10339,
      "uum": 10340,
      "qaba": 10341,
      "una": 10342,
      "lal": 10343,
      "Kh": 10344,
      "kood": 10345,
      "akh": 10346,
      "qad": 10347,
      "isugu": 10348,
      "aanay": 10349,
      "qalab": 10350,
      "nimada": 10351,
      "et": 10352,
      "say": 10353,
      ".”": 10354,
      "Boo": 10355,
      "Dr": 10356,
      "qu": 10357,
      "iyiin": 10358,
      "aysay": 10359,
      "Xus": 10360,
      "dig": 10361,
      "caaw": 10362,
      "dhawaa": 10363,
      "ciida": 10364,
      "Maray": 10365,
      "Cabdul": 10366,
      "dilay": 10367,
      "xarunta": 10368,
      "maalin": 10369,
      "iman": 10370,
      "aynu": 10371,
      "16": 10372,
      "13": 10373,
      "Muuse": 10374,
      "lim": 10375,
      "wasiir": 10376,
      "po": 10377,
      "kara": 10378,
      "Kis": 10379,
      "aama": 10380,
      "Ur": 10381,
      "As": 10382,
      "25": 10383,
      "maliya": 10384,
      "IR": 10385,
      "gaaray": 10386,
      "saw": 10387,
      "tin": 10388,
      "Kulan": 10389,
      "eyst": 10390,
      "shii": 10391,
      "AAN": 10392,
      "On": 10393,
      "dhaqan": 10394,
      "inaya": 10395,
      "Jaamac": 10396,
      "dhexe": 10397,
      "uary": 10398,
      "wuxuuna": 10399,
      "gaarka": 10400,
      "yinka": 10401,
      "jid": 10402,
      "Turk": 10403,
      "yimid": 10404,
      "Dad": 10405,
      "ima": 10406,
      "huur": 10407,
      "dhashay": 10408,
      "doorashada": 10409,
      "rada": 10410,
      "itaanka": 10411,
      "2013": 10412,
      "rag": 10413,
      "jirto": 10414,
      "hadii": 10415,
      "jeeda": 10416,
      "gab": 10417,
      "Xaf": 10418,
      "Hada": 10419,
      "imaadka": 10420,
      "shalay": 10421,
      "17": 10422,
      "gag": 10423,
      "danb": 10424,
      "Me": 10425,
      "Bur": 10426,
      "Guddoomiyaha": 10427,
      "ilaaf": 10428,
      "taagan": 10429,
      "eef": 10430,
      "Aq": 10431,
      "idda": 10432,
      "ext": 10433,
      "uusan": 10434,
      "Jab": 10435,
      "qorsh": 10436,
      "gacanta": 10437,
      "diin": 10438,
      "24": 10439,
      "ayna": 10440,
      "ley": 10441,
      "kuwaas": 10442,
      "eystay": 10443,
      "More": 10444,
      "KU": 10445,
      "fudu": 10446,
      "tur": 10447,
      "waana": 10448,
      "2014": 10449,
      "arin": 10450,
      "iyagoo": 10451,
      "Soomaali": 10452,
      "hoose": 10453,
      "ts": 10454,
      "mahad": 10455,
      "guur": 10456,
      "itaan": 10457,
      "ide": 10458,
      "labaad": 10459,
      "lahayn": 10460,
      "Read": 10461,
      "qarax": 10462,
      "22": 10463,
      "Dib": 10464,
      "madaxweynaha": 10465,
      "akka": 10466,
      "waayo": 10467,
      "Dar": 10468,
      "tabab": 10469,
      "lu": 10470,
      "tuu": 10471,
      "eeyeen": 10472,
      "bilaab": 10473,
      "Dhe": 10474,
      "axmaan": 10475,
      "Kismaayo": 10476,
      "iyaga": 10477,
      "balka": 10478,
      "qaatay": 10479,
      "dun": 10480,
      "kac": 10481,
      "yin": 10482,
      "AB": 10483,
      "kooban": 10484,
      "EY": 10485,
      "tooyada": 10486,
      "aamin": 10487,
      "vi": 10488,
      "Bay": 10489,
      "waqti": 10490,
      "aayo": 10491,
      "ris": 10492,
      "UU": 10493,
      "awood": 10494,
      "ity": 10495,
      "bta": 10496,
      "urur": 10497,
      "meesha": 10498,
      "Un": 10499,
      "cul": 10500,
      "howl": 10501,
      "Cabdir": 10502,
      "cyo": 10503,
      "maray": 10504,
      "taariikh": 10505,
      "urub": 10506,
      "2019": 10507,
      "Bee": 10508,
      "ال": 10509,
      "caad": 10510,
      "karaan": 10511,
      "Fe": 10512,
      "We": 10513,
      "leeyihiin": 10514,
      "mida": 10515,
      "xog": 10516,
      "hogg": 10517,
      "dada": 10518,
      "shaqo": 10519,
      "Bal": 10520,
      "waxbara": 10521,
      "aysaa": 10522,
      "ious": 10523,
      "kuwo": 10524,
      "Bul": 10525,
      "To": 10526,
      "ster": 10527,
      "dhinaca": 10528,
      "badda": 10529,
      "kad": 10530,
      "tida": 10531,
      "jirin": 10532,
      "naf": 10533,
      "Bool": 10534,
      "2015": 10535,
      "beed": 10536,
      "sharc": 10537,
      "ng": 10538,
      "isu": 10539,
      "Qaranka": 10540,
      "helay": 10541,
      "dowlad": 10542,
      "mail": 10543,
      "dhowr": 10544,
      "naga": 10545,
      "sado": 10546,
      "kuwaa": 10547,
      "iiraan": 10548,
      "afar": 10549,
      "TA": 10550,
      "saf": 10551,
      "Jamhuur": 10552,
      "caa": 10553,
      "Next": 10554,
      "add": 10555,
      "karin": 10556,
      "dooda": 10557,
      "horr": 10558,
      "Qo": 10559,
      "Dadka": 10560,
      "dhii": 10561,
      "doomiye": 10562,
      "xis": 10563,
      "baland": 10564,
      "sheegeen": 10565,
      "teed": 10566,
      "Er": 10567,
      "Aw": 10568,
      "tooda": 10569,
      "don": 10570,
      "ss": 10571,
      "Prev": 10572,
      "nidaam": 10573,
      "kees": 10574,
      "Wuxuu": 10575,
      "hur": 10576,
      "Xukuumadda": 10577,
      "xag": 10578,
      "tiisa": 10579,
      "sameeyay": 10580,
      "cun": 10581,
      "been": 10582,
      "mis": 10583,
      "oobay": 10584,
      "halkaas": 10585,
      "che": 10586,
      "igii": 10587,
      "Post": 10588,
      "Koon": 10589,
      "Ciidanka": 10590,
      "Previous": 10591,
      "Dal": 10592,
      "eex": 10593,
      "Doora": 10594,
      "sheegaya": 10595,
      "wac": 10596,
      "igu": 10597,
      "Arrimaha": 10598,
      "dhaqaa": 10599,
      "rum": 10600,
      "ona": 10601,
      "uf": 10602,
      "dur": 10603,
      "pe": 10604,
      "Gab": 10605,
      "qaada": 10606,
      "daba": 10607,
      "qoy": 10608,
      "kuna": 10609,
      "ADA": 10610,
      "dhic": 10611,
      "Aadan": 10612,
      "”.": 10613,
      "Lab": 10614,
      "ciidanka": 10615,
      "bu": 10616,
      "kama": 10617,
      "shaha": 10618,
      "dhawaan": 10619,
      "000": 10620,
      "xilka": 10621,
      "Banaadir": 10622,
      "jinta": 10623,
      "socday": 10624,
      "dia": 10625,
      "eysaa": 10626,
      "iney": 10627,
      "ast": 10628,
      "tilmaamay": 10629,
      "geer": 10630,
      "He": 10631,
      "bandhig": 10632,
      "Shacabka": 10633,
      "Kooxda": 10634,
      "Com": 10635,
      "Qab": 10636,
      "LA": 10637,
      "iinka": 10638,
      "Li": 10639,
      "dhacday": 10640,
      "beel": 10641,
      "pr": 10642,
      "sharax": 10643,
      "siy": 10644,
      "xildhibaan": 10645,
      "gir": 10646,
      "saddex": 10647,
      "hir": 10648,
      "Wada": 10649,
      "Warar": 10650,
      "iyoo": 10651,
      "idin": 10652,
      "waree": 10653,
      "Maraykanka": 10654,
      "Xisbiga": 10655,
      "jeer": 10656,
      "ck": 10657,
      "Turkiga": 10658,
      "tum": 10659,
      "Wa": 10660,
      "MA": 10661,
      "soon": 10662,
      "jawaab": 10663,
      "lar": 10664,
      "noqday": 10665,
      "…]": 10666,
      "dadkii": 10667,
      "Shii": 10668,
      "eeye": 10669,
      "Degmada": 10670,
      "The": 10671,
      "ado": 10672,
      "AMIS": 10673,
      "shaac": 10674,
      "iix": 10675,
      "tus": 10676,
      "Gan": 10677,
      "Islaam": 10678,
      "barnaamij": 10679,
      "boon": 10680,
      "ele": 10681,
      "qol": 10682,
      "[…]": 10683,
      "baan": 10684,
      "faaf": 10685,
      "Yurub": 10686,
      "dowlada": 10687,
      "doonto": 10688,
      "Loo": 10689,
      "suf": 10690,
      "dhalinyar": 10691,
      "Lagu": 10692,
      "sto": 10693,
      "jirta": 10694,
      "ino": 10695,
      "qofka": 10696,
      "iixi": 10697,
      "hogaam": 10698,
      "galka": 10699,
      "AMISOM": 10700,
      "!!": 10701,
      "Xir": 10702,
      "fudud": 10703,
      "SO": 10704,
      "Ber": 10705,
      "golaha": 10706,
      "ye": 10707,
      "Dhex": 10708,
      "imaan": 10709,
      "one": 10710,
      "Koonfur": 10711,
      "DAA": 10712,
      "dhulka": 10713,
      "Sawir": 10714,
      "Online": 10715,
      "HO": 10716,
      "fan": 10717,
      "Kal": 10718,
      "masuul": 10719,
      "Nin": 10720,
      "isaa": 10721,
      "shooyinka": 10722,
      "jiyay": 10723,
      "bir": 10724,
      "Xuseen": 10725,
      "amada": 10726,
      "sidaas": 10727,
      "dey": 10728,
      "xalay": 10729,
      "laan": 10730,
      "dambe": 10731,
      "uusuf": 10732,
      "Jul": 10733,
      "saac": 10734,
      "ited": 10735,
      "caar": 10736,
      "23": 10737,
      "Ro": 10738,
      "Xaa": 10739,
      "waj": 10740,
      "Ag": 10741,
      "ideo": 10742,
      "yimaad": 10743,
      "gga": 10744,
      "xas": 10745,
      "Guud": 10746,
      "lama": 10747,
      "gay": 10748,
      "fal": 10749,
      "KM": 10750,
      "somali": 10751,
      "xor": 10752,
      "nahay": 10753,
      "mood": 10754,
      "gad": 10755,
      "Il": 10756,
      "Shaq": 10757,
      "siiyo": 10758,
      "geed": 10759,
      "uma": 10760,
      "madaxda": 10761,
      "26": 10762,
      "GA": 10763,
      "fe": 10764,
      "shaqada": 10765,
      "Ciida": 10766,
      "wo": 10767,
      "daray": 10768,
      "Jun": 10769,
      "hawl": 10770,
      "kordh": 10771,
      "sen": 10772,
      "xisbiga": 10773,
      "Maxka": 10774,
      "sameeyo": 10775,
      "ila": 10776,
      "nab": 10777,
      "markaas": 10778,
      "Uu": 10779,
      "AAL": 10780,
      "toos": 10781,
      "Gur": 10782,
      "nax": 10783,
      "lasoo": 10784,
      "WO": 10785,
      "are": 10786,
      "aasimada": 10787,
      "yaha": 10788,
      "Sac": 10789,
      "aaran": 10790,
      "adio": 10791,
      "xab": 10792,
      "cud": 10793,
      "Gudoomiyaha": 10794,
      "dagaalka": 10795,
      "ray": 10796,
      "Sam": 10797,
      "lala": 10798,
      "xun": 10799,
      "aca": 10800,
      "Biixi": 10801,
      "Dowlada": 10802,
      "Laa": 10803,
      "Hoose": 10804,
      "kir": 10805,
      ")-": 10806,
      "amniga": 10807,
      "Ba": 10808,
      "lahaayeen": 10809,
      "thi": 10810,
      "Yuusuf": 10811,
      "Wal": 10812,
      "qodo": 10813,
      "Siyaas": 10814,
      "warbaahinta": 10815,
      "madii": 10816,
      "Ha": 10817,
      "gelin": 10818,
      "beer": 10819,
      "maadaama": 10820,
      "UN": 10821,
      "Caalam": 10822,
      "ton": 10823,
      "aaga": 10824,
      "uuti": 10825,
      "rka": 10826,
      "sannad": 10827,
      "Saf": 10828,
      "tix": 10829,
      "27": 10830,
      "Ingir": 10831,
      "lam": 10832,
      "arday": 10833,
      "ahi": 10834,
      "ari": 10835,
      "Hab": 10836,
      "siiyay": 10837,
      "aynaa": 10838,
      "uuf": 10839,
      "beeg": 10840,
      "50": 10841,
      "Deeg": 10842,
      "jec": 10843,
      "wadanka": 10844,
      "qaranka": 10845,
      "din": 10846,
      "Hiiraan": 10847,
      "fir": 10848,
      "Carab": 10849,
      "qaado": 10850,
      "leen": 10851,
      "madaxweyne": 10852,
      "fog": 10853,
      "Gobol": 10854,
      "jiyo": 10855,
      "dhaafay": 10856,
      "karto": 10857,
      "Xog": 10858,
      "por": 10859,
      "Jamhuuriyadda": 10860,
      "gaas": 10861,
      "com": 10862,
      "eesh": 10863,
      "Gaar": 10864,
      "cil": 10865,
      "Tar": 10866,
      "hanka": 10867,
      "wakh": 10868,
      "United": 10869,
      "shi": 10870,
      "khilaaf": 10871,
      "xidhii": 10872,
      "saxaaf": 10873,
      "gue": 10874,
      "mun": 10875,
      "qaarkood": 10876,
      "nooc": 10877,
      "WAR": 10878,
      "Kul": 10879,
      "shu": 10880,
      "Kar": 10881,
      "halkaasi": 10882,
      "up": 10883,
      "ine": 10884,
      "kuma": 10885,
      "sharci": 10886,
      "wuu": 10887,
      "helo": 10888,
      "28": 10889,
      "Qarax": 10890,
      "cada": 10891,
      "dhul": 10892,
      "Wad": 10893,
      "dka": 10894,
      "dawladda": 10895,
      "wit": 10896,
      "em": 10897,
      "caalamka": 10898,
      "Hog": 10899,
      "waxaanu": 10900,
      "Shariif": 10901,
      "baarlamaanka": 10902,
      "dif": 10903,
      "del": 10904,
      "hee": 10905,
      "Ciyaar": 10906,
      "yaabaha": 10907,
      "wii": 10908,
      "July": 10909,
      "Xid": 10910,
      "ace": 10911,
      "stoo": 10912,
      "Jaw": 10913,
      "doontaa": 10914,
      "labo": 10915,
      "taasoo": 10916,
      "Eng": 10917,
      "qday": 10918,
      "Gaalka": 10919,
      "xum": 10920,
      "DE": 10921,
      "taal": 10922,
      "Sep": 10923,
      "wasaaraha": 10924,
      "waxba": 10925,
      "satay": 10926,
      "Qaramada": 10927,
      "DHA": 10928,
      "Ibr": 10929,
      "garoonka": 10930,
      "tor": 10931,
      "DA": 10932,
      "Bil": 10933,
      "Ganac": 10934,
      "iidka": 10935,
      "Ethi": 10936,
      "mana": 10937,
      "meen": 10938,
      "Qof": 10939,
      "gi": 10940,
      "DAAWO": 10941,
      "aaraha": 10942,
      "Akh": 10943,
      "usoo": 10944,
      "siyaasadeed": 10945,
      "gool": 10946,
      "xo": 10947,
      "Madrid": 10948,
      "carr": 10949,
      "bin": 10950,
      "laad": 10951,
      "Pro": 10952,
      "bolada": 10953,
      "sababta": 10954,
      "yoo": 10955,
      "IL": 10956,
      "Ethiop": 10957,
      "Jubbaland": 10958,
      "dow": 10959,
      "dac": 10960,
      "sanadkii": 10961,
      "sada": 10962,
      "Nuur": 10963,
      "qoraal": 10964,
      "Ca": 10965,
      "caafimaad": 10966,
      "Cusub": 10967,
      "biir": 10968,
      "cc": 10969,
      "pa": 10970,
      "eynaa": 10971,
      "darteed": 10972,
      "adu": 10973,
      "uus": 10974,
      "DF": 10975,
      "waliba": 10976,
      "Jabuuti": 10977,
      "maxaa": 10978,
      "kalena": 10979,
      "jii": 10980,
      "Mal": 10981,
      "Radio": 10982,
      "idka": 10983,
      "suur": 10984,
      "sato": 10985,
      "jib": 10986,
      "Wasaaraha": 10987,
      "lee": 10988,
      "29": 10989,
      "sawir": 10990,
      "??": 10991,
      "kaasoo": 10992,
      "safar": 10993,
      "Con": 10994,
      "qas": 10995,
      "kel": 10996,
      "Waq": 10997,
      "dam": 10998,
      "Qur": 10999,
      "Dhag": 11000,
      "Magac": 11001,
      "kari": 11002,
      "uq": 11003,
      "mus": 11004,
      "Apr": 11005,
      "Dan": 11006,
      "net": 11007,
      "muuqa": 11008,
      "ahaayeen": 11009,
      "doonka": 11010,
      "Buu": 11011,
      "Lea": 11012,
      "kaddib": 11013,
      "Mur": 11014,
      "Hadda": 11015,
      "AS": 11016,
      "gaadh": 11017,
      "illaa": 11018,
      "eedu": 11019,
      "Xaaji": 11020,
      "Dagaal": 11021,
      "idiin": 11022,
      "Nabad": 11023,
      "haatan": 11024,
      "ariis": 11025,
      "Somaliya": 11026,
      "dalalka": 11027,
      "KMG": 11028,
      "Ju": 11029,
      "xii": 11030,
      "Gaalkacyo": 11031,
      "ff": 11032,
      "Da": 11033,
      "burbur": 11034,
      "tababar": 11035,
      "run": 11036,
      "daro": 11037,
      "tarta": 11038,
      "June": 11039,
      "her": 11040,
      "gg": 11041,
      "Jo": 11042,
      "email": 11043,
      "keena": 11044,
      "caafimaadka": 11045,
      "aabta": 11046,
      "dambeeyay": 11047,
      "Qay": 11048,
      "Booliska": 11049,
      "Madaxweyn": 11050,
      "dhiga": 11051,
      "sameyn": 11052,
      "tr": 11053,
      "tagay": 11054,
      "Sa": 11055,
      "Bulshada": 11056,
      "tartan": 11057,
      "islamarkaana": 11058,
      "ments": 11059,
      "yeelan": 11060,
      "adk": 11061,
      "Laga": 11062,
      "kk": 11063,
      "dho": 11064,
      "horay": 11065,
      ",”": 11066,
      "difaac": 11067,
      "sidaa": 11068,
      "awoo": 11069,
      "qabto": 11070,
      "kulanka": 11071,
      "jireen": 11072,
      "dheeraad": 11073,
      "lahayd": 11074,
      "Sax": 11075,
      "raj": 11076,
      "Xarunta": 11077,
      "Midowga": 11078,
      "caq": 11079,
      "biga": 11080,
      "dhismaha": 11081,
      "2020": 11082,
      "shaqeyn": 11083,
      "jooga": 11084,
      "beesha": 11085,
      "garan": 11086,
      "Gaas": 11087,
      "gabad": 11088,
      "haya": 11089,
      "Real": 11090,
      "tac": 11091,
      "pm": 11092,
      "liga": 11093,
      "Sare": 11094,
      "Maq": 11095,
      "Dhin": 11096,
      "bixinta": 11097,
      "nuu": 11098,
      "socon": 11099,
      "Rab": 11100,
      "itti": 11101,
      "Guddiga": 11102,
      "Oromoo": 11103,
      "acay": 11104,
      "eerka": 11105,
      "dhala": 11106,
      "hoggaam": 11107,
      "labad": 11108,
      "Laakiin": 11109,
      "Markii": 11110,
      "Ilaa": 11111,
      "afka": 11112,
      "badbaad": 11113,
      "eedyada": 11114,
      "kr": 11115,
      "habeen": 11116,
      "fay": 11117,
      "Dawladda": 11118,
      "aaso": 11119,
      "Qaar": 11120,
      "SI": 11121,
      "quuq": 11122,
      "wasiirka": 11123,
      "Hir": 11124,
      "nta": 11125,
      "keessa": 11126,
      "luu": 11127,
      "biyo": 11128,
      "chester": 11129,
      "con": 11130,
      "Faar": 11131,
      "shka": 11132,
      "tiin": 11133,
      "halkan": 11134,
      "qaran": 11135,
      "kin": 11136,
      "shiga": 11137,
      "ahna": 11138,
      "son": 11139,
      "aanyo": 11140,
      "uuna": 11141,
      "rasmi": 11142,
      "gaab": 11143,
      "Mun": 11144,
      "cus": 11145,
      "ciidan": 11146,
      "dhab": 11147,
      "per": 11148,
      "geys": 11149,
      "ja": 11150,
      "tember": 11151,
      "rin": 11152,
      "aarka": 11153,
      "bishii": 11154,
      "talaga": 11155,
      "miga": 11156,
      "samayn": 11157,
      "dawlad": 11158,
      "Diyaar": 11159,
      "dhaca": 11160,
      "iise": 11161,
      "AAD": 11162,
      "Madaxda": 11163,
      "magacaabay": 11164,
      "stay": 11165,
      "shaqaalaha": 11166,
      "magaal": 11167,
      "NA": 11168,
      "shaan": 11169,
      "Qa": 11170,
      "Dhal": 11171,
      "Manchester": 11172,
      "bool": 11173,
      "dhintay": 11174,
      "ikh": 11175,
      "irra": 11176,
      "dhaqanka": 11177,
      "Ururka": 11178,
      "aakiisha": 11179,
      "diray": 11180,
      "goor": 11181,
      "irobi": 11182,
      "galeen": 11183,
      "tiij": 11184,
      "inter": 11185,
      "xaaf": 11186,
      "yaalka": 11187,
      "Augu": 11188,
      "Imaar": 11189,
      "kani": 11190,
      "goobta": 11191,
      "cda": 11192,
      "Ethiopia": 11193,
      "US": 11194,
      "dhe": 11195,
      "baaqay": 11196,
      "socod": 11197,
      "xukuumadda": 11198,
      "oowe": 11199,
      "dooyinka": 11200,
      "mka": 11201,
      "Dab": 11202,
      "Xub": 11203,
      "wadaag": 11204,
      "kugu": 11205,
      "ph": 11206,
      "August": 11207,
      "daac": 11208,
      "Barnaamij": 11209,
      "sab": 11210,
      "qada": 11211,
      "Kha": 11212,
      "garab": 11213,
      "aasimadda": 11214,
      "guda": 11215,
      "qaabil": 11216,
      "bilow": 11217,
      "April": 11218,
      "dub": 11219,
      "gelinta": 11220,
      "Nairobi": 11221,
      "xiran": 11222,
      "oow": 11223,
      "waaweyn": 11224,
      "Beesha": 11225,
      "Dhaq": 11226,
      "aahir": 11227,
      "League": 11228,
      "intaa": 11229,
      "maxka": 11230,
      "wor": 11231,
      "Ja": 11232,
      "Ruu": 11233,
      "shad": 11234,
      "dhima": 11235,
      "iisu": 11236,
      "ft": 11237,
      "cto": 11238,
      "daab": 11239,
      "wiil": 11240,
      "sharciga": 11241,
      "dhabo": 11242,
      "xukun": 11243,
      "Wakii": 11244,
      "hat": 11245,
      "dhaqaalaha": 11246,
      "guna": 11247,
      "galo": 11248,
      "Bad": 11249,
      "waxy": 11250,
      "siyada": 11251,
      "Cabdiraxmaan": 11252,
      "gala": 11253,
      "ld": 11254,
      "dunida": 11255,
      "daree": 11256,
      "weydii": 11257,
      "tiro": 11258,
      "dhibaat": 11259,
      "January": 11260,
      "edda": 11261,
      "Siil": 11262,
      "Inter": 11263,
      "Waxaad": 11264,
      "Kor": 11265,
      "cember": 11266,
      "kulmay": 11267,
      "Min": 11268,
      "waf": 11269,
      "qalabka": 11270,
      "BC": 11271,
      "Faarax": 11272,
      "imi": 11273,
      "Lon": 11274,
      "bera": 11275,
      "Fil": 11276,
      "saaro": 11277,
      "pi": 11278,
      "Posted": 11279,
      "xubnaha": 11280,
      "Gaad": 11281,
      "talagalay": 11282,
      "celona": 11283,
      "AH": 11284,
      "December": 11285,
      "Ko": 11286,
[...]
